1111111110101110
1111111111111111
10010110
10
10000011
1111111111111011
1111111100010001
11101000
1111111111001011
111001
101110
11100100
1111111110101100
1001010
1111111100101111
1111111111110110
1111111111001010
0
10100011
1110011
1111111110111010
111101
1111111101110010
11111
1111111111001001
1111111110011000
1100010
10111
110001
1111111111110001
110010
1111111111101011
1100110
11110110
10001101
1111111111110011
10011100
1101110
1111111101111001
1111111101101001
110101
1111111111000101
11100101
1011010
1111111011111111
1111111101001011
1111111111110100
110
1111111100111000
1100
1111111111011111
1111111111011010
1011000
1111111111110101
11011001
11010100
1111111110111010
1111111110111101
1111111110100000
101101
110101
10010000
1011010
11110110
100
10011
100001001
11100110
101101101
1000100010
1000101001
1010001000
111110001
1111111111011001
1111111111111001
1111111111000011
111
100110
1111111101000000
1111111100100011
1111011
11
1111111101011100
100100110
10111010
1001100
11010100
10010011
101011
1111111101011111
111010
1111111111100101
1111111100100011
10000
1011111
1111111001100011
1111111001010111
101111
101000001
1001010101
1000011100
100111111
101111101
1010100110
110110
1011010011
100111011
101000
111001
1111111111000010
1111111011010011
1111111110100001
1110111
100000
1100011
1000000
1111010
1011001
1111111011011101
1111110111100001
1111110101110110
1111111000011111
1111101101100100
1111101110000110
1111110101101101
1111111101001011
110100111
1111111111111110
1010110111
1100000011
10011000
11100101
1010011
110100000
1010111011
110111100
1001101
100110000
100010001
100110100
1111111101000110
1111111110000100
1111111100000000
100110
1111111111100110
1111110101000101
1111111011001110
1111101110110011
1111110101001111
1111110111111111
1111110001110000
1111110101011100
111110
1111111100111110
1111110111100000
1111110110100000
1111101110010010
1111111100011100
1111111110000000
1110111
1010001011
1110101010
1100101111
10010010110
1001111001
111110011
1111
10110011
110011
1010010
0
1111111110000001
1111111001101100
1111110100001110
1111110011111010
1111110100010100
1111110100101100
1111110100110100
1111110111110001
1111111011110110
110100001
1111111000001101
10110110
110101
1111110110110101
1111110011010110
1111111001100011
1001100000
10101101001
1011110011
111011100
1100010110
110010010
110000101
1111111101000111
1110101
1111001
1111111100001111
1111111101101101
1111111010010110
1111111011000101
11111010
1111110100111010
1111111001110000
110010
1111111111111110
1111110101110111
1111111000101111
100101
1000000101
1010101110
10001010101
1010000010
1000000001
111000000
1111111101111011
110111101
1110100001
1010110010
110011
101101111
10011011
110000
1111111111110011
10110001
10001
1111111101011000
10100111
1111111101111110
110101011
10000000
110000100
100000000
1111111110101110
1111111101101101
110100010
1111111110111101
110010011
11
111111111
1111111110111111
1110010010
111000110
101001011
1111111010101010
1111110100001000
1111111000110001
100011010
1111111001011001
1111111101110011
1111111110100001
1111111111110111
100011
1111111111011100
10000001
1111111011101001
1111111011111001
1000010100
101000000
11011011
101110010
1101000101
1001101110
1111010101
1000101100
1111110101111111
1111111001000010
1111110111111010
1111110011010110
1111101100110011
1111101011011001
1111111000010111
1111110000110001
1111110110111001
1111110010110010
101
1111110100010010
1111110100001001
1111111111010011
10110
1111111101101011
1110011
1111111110100110
1111111001011100
1111111100111111
11011010
10010001
1010010101
1001101101
1000000011
1011011001
1101010100
11011001
1111110101111111
1111110100111010
1111110000110010
1111100111110010
1111011111111001
1111110001111001
1111111010111101
1111100011011010
1111101000110011
1111101110010001
1111110001111111
1111100111001001
1111101011110110
1111111101001000
101111
1010110
1001111
1111111101011111
1111111000010000
1000010
111000010
110101111
1001110101
1101001000
1000000110
111101000
101011100
1111111101111001
1111111111000001
101101000
1111111011010001
111001
1111100101011000
1111110100101111
1111101111001010
1111110110001110
1111101111010001
1111110101110001
1111110100000001
1111110110010101
1111110110101100
1111111100001001
1111111111100110
111000
1111111111111011
1111111110100111
1101111
0
1111111001111110
1111111001101111
100110010
1000101111
11010011
1111110100010001
1111111101100001
1111110101000010
1111110101100101
1111111011110110
1000001010
1101011
1111111101011110
1111110001011110
1111110100011000
1111110111010111
1111111101110000
1111111001010110
10011110
111110011
1101110
1111111111000100
1111111111001010
1111111101000110
1111111111001011
1111111110111110
1111111111111111
1111111010011011
1111110001111101
1111110110011000
1111111101111001
1111111010110011
1111111111111100
1111001
101001101
1111110111011101
1001101010
10001111001
11011101010
101010011
110111110
1111111001100001
11001101
11101010
1111110110100000
1111110111001110
1111111011101111
100001010
1000001000
11001100
1111111111000110
101011
1100000
1111111111100111
110010010
101001000
1111101111100110
11110
1111111111011110
1111111100001101
1111110111000010
1111111111001011
1001101
1111111001111111
11010001
1000011011
1101011010
10111111001
11101001
1000010
100010101
1110
1111101010101001
1111111001000000
1111110110100000
1111110011110111
11111111
10001101
1111111100001110
1111111101111001
1111111110110011
10101
10101101
100100010
1111110011110000
1111111100110010
1111111111011001
101011100
110010100
111010010
1011010000
110100000
101110010
1001101100
111100
110011100
110100001
100100101
1111110001000110
1111100101110011
1111110000100101
1111111010010001
1111110001011010
1111110010001010
101011111
101101001
1111111110001110
1111111110011111
10010111
1111111110011100
1111111111011111
10100
1111110110110101
1111111111100101
1001101001
1000101101
10101001110
10001110000
10100011001
11011100011
10011011000
10111101101
1100110011
101010101
1111111101101001
1111110011111110
1111101011100101
1111100100101010
1111110110010000
1111111101010100
10110
1111111101110011
110000101
10010010
1111111110110001
1111111101110110
1111111110010011
1111111111101101
1111111111010011
1101010
1111111101110111
1010011111
1100110101
11101101
1111001000
11100000100
11101100110
11010101001
11011101001
10101111100
1101110010
1111001
1111111010110010
111010
1111110100010001
1111110001101001
1111111111001001
1111111111001111
1111111111100101
1111111110010111
11011000
100110000
111110
1111111111001010
10010100
11100
1111111110000101
10011000
10010001
11111000
11100111
1111111000101000
1111101
1111111000011110
1111111001001101
111001011
10011110100
10011100011
11001101
10110111
1111111100010110
10010111
100000100
1100011001
11010010
1111111111100010
110000111
10010011
111111001
1111111101111011
1111111110101100
10100101
1111111111111011
100
1111111110011111
1111111111100011
110001111
1010110100
1111111100010100
1111110111011110
1111110011010001
1111100010110110
1111101111001100
1111110000000010
1111111010110011
1111111100000101
1000101
1111111110010011
1111111101000011
100101011
1000110010
111001
1100000
1101001
10100101
100000111
1111111111010010
110111
10000101
1111111110111001
11001
1111111111001011
1111111101011101
1111110111111000
100000110
1010101010
1101110
1111111101011010
1111101110110011
1111101001010000
1111101001100101
1111100111011100
1111011011111110
1111101010100100
101111101
101111111
1111
1001100001
111010100
111111101
1001100110
100111100
110000101
110
11011110
1111111101111110
10010001
1111111011101101
11111011
1111111100011111
1111111010000100
10110001
100001
111001000
1111111011010100
1111111011101010
1111111111100101
1111111000011001
1111111011100101
1111110001110001
1111110110101001
1111111110101011
1111111010101110
1111111110100000
11011110
110100010
110011100
10001010000
10010011001
1001110010
1011010110
10110011
100001011
1111111110100011
1111111101110100
1111111101111100
1111111111110000
10100
1111111111000110
10010000
1000011101
1111111100111110
1111110111100010
100000
1111100
11000010
101000
1111110101001011
1111111111000100
1100110
1111110011011100
1111110001101010
1111111000010010
10101000
1000001101
10010100000
1011110111
11110100
100111011
101001101
11011101
1111111100100001
1110001
1111111101101000
1111111111001001
1111111101011001
1111111111110111
1111110111100110
1111111001111110
1111111011111110
1111110010111011
1111111100000101
1111111100111111
1000101110
111000
11000011
100000101
1101
1111111001010011
100
100000
110110010
1101110100
10010110111
1011001010
110101010
10100011
101101
10100111
1111111
1100111
1111111110111010
10101100
1111111111100100
1111111011111110
1111111010111101
1111111010000110
1111111010000110
1111111010100111
1111011001
11011100010
11000011110
10010110011
1111010101
1001111111
1010100001
1000000011
1010001111
111001010
10111000001
10011110010
1101010001
1000011110
110010101
1111111111001000
100001101
100001
1011101
1111111110001000
1111111101011110
110010
1111111110000000
1111111010011111
1111111101011111
1111110111100101
1111110100101001
1111111110001111
1011101000
1101000001
100101101
1111111101111110
11111011
101110111
11110100
10111001
1111111101111100
100000111
1010000011
111101110
1111110
1001101
11101
1111111011001001
10010011
1111111111001111
11
1001101
1111111101011111
10010
1111111100101111
1111111111101111
1011010
1111111100010111
1111111111010000
1111111001011100
1111111100011101
11000101
1111111010001110
1111111001010010
1111111001011011
1111110110110001
1111111000110010
1111111100000010
1111111110101100
1111111110100100
1111111101111101
1111111110101101
111001
1111111110110111
1110010
1111111110111100
1111111101100001
1111111111010000
101010111
1111111110110101
11000011
1111111101001100
1111111100001100
1111111101101100
100
10011110
1000
1110
1111111111100100
1111111110100001
1111111001110010
1111111110101111
1111111111011000
1100
1111111111011100
1001100
1111111111000000
1111111111010111
1111111110111101
10010011
1111111110101110
10011010
100110
1111111010111110
1111111110001100
110111
1111111111010010
1111111100110010
