1111111101111000
1100
1111111100100110
1100111
1010001
100001
11001111
10111
1111111111100110
1111111100100011
1111111110010111
1111111110101010
1111111110110111
1111111101010000
1110101
1000001
1001111
110011
1111111110010011
1111111111100001
1100001
1011100
1111111111100110
1111111110100000
11001
1111111111111000
11000101
0
1111111101011010
1011
100000
1000010
1111111110111110
1001
1001001
1111111110010001
110100
1010011
1111111111001100
1111111100010100
1111110111100001
1111111101010111
1101
1111111110010111
1111111001110010
110000
1111111111010001
1111111100101010
1111111110011001
1111111110110110
111001
11000111
10100000
1111111110011011
1111111101011001
1111111101000010
1111111101010000
1000100
1111111110011010
100001
1111111110101111
10101
1111111111111101
1111111110011000
1111111011101111
1111111110001001
1111111100011110
1111110101110001
1111111001000001
1111111101001100
1111111011010111
1111111010100110
1111111011010110
1111111001000101
1111110111110000
1111110111110101
1111111011011011
1111111001111010
1111111100001011
1111111111111001
1111111111001011
1111111111110101
1111111110011000
101011
1101111
1111111110000100
100100
1111111100111101
111111
1111111011000111
1111111101110101
1111111101111000
1111110111100011
1111110110001001
1111110101000110
1111110111010100
1111110000001100
1111101010001110
1111101001110010
1111100111001110
1111101011011111
1111110100010101
1111110111111010
1111110100011011
1111111101001000
1111111010111110
1111111010011101
1111111101110011
1111111101101010
1111111101111000
11110
1111111100101001
101010
1111111110001110
101110
1011100
1111111111001100
1111111100110001
1111111100010101
1111111001111001
1111110101100001
1111110000011011
1111110011011101
1111101001100011
1111100101011010
1111101010000001
1111101111101000
1111101010100110
1111100000010110
1111100110011101
1111101011000111
1111101111101100
1111110110010110
1000101011
1100001011
1000000111
100000010
1111111100001000
1111111111100111
100001011
1111111110100011
10011001
10011
1111111110010001
10011
10111001
1100101
1011000
1001010001
1001011011
1111111101100011
1111111101110100
1111101011001011
1111110001000001
1111110001110111
1111110101011111
1111100111111011
1111101101011100
1111101000101101
1111100011101110
1111101110100010
1111101110101001
1111111011001001
1100101010
1111111110101000
1111111010011010
1111111110111111
1100011
10000100
11100
1111111101110110
1111111101110110
10011111
1100100100
10111001111
11000000011
100000110101
10101111100
10001101
111001010
1000101010
1111101111011100
1001011
1001001
1001010010
100011000
10010011
1111111011011011
1111110011010101
1111111110101110
1111111001100101
1111111011000110
1111111001011010
1111110110011011
11100010
1110
1111111111010011
1111111101000101
1111111110110101
110101110
100111011
1111111101110110
10010100010
1011010000
1111111111111001
10010100
100100011
1111111010101111
1111111010111000
1111111001111111
1111110110011110
1111111011001001
1111111000101010
1110100
1111111101001101
110100010
1111111101101010
1111111010001011
1111111101100101
1111110110101011
1111111000001101
1111111000111011
1010101
1100000
1111111100010000
1110000
1111111111110001
100100101
10111100
1111111011100100
1010010
1111110110011111
1111111011000111
1111110111100011
1111110100011011
110011111
1111111010001000
1111110010100101
1001110001
1000101011
1111111010001101
1100011111
10011110011
1111110011111001
1100111001
100000100
1111111100000110
1111110111010000
1111111010110100
101010
101101
10101000
1111111110011001
11111
1111111110011101
11110111
110010001
111010100
1111110111110001
1111110110011110
1111110010100010
1001101
1100010000
1000000001
111010111
1111111110010000
1110101100
1111111101001001
1001
101111101
10010101
1111111
1111111010100000
110111011
1000000000
1111100000001000
1111110100100000
1111110011011101
1111111010011001
11101001
111110
1111111101001101
10001100
101101111
100000110
101010110
1111111011011110
1000101101
1111111111101011
10101011001
1111111111010010
1111111010001110
1100001100
1111111001010001
1111100111101110
10111111
1111111100100111
11
11110000
101000001
1111110011101100
1111101110000111
1111111100111101
1111100101110001
1111101010100110
1111111001100111
1111111011111111
10101110
1111111110110010
1111111110101001
101001010
1010001
1111111110001001
1111110100110010
1111111110001101
10101000101
100001101
10100010011
1111111101111001
1101100101
1111010
1111100100101100
1111101011101000
1111011001
1101111101
11001001100
1000010001
11111110
100011101
1111111101011110
10110001
1000111111
1111110101001001
1111111010000010
1111111100111111
1010101
100100
1100101
10000100
1111111010010011
1111111111100001
1111111101010110
1111111111000111
1100010011
1100111100
10110101
1101011100
10001001111
110010101
1111111100100001
1110010
10001101111
1010110010
111000001
11001010110
1100100101
1010100001
1111110011101100
1111111111110110
1111111101111110
1111110001111001
1111111011001101
110011
1100100
1111111111010001
1111111110010100
10000001
1111111011000010
111111001
101101110
1110010
1100011010
1111111
1111111100110110
10011111100
1010111101
1111111010101101
1111110010011011
110100110
1000010110
101000010
11000101110
10101111
1010100000
1100111011
110010000
1111111011011110
1111110011111101
1111111101100001
1111111010101110
1111111101010101
1111111110101101
10110010
1000011
1110000
0
1000111010
1000101011
11110110
10111001
10100110
110010000
1000101101
1101001000
1111111011101111
1111111111110001
1110000000
10011110000
1110100001
1100011010
1100011101
11111000111
11100000110
10100110011
11001111011
1011011110
11110
1111111111010111
1111111110010101
1111111110010011
1111111110111001
1111111110010110
1111111101011110
101000010
10010100011
1111000100
10000100001
11101011
1111110111001111
1010001
1111111110110011
1001101101
1111110011100001
1111111000011011
100101000
10011111111
110111110
10110000001
10000000000
11111011000
1110110101
11001011101
11000100110
111010011
10010
111100
11010
1111111111010110
1111111100110111
10001101
1111111111101100
101110001
10001101001
1111011111
10111111011
1110000000
100001001
1111111100101111
1100101
1001100
11111111
1111110011000101
1111111010110010
1101001011
1001011010
111000100
10001100000
1010100010
11111100100
1101100110
101100
1111111011011110
1111111101000111
1111111011001010
11111101
1111111110111111
1111111111011000
1111111110111100
10100010
1111111101010001
11100101
101001001
1001111010
1001001110
10011110100
100111100
1111111001010011
101100101
1111111001101110
1111110111000011
100110110
11010011011
10101001101
10000001001
1011111110
1111111101010101
1101100011
111001000
1111111010100100
111111
1111111101010011
1111111111001001
101100001
1000011
11000111
11011
1110101
1111111000101011
1111111111010001
1111111110110111
1111111110111010
111001011
10001101101
10000001011
11000010100
10111100000
1011101010
1100111001
11000001000
10111011011
10100100010
10001101001
101100110
1111111001000010
1111111001001000
1001111111
1111101011000001
1111101110100011
1111110010101110
1111111111101110
100110111
110110
11001000
1111111110111111
101
1111110010101011
1111111100110010
111
1111110100000110
1111111111110001
1111111111001111
11101101
1111111110100110
1100111010
1101100101
1110000110
1100110101
1111111111000110
100010000
1111100111101010
1111101101011110
1111110100110011
1111100000000101
1111110100001010
1111100100110010
1111011000000000
1111101100011010
1111111100110000
1111111100101000
1100110
1011110
1111111110010110
1111111111001101
1111110100011001
1111110000101011
1111110110111011
1111101000111111
1111100110111101
1111011000100011
1111100010001110
1111101101010101
1111111011000110
1111110001011101
1111101111000011
1111101101011000
1111101010110111
1111101100101111
1111011100000010
1111101001011000
1111101011111101
1111011010000100
1111010111001001
1111011111000001
1111011111010010
1111110010100110
1111111011010100
111111
10011
10001111
1111111111101001
1111111110000011
1111110011100001
1111101011111001
1111110010001010
1111100000111010
1111010100000001
1111001111010100
1111011100010011
1111010100110001
1111011001100111
1111011010110110
1111010010110101
1111010110001001
1111011110010100
1111101011101011
1111011100111111
1111101010000001
1111110001111111
1111100111000000
1111100000011000
1111011101001001
1111100001010111
1111111001110100
1111111011100000
0
10000
10101010
1111111110111000
1111111100110110
1111111101001000
1111110111110111
1111110001100000
1111101001100000
1111101001110010
1111110001101101
1111101111101001
1111011100100100
1111100100011001
1111101001011001
1111100011110100
1111101000101100
1111101010111001
1111101001111110
1111110000010110
1111110110011100
1111101000101111
1111110000100111
1111100011000110
1111101001101111
1111101110011000
1111111000100001
1111111101100001
10011011
110100
1111111101101001
10101011
1111111100101111
1111111011101101
1111111011110100
1111110000101111
1111111011000100
1111111001101011
1111111000111110
1111110001100011
1111110110101000
1111110100001011
1111110000000111
1111110101000100
1111101100000010
1111101010001010
1111100100010110
1111110100010000
1111101001101101
1111101010100101
1111110100110100
1111101101101111
1111101101101001
1111110101010010
1100
1111111110011111
1111111111011011
0
101000
1010000
1111111100011010
1111111111010100
111
101010101
11011111
1
1111111011101011
1111110000110110
1111101011110011
1111101111010001
1111100010010000
1111110000111100
1111100000100000
1111100101101111
1111110000111011
1111111110001111
1111101010011000
1111100111110100
1100111
10111111
1111111011000100
1111111110101110
1111111110110011
1111111110110100
1111111101000001
1100001
1111111110100101
10000010
10000
11101111
111000111
1101011110
1111010
101010000
1111111110000000
100100
1111110101011111
1111111001110111
1111101100110000
1111110110111011
101110
1111110000100000
1111110100110101
1111100111000110
1111100111000100
1111101111110011
1110001
10111101
10001100
11010
1111111110100001
1111111110001000
1111111111000111
1110100
1111111111110010
1111111100110011
110111
1111111101011100
1111111110100101
11001101
11111010
1001010000
1100101100
10000100100
1011001000
1111111101010101
1111111001101011
10100000
10110001111
110000111
1111110100101010
1111111000001111
1111111101110100
11
100110111
10011110
11010111
10010
1111111101011101
1111111101111100
1111111101101110
100111
10
1111111110000111
10101
0
1111111110110111
1111111101110110
110101
1100
1111111011111001
1010001
1111111110110110
1111111111110100
10000100
101101
10110011
110
1111111111011000
100000001
10011101
11001
10101001
1011110
11000
11001001
110011
100111
10
1111111101001001
