1111111111000010
1111100
1111111110011011
1010110
1111111110001100
1110000
100000
1111111110000011
10010000
101100
1101111
1111111100101001
111111
1111111101010110
10011100
1111111111010010
1011111
1111111101010110
110111
1111111111010110
1000110
1000010
1111111110001101
1100010
1111111110010111
1111111100011001
10101000
110111
1111111110111111
1111111110101001
101110
1111111110110100
1011001
1100
1111111111000001
10001100
1001
1111111110000001
1110
111
1111111101000111
101100
1111111111000000
1111111110011111
1001
100
10100001
1111111100000010
1111111101000001
1111111111110111
11100001
1111111101111011
1111111100101110
1111111111010001
1111111110000101
1111111111000110
11111
1011
1111111111011111
1111111100110110
10011010
10001
1111111010101110
1111111110100001
1111111100110101
1111111000111100
1111111101110111
1111111101101011
1111111001110101
1111110101111000
1111110010000001
1111110111101100
1111110111001110
1111110111011010
1111111010001110
111111101
11111000
110111
101010
1100011
1111111111000001
1111111101100101
1111111111011101
1111111100111011
1100000
1111111110111111
1101010
1111111011101101
10010
1111111111000111
1111111101100000
1111111101000000
1111111100001101
1111111001010100
1111111111110111
1111111011111011
1010111
1111111100010000
1111111111111101
100110110
1111111110001100
1111111011101000
1100101
1111111001011100
1111111110010010
1111111010100110
1111111110111010
1111111110010010
11010011
100011011
111111
10111
101101
1111111101101010
1111111111111011
1111111110010000
1111111111011101
10100111
100001100
101011101
110001011
1010110011
1010001100
101011011
101011011
1100
1111111111110010
1001001100
1011000
1111110000100101
11111000
1111110101011100
10110100
1010100011
1111111111011100
100111011
10100010000
1010011100
1111111101010000
1001
1111111110100100
1111111101111010
1111111111011111
101110
100101010
111011100
1000001011
11011001
1111111100100010
110101000
101011011
1111111110001101
1111111010101010
10000010
1111111111101001
1111111111101110
1001111001
1111101101000011
1100101
1000000100
1111111111011111
1111110111101110
10100111
111010000
11111101
111011011
1011000
10111100
1111111101000100
11011111
10011001
1000001
11101100
110011111
11100101
1111111110000010
110
101011
1111110110110011
1111110011101100
1111111010011110
1111111111010001
1111111110010000
11011100
111110011
111101001
1111111110101100
1111110110111011
1111111001011101
1111111101101001
100111111
1010101110
1100100110
101011111
1011001001
11110100
1111111111010110
1111111100110100
1111111110100100
10101110
1010011
100000100
10111100
1111111010000010
1111110100111110
1111110001000011
1111111001100010
100011010
110000001
101010111
1011001100
10110
1111110111101110
100101100
1111110000011110
110111110
10000101000
1111111011010101
10010011
10010110
1011110000
1010000111
1011111
1111111111111000
1111111111110010
1111111101011001
1111111110101000
1111111110101000
100100010
11010011
1111111111010000
1111110000000100
1111111010001100
110100
11110
11101111
1111110011001000
1111111000001100
1111110011111100
1111110101101011
1111111010101101
1111110111110000
1111111011011111
1111111000011001
110000011
111100000
1000100000
1001001
1110001101
1011101101
1010010
1111111111101011
1111111011111011
1000011
1111111101011101
100100010
100111111
1111111010100011
10100010
1111111111001010
111101110
1111111100000011
10101
1001010011
111101011
100011111
11011001
100101010
1010010
111011001
1111110000001110
1111100011101010
1111110000110110
10111111
1100011001
1111111000110110
1011100000
1110001011
10011010
1111111110100001
101110
110001
1111111101100111
101000111
11000111
1111111100111001
111111010
111101101
1001101011
1111010011
100111
1000101010
1010110111
1111000010
10111000110
1110101111
110011110
1111111011001100
1111110100011010
1111111011011000
1111110101111100
1111111100001001
1111110101011010
10101000
10000100111
10101101110
10010110
1111111111011110
100110100
11111
1111111111110011
1101
1100010
1111111011000100
11111111
1111100
1010100110
111000101
1111111011000011
1111111011001000
1111111101010011
110010
10001100101
1100000011
1111111101111010
1010010000
1101001010
1111111101011101
1111111000001000
1111110010110010
1111101100001101
1111111011000101
11000011
1111100010
11101001
1111111111010101
1111111111111000
1111111101111101
1111111111100011
1111111111100000
1111111010000001
1111111001000110
1111101101111010
1111111011011010
101101000
1111110111001100
11101001
1111110010100010
1111111011101110
1111010011
11111010
1111111001111000
1000001110
1101101
111111011
1111111100010110
1111111101110011
1111101100010111
1111011110100110
1111100000011110
1111101001000001
1111111011001000
1111111111111010
1111111101011100
1111111111101110
1111111111101010
1111111111100101
1111110111001101
1111111000010101
1111110111011000
1111101111111100
1111111101111101
1001110000
1111111010000000
1010011011
101101001
10010110110
1100010101
1111100010
110001111
1111100010
1111110111111000
1111110111111001
101110
1111111001110101
1111110111001100
1111100110001001
1111100010111101
1111101110001100
1111111000000011
1111111010011010
1111111010100100
101
1000000
1111111110001101
1111111001000110
1111110100110000
1111101000110101
1111010111101011
1111100000011011
1111101000100001
1111111100011101
1001010000
10111001001
10001010110
110001010
1111110110101111
1111111110111011
1111111000111101
1111111111001000
1111110111100111
1111111001111001
1111111010010001
10011100
1111110110000001
1111101100101111
1111110100101101
1111110101000111
1111111001111100
11101
11111
1011010
101
1111110110001000
1111110001010011
1111101111111010
1111100111100001
1111011011000110
1111001100000101
1111010010011000
1111101010101011
1111111000011010
1000101
1111111001011000
1111111001000100
11110
1111111111101000
1001000110
1111110111101101
1111110
1111111111101010
101100101
1111111111111110
1111111011111111
1111110011000001
1111110001110111
1111110110110001
1111111111011001
11011100
1100
0
1111111011111111
1111111000101000
101000
1111111110101011
1111101000011000
1111010111101000
1111000011011110
1110111011010011
1111000110000101
1111010101101110
1111101010001000
1111110010011100
1111110100100010
1111110100010111
1111111110010010
1111110110011111
1111110111101100
111111110
1001011001
110110101
1111111000100011
1111101001101100
1111101100110100
1111111011110111
1111111110101101
110100
101011
1111111111000101
11111
111010000
1001111110
1101011111
10000011
1111110110001011
1111101000010100
1111010111111011
1111011001110000
1111010011100100
1111100010011001
1111100110011111
1111100100001010
1111101101111101
1111111001001110
1111111100011001
1101
10001100
1111111100001000
1111110100111010
1111111000000100
1111101110000011
1111110100011111
1111111001101100
1001011
1111111100101010
1111111111010100
1111111101111101
1011101110
1010101001
10010111010
11000100111
10011001000
10110010010
11101001010
1011000100
1111111111111101
1111110110011000
1111110000001011
1111111010001101
1111110100011111
1111110000111011
1111111101001111
1111110110010111
1111111110001011
1111111001001111
101011000
1111101100101000
1111110001110010
1111110010000111
1111110100011100
1111111011000100
1111111111111111
1100
1111111111100001
1111111110111011
111100110
1010011010
1111111000
1010010111
110000001
1110110101
1110000000
11001110011
10100111101
1001000000
1011111
101001111
1111111011010111
1111111100110010
1111111110110000
100101
10010010
1110
1100000
1111110100001111
1111111010100000
1111111001101001
1111111010010011
1111111101101111
10111101
1111111101100000
1111111111010000
1111111101101110
10001101
1111111110111011
1001011110
1111101
1111110100110111
1011000110
1010111011
101011011
101110110
111101101
1111111110111001
1000001101
1111111010101000
1111111011100001
1111110100000101
1111110010101000
1101100
1111111011010001
1111101111001010
1111111110001010
1111111000011000
1111111101001011
1111111101100010
1111111100111011
1111111111001001
1111111111110001
1111111110000001
1111111100111001
1111111011001011
1111111000111110
1111111110110000
1111110111101011
11111011
10111100010
1110100011
1001011001
1010111101
101000111
1111110111011010
1101000
101101111
1111111011110010
1111110000100101
11010010
1111111001110101
1111111000010111
1111110100110011
1111110110100111
1111110001110001
1111110111110100
1111111101011000
11011100
1101000
11010
1111111010001111
1111111100001000
1111111111100000
1111110011111100
1111101110100010
1111110100000110
1111110110100011
1111111101111111
100010100
1000100001
10111
1111110100100001
1111110010011010
1111111001000111
11010110
1111111111110010
1111111011101000
1111110011010111
110000000
1111111001101010
1111111000100110
1111110111100000
1111111101100111
1111110101110100
1111111011110110
110001100
10010011
11111111
1111111111100001
101110
10011100
1111111110100001
1011001
1111110111110100
1111111011010001
1111111111101000
10001011
110111101
10111010
100001
1111110110111100
1111111000110111
1111110011000100
1111111001001111
10011
1000
1111110111111010
1111110101110100
1111110110000111
1111110000110011
1100000
1111111101101001
1111111111010010
111010
1111111110010001
1111111101111010
1010100
1111111101011111
10011
110110010
111100100
1100101
11001111
110111100
1111110011111001
1111111100111100
1111101110110111
1111110011100000
1111111101010011
1111110101001110
1111111001101100
11101110
110111100
1111111010001101
1111101111001100
1111111100000001
1111110100111111
1111111011100000
1111111111011101
10000101
1111111101110111
111010
1001
1010010
111101
10010011
101100
10010001
100011
0
110011100
11111111
10101010
111100111
10001000
10100110
101101001
1111111101100000
1110010011
10101011000
111101010
1111111111100011
1111111100110110
100111111
1111011
1111111100100110
100100101
1111111111100000
1111111110111111
110001
1111
10101111
110001
1001010
1111111101111010
11110111
11111001
10000010
1011010
1111111011010101
100110001
101101111
101010100
1010111001
1000010011
1001011100
1110101010
1111000010
1011111000
110010000
100100100
10110001
101000
1111111110101111
1111111101101001
1111111111100100
1111111111011111
1111111111010000
1010110
1111111110011110
1111111111100010
101000
1111111111111011
1110101
1111111100101111
1111111111100100
1101
1111111011010111
100010
10001010
10011
111000
1111111110101100
1111111111101110
100000000
1100100
1111111111000111
10110111
1111111101001010
11000000
10001100
1111111101101000
1111111111010000
1111111111001101
10011001
1
1111111111110010
