1110100101110001
1110010101000
100001011010
1111010110110100
1111110100011011
1111101100101101
1111100001011011
1001011100010
1001111001011
1110111011010011
1111000100100
110111111100
1111011110001010
1111110010000010
1000101101
1101001100001
101111100111
1000000001010
110010
1111000011110000
1111010000110000
10001011
1111101011001111
1011010010001
1110000100010001
1110111001011110
1111110110111
1001100100100
1111001111111111
1111011001101010
