100111010011
1111001100011110
10110111001
10010001001
1111001010110000
1010110111001
10010111001
1111011000111110
1111111100111101
1011011001
100001000010
11010010100
100111000010
1111011001001100
101100101000
1001110001
1111011111100010
1101101011000000
10100101111
11010110110
1001110100000
1111101111001001
1101001101
1110101111000101
111101111010
110011010111
1101000000
1111111000100000
1111000111001101
11000001001
