1111111001110111
1111101001000010
1111110011010110
1010011000
1011001000
1111110110110101
1111101001011001
1111000001
1111111010111001
1111111010000110
100100100001
1111111011011000
1111100000100111
101011010
10111100101
1111110010011011
101110111100
100010011
110110
1111111010110110
1111100001000111
101100001110
101100010110
101001010011
10100011111
1111110100011110
1111101110111001
11000110000
11001110011
1111111010101010
