111111101101
110101011
101101111
1111011010100011
1111001011111101
101001110000
100111000011
1111101010100110
1111101101010111
1111110000101100
1111000111010001
1111111000101010
1001001111001
1111100000101011
1111000010101000
1010111
1111110110110100
1110101100101111
10101110100
101001101010
101000001111
1110111110100010
1111010100010110
1110011
11011101011
100000101010
1111101101001011
1110110100001100
101111101101
1111011011100010
