1111110001000100
1000000101
1001010001
10000100001
1001011111
101010110001
10011101
10100101001
1111110110010110
110010101
1000101100001
1011000110
1111110010011100
1111111111111100
110010101011
1000001010
100111111110
1111110000000000
1111101100
1111111010010100
1001100101
1010011110
11010010010
110100110100
10000101101
1111101111111111
101000011100
101001010111
1000001
1111111110001101
