1100011
101010
10000101
1011010
11010011
1111111111100111
10100
1111110
1111111111011101
110000
1011111
1111111111101101
1111111111101010
101010
10101001
11001000
1111111110001000
1010101
101100111
110000
10010111
100110
1010110
1000110
1111111101111100
111011
1111111110100011
101000001
100011
1111111110000110
1111111110011100
1111011
1111111101001110
1111111111001111
1111111101111000
11011100
1111111100101011
1101001
1100111
100001000
100101000
11001111
1111111110000111
10000
110101
1000001
100
1111111110100000
1111111111001100
101101
1010010
1010110
1111111110100010
1111
10110110
1111111100100110
1111111101001110
10101010
110001
1111111101011001
1111111110001101
1101111
1111111110011010
10000111
101100
1111111010100000
1111101
110101
101011101
1111111101111100
111101110
11010000
1000011001
111001010
1000110100
1111111111001000
100001111
10111001
0
1111111111011110
1111111101100001
11010001
1110101
11110
1111111100011011
1000110
1110010
0
110
1111111100101011
1111111111111001
10110100
1100000
11111100
1000000010
1010001
1111111111111111
110100001
1001010111
10001011001
11000101110
10010100010
1110001011
1110001111
1001000010
11011111
1111111111111001
10111100
1111111111001000
1111111000001110
1111111111100010
111000
1111111101101110
1111111101011100
1111111110101000
1101110
1101
1111111011001010
1111111111111111
100010011
1111111000010110
1111111110011101
1111111101100010
1111111000110010
1111111101110001
1111111000000000
111011101
10100001110
11100111011
11011011000
10111101011
10000110001
101000011
111111010
101110010
1111111110110110
1111111111110000
1111111110010100
1111111111011011
1111111101100101
1111111110011110
1011110
1111111111001001
110001
1111111000101011
1111110110100101
1111110110000101
1111110001101010
1100110
1110110111
1000100101
1111111011111100
1111111001111001
1111110100010110
110101001
1111110111000011
10101000001
11111100011
100101011001
11101000100
10000000000
1101101000
111110000
100001101
11110000
1010000
100111110
1010011
1111111111001010
1111111111111010
1010000
1111111100110111
1111111001110001
1111111100101010
1111110010100110
111100
1101111
1000110110
111001110
1111110111011110
1111111000001010
10111111
101011100
1010000010
1111111010000101
1100010100
11010101000
100101010110
11100011110
10011000010
1101111100
10000110101
101001001
10111111
1111111111000101
1111111111101001
1111111110011010
100001
1111111101110100
1111111101011101
1111110110000011
101010111
1111110010111111
1111111011000111
100000010
110000101
1111111100100010
1111110110001110
1111110110100110
1111110111000000
1111111010110110
1111111111001111
11
1111111100110111
1101110011
10111100111
11011110111
10111111001
10011101001
1101010111
1100111001
110000100
1111000
10111010
1111111111100001
1111111111001010
1111111111110011
1111111111101100
1111111000000000
100100101
1000001011
1111111100011110
1111111111011001
1111110110111101
1111101010010011
1111111001111010
1111110100110100
1111111010000001
1111111011110110
1111111111010000
101111010
1111111011011111
1110010000
11101101001
10010011010
10011001010
10000000100
111100000
1010011100
1011010000
100101110
1111111010110011
1000000
10
1111111100111011
1111111001010100
1111110011000000
1111111110010000
1001000011
10011111
10001101010
1111111101001001
1111111111011101
1111110111001010
1111110101010101
1111101111011010
1111011011101000
101111000
1110010101
10011010101
1101101001
1010110010
1000110010
1000100100
11110011
1000100101
1101101100
1011001001
110110010
10011111
1111111111011101
111
1111111100001010
1111111001010100
1111110111001110
1111111000010101
1111111110101010
100011011
1100001101
10100100100
1111110011011110
1111110100111011
1111
1111100111011000
1111101011101101
10100101010
1010000001
110100100
110010011
100000100
1011101000
1101110000
1111111110111101
1111111011010011
10001100100
1001010010
1111111111111101
100100
11010110
1111111110001100
1111110110101001
1111110010001000
1111111100011000
1111111000111110
111101000
1111111111011001
1110010100
10010101101
1111111010110101
1111110000001001
1111110110110100
1111101010111110
1111100100011011
11110011100
11000000100
1111111000001101
1111111111100011
10110
1010111001
1000110100
1111111000111110
1111111000000010
101101010
1100101011
100101
11001010
1111111111100010
1111111110011011
1111110111001011
1111110011101010
1111111100101010
1111110001001000
101101111
1111111010110011
1111111001100000
1111111101100101
10110001001
1111111011000110
1111110100110100
1111101001111101
1111101100101011
10010011100
110110011
1111111110000001
1011
1001000010
1100011110
1111001010
111000
10110111
1111111101100010
1111111111001111
1111111101000111
1111111110101011
1111101
1111111111011100
1111111010001011
1111111111011000
1111111111111011
1111111010010101
1111110010100011
1111110111101000
1111111111111001
1111111100001010
1111110100011000
101011
1111110001001110
1111111011101100
11110111
10111000000
111000101
11111001
111100110
10011101101
1111111010011011
1111111010000001
1111111100111000
1011000010
1111111010000010
1111111010100110
1111111010101111
1111111111101011
1111111110101001
1111111111011101
1111111100000011
1111111101111010
110001001
101110010
1111100
10010010110
1001010001
1111101101111100
1111101101100000
101001111
110100110
11000011
1010011110
11111101010
11000010101
1011010100
111000111
100010
1111111100100111
1111111010101101
1111111110101010
1111110110111011
1111110110000100
1111110100111001
1111110110000011
1111111101110111
1111111110011000
1111111111100100
100111
1111111011111011
1011011
1001110000
1111111110100111
1000000101
111010101
1111111011100110
1111111110000110
100000011110
10111010111
1111111110011110
1111111111011110
100000111010
1111010100
1111100111100101
11010001
1111110111110011
1111101011010110
1111111110110011
1111111100011101
1111111111100000
1111110110110100
1111110110111110
1111111010101011
11011101
1100010
1011
1111111011101001
1111111110011100
1111110100001011
1101110
1111111010101001
1111100001110010
1111110000111111
1111111110011000
1111111011111110
1000010100
10101000010
1011001000
111110
11001111001
10110101
1111110111001100
11111011
1111111011111110
1111101111001111
1111110111100001
1111110110100001
1111111010000011
1111110110111110
1111111100011110
1111111010111100
1001111
1011000
10010001
1010110
100010101
1111110110101101
1111111110111110
110011110
1111111111011101
1111111111000001
11100000
10111001001
101000101101
100010010000
1100110111
1111111101010111
111001
10101001
1111111010010111
1111110111111001
100010101
10110010
100000
1111110111101001
1111111100101011
110000001
1111111100111100
1111111001100010
1111100
1111111100100111
1111111111111101
1010111
100010011
1111110101101100
10001
10011011
111001111
1010
10010111
10011000100
101000010100
110000000111
10110100101
110010001
101010001
101101110
1111111110111101
1111111010101100
10011110
1111111111010000
1111111011000100
100100101
1001011011
100010110
1111110111010010
1111111010110001
1111111100011011
1111111110110010
1111111110110000
1111111111000111
1000011001
1111111001111110
11010000
1111011011
1110010110
1011110010
10100101101
11010101111
10011111010
1110001100
111110101
1111110100101001
1111111001001101
1111111011001110
1111111001011001
1111110011000100
1111101111011101
1111111100010001
1111000011
1100101111
1001110001
101111010
1111111100000011
1111111101001011
1111111110010110
1110010
1110001
1111111111011010
110100000
101110001
110111010
1101111101
1100000100
1100111011
1001011101
1011000000
1100110100
1111111011111001
1111111011100110
1111111010110001
1111111101101111
1110010
1111101111111111
100001101
1001001110
100000110
101101101
1110100101
1011001110
111101110
1000010
1100111
1011100
1111111110111001
1111111100101001
110010
110101
11111011
1010110010
10110111011
10101001001
110011011
1111111001101010
100000100
11101001
1111110010000101
1101000
1101100111
1111110011100100
1111110011111110
1111111101101011
1011101010
1111110101101101
1111101100001111
1111111110101011
1011111101
110010000
1111111110011110
1111111101001010
1111111110100110
101011
1111111111011011
1000001
111100
10010001
10100110
100111010
1111111001
1101010111
1001111110
1111111111111011
1010101000
1011010011
100101111
1111111101001101
1111111110010010
1111111000001101
1111111100011101
1111111011000011
1111101111000000
1111110110011001
1111110010111001
111010100
1000010010
10100001
1111111101010101
1111111101110100
1111111111001111
1111111110110010
1100010
100011011
1111111110000111
11100011
1111111111110100
10001
110110000
100000010
1100100000
100011100
10000000011
10011110000
1111111111000111
1111111010111100
1111110110100100
1111110011110001
101001110
1111110101110011
1111101101111110
1111110111110010
110000100
11011100
1011010001
1000101001
1111111110100101
1111111111000111
100001
1111111111100111
1111111110011101
1111111110010011
1111111101110011
1111111111101101
1111111111110010
1000110
100101100
100011010
111001
1000101000
1111000100
10011001010
1101101101
1001010100
10010100101
10000010011
1000000110
1111111011010110
1111111001001010
10111100
11010111
110100
1000010101
101011001
11000
1111111100001111
100110
1010001
111011
1111111111101101
1111111111100101
10101
1011110
1111111110010001
1111111100011101
1111111101010110
1111111110111111
11100
1010010100
10110010
1111110101010111
1001000110
110101100
1100011111
1111110011001011
110100
1111111111000010
1111111111001100
11100010
1111111111111110
1111111110001001
1111111111100101
1000010
1111111101111011
11001110
1111111101010110
1111111111110010
100110100
11011
1111110
11010
1101101
1111111110000100
1111111101011111
1111111010101011
1111111110000110
1111111100001101
1111111010110110
1111111101010100
10110110
100100101
111110
1111111000001010
1111110101000110
1111110001100100
1111111100001100
101011011
1110111
1111111110000010
10101011
1111111111010101
1111111111000110
1111111110111101
1111111110001011
100101
1010001
1100110
1111111111100011
10
1000101
1111111111011011
1111111110000011
1111111111101110
1111111100010101
1111111110101101
1111111101011010
1111111111111110
1101
1111111011110000
1111111111000101
1111111111010001
1111111110000110
10101
1111111101001011
1110010
1111111100000011
1111111010111111
10111110
1111111110010110
1111111100111010
10000000
10010011
