1111111110110000
1111111011100010
10010011
11111010
1001110
1111111011010111
1111111101110100
10
101000
1111111111000110
1111111011110011
111110
1111111110111000
1111111111000010
1111111110010101
1111111111011011
1111111100101010
10100111
10010011
10000100
1111111111000100
1111111111001000
11100111
1110011
11111
1111111110000110
1100101
1110110
1111111110101111
1101100
1111111111000010
1100010
10110100
1111111111110110
1111111110101000
1111111111110101
1001110
1111111110100011
1111111111000101
10101011
11001010
11101
110001
1111111010111000
1111111111011001
1100000
1001
1001
1111111101110001
10010000
1111111111101111
1010111
10001100
101101
1001
1111111111010110
1111111100011001
10001001
1111111111110001
1111111110010110
1111111110101011
10110110
110000
10001100
1111111111110100
1111111111000111
1110000
10011
1001100
1111001
1111111101010101
1111111011101111
1111111100000111
1101101
101101100
101110001
101111100
11111000
110100011
1111111110110110
100110
1111111111111101
11000
100000000
110
11011110
1111111111010010
1000001
10000
1111111111000111
10011
10100011
11001111
1000001110
110011110
1001100001
111101010
1000011100
1000001000
100011011
1000011010
1011110011
1000000
101000100
111101110
1001000010
101001000
11110101
111100
11100
1000110
1011010
1111111101000101
1111111110100100
1010001
1111111110011010
1001101
1111111110101011
1111111111111111
111011
1000011
1011001101
1010110101
1100001110
1110100111
1110100000
111111000
1000101010
110110
11000110
101110111
111010100
10100000
1000000000
11101011
111111110
10110011
1101110
1111111100111110
1101000
1111111011011010
1111111111001100
1111111111110011
1111111110011101
1111111111101111
1111111100111011
1111111110011011
100111
1110010000
10000000011
10101010011
10101010100
10110111011
1101010011
11000011110
10011001100
10001000000
1100011000
1010010100
1001011001
1101001010
1010000101
11110100
1111111100111100
1111111101110110
1111000
1111111111011111
10011010
1010010
1111111011101111
1111111110111001
1111111101011001
1111111101100011
100000
10001100
101000011
1100011111
111110010
1000110101
1101101001
10001000010
1100001101
1001110111
1010011001
101001
101111011
1010000011
1111111111100011
1111111110111110
1111111101111010
1111111100111101
1111111011011000
1111111110011011
100101100
1000000
1000100
11100
1111111110111111
1011111
1000
10010000
10000000
1111111100110111
1100011
110011101
100001
1111110101100100
1111111111100001
111111110
1111111011011001
1111111001100001
110101010
1110011
100000000
110100001
1111111111011000
1010
101100111
11000111
1111111010001010
110110111
1011100001
1111111101010000
1111111111011110
1010100
1111111110011110
1111111110010110
1111111110000111
1111111101111010
1111111001011000
1111111111001111
1111110110001010
1111110100010111
1111111110111000
1111111010000010
1111110101000101
1111110001000001
1111111110101000
1111111010101011
1010001101
11011101111
10010111011
1001001101
100000001
101110011
10101011110
11000001
11100111
1110111010
1000001100
1111111111111110
1010100
1111111100110001
1010
1111111111010101
1111111001011100
1111111000011011
1111110111110000
1111110101011011
11100101
1011111
1111111010100010
1111110110110100
1111110111110111
1111111000100000
1111110101000011
1111111010100100
110000101
110000100
110010011
100101110
1000001011
1001000011
1010110000
100001
1111111110111010
110011011
1001010001
1011110
11011010
10111111
101001
1111111110110011
1111111111111100
1111111100001001
1111110101101101
1111111000100101
1111111111110100
1111101110100001
1111100101110111
1111101011111010
1111101111111110
1111111001011100
1111110110100100
111111
1111110101100000
1111110000111110
1111111111011111
1010010000
101111100
1011001000
1000010010
1111111100000110
1111111111001110
1001111101
1010010011
101010011
100011
110
101000
1111111010111001
1011001
1111111000110000
1111110000100100
1111101100010100
1111111011011001
1111110010101000
1111110100111001
1111110100010100
1111111110111011
11001010
1111111010110101
1111110100110010
1111110001100011
1111110011000000
101010111
1111111101110010
111101110
1001110110
100101000
1111111101100010
1111111111100111
10000010011
1000100100
11100011
1111111110011001
1111111101111011
1111111110010010
1111111011010111
1111111101101000
1111111000110001
1111110010100011
1111111000001111
1111111000110100
1111111110100001
1111111110111101
10111100101
10111011111
11110111
1111
1111100111011010
1111110001000000
1111101110100110
1111110110100100
1111110100001100
1111000000
1011100110
111100001
1111111001110111
101
101110110
110000
1111111101011001
1111111111110110
1111111111010011
11010
1111111011110010
1111111100001110
1111111010010001
1111111101100001
1111111111010001
11011010
10000010011
1110000101
10111100110
1011100100
1111111010111000
1111110010101001
1111110001011110
101110011
1111110011101110
1111110101100011
1111111110010101
10001011101
11100110
1111111001010011
1111110011110111
1111111100000110
1011011
111010
1111111011001110
1100011
1111111111101001
10000101
1000010
10000110
111011011
111011100
101101101
1100110101
1101011101
10010110000
1010100101
1111111011000110
1111110000111000
1111110011011011
1111110111111000
10001000000
11010000
1111111010011111
1001100100
1010010000
100001010
1111111000110011
1111111010101110
1111110010110000
1111111011110010
1111110111010010
1111111101100011
1111111111010000
1111111110000101
1110010
1111111111001110
10111100
1011001011
10000100000
101011001
101001110
1111111111011111
1111001111
10001100000
1111110101110010
1111101001110110
1111100011100110
1111111000000011
10011000101
110101001
1111110011111101
1110111110
110101011
1111110110000001
1111111101101011
1111110110100101
1100111
10110010
1111111101110101
10110011
1111111110000101
1111111110101011
1111111111110101
1110
11101100
110110000
111010011
101111100
10110100
100010101
100111101
1100100010
1111110110100100
1111110111101110
1111101001110111
1111111001101111
1001010101
1111111001011010
1111110111000100
1100010
1111111101011001
1111101111111110
1111110010010101
1111110110000000
1100010
11101111
1011110
1111111110010000
1111111110001101
1010000
1111111110110010
100001110
1101101
101111110
1000011111
100101010
1000100000
1001001100
111000010
1111111001100110
1111110100000110
1111101000111010
1111101111010110
111001001
111110010
1110110
1111111111010100
1111111000011001
1111110110110100
1111110000110010
1111101101010110
1111110010000001
1000101
10001010
1111111111100010
1111111101111100
1111111110000001
10110100
110010
111010
110000
100011010
10000011010
111001110
111111
1111111111110101
1111111011001010
1111101100110001
1111110011100000
1111111111000001
1111110101011110
111111100
1010011100
111101100
101010010
1111111011100000
1111111101011011
1111111101010111
1111111000111110
100101000
1111111000
1000101100
1111111110111111
1111111101100010
10110011
1111111101110010
1111111110011010
11010001
11001111
101001100
1101111001
1111111111001000
100011
10000000
1111111111000000
1111111111011100
1111110111100110
1111111001101011
1111111011110010
1001111111
1111111110
1110100101
10000100111
1110001001
1110000010
1010010001
1110100111
10000011100
1111010110
1100001100
101011010
1111111011100100
1101110
1111111101100001
1111111101100111
1111111100100001
100100101
11101101
1011011100
1001101
1111111100011111
1111111101111001
10001010010
1100000101
110010011
11100
1100000110
1011100000
1011000010
1011110010
10000101111
1000001111
10010111100
110100110
101000110
100111001
10111010
1000001100
101110000
1111111101101101
1111111101111100
1111111111011110
110
10001011
10001100
111110000
1111111111101011
1111111110110000
10111101
1111111100011110
1111111111110111
1111110110011101
1011011001
1111111110100001
1010101111
1111111101011010
1111111110010100
101001111
10001101110
111111011
110011111
110101
10011010
101101111
11001100
1111111100000101
1111111110001111
101
1101
1111111110010001
1111111111111000
1111111110101000
11101101
100001101
1111101111100111
1111111010101101
10011
1111111010001100
1111110011011111
1111111010110011
1111111
11100000
10001000
1111110011010101
1111111110100111
1111111100000110
1111110001000011
100101110
1111111110110011
1111111
1111111111101100
100
1111111111010010
1111111111101100
100100
1111111110001011
1111111111110000
10110011
1111111110101001
1111111111101000
10001011
10010
1111111001000100
1111110010110111
1111110100001001
10001110
1111111010010011
1111111001100100
1111110100001101
1111111000010000
1111111010100110
1111111101111110
1111110110111101
1111111010010001
1111111000010010
10101001
101010110
1001111111
111100110
10011
10001010
1111111110111010
1111000
1111111110010011
1101010
1
11110
1111111101111010
1111111111111100
1111111100111010
1111111100110101
1111111101000111
1011000
1000001100
1001101000
10011110111
10101001011
11001010011
1001111010
1111111101001000
1111110101001110
1011111010
10001100
1001110101
101000
10011000
10001110
1111111110000111
1111111101111101
11100110
1110010
1110101
101110
111101
1111111111101011
1111111101001110
1100
1111111110101010
1111111001001010
1111111010110100
1111111110101011
11110000
110010000
1001100111
1011110111
10001101111
1011110010
11100
1111110111100111
1111111110101111
1101101011
1111111111100101
1111111110010011
110010001
10000010
1111111011001001
1110111
10010011
1111111110101100
1100100
11000000
1111111101100110
11001010
1111111110011111
1111111101001110
1011100
1111111101011000
1111111110001010
1000110
1111111100110001
1111000
101100011
1111111110111010
11101011
110101000
111111111
1010010010
1101011110
1110011010
111100111
110000
1111111110111010
1111111100110100
10000100
1111111111010000
10100100
10000
1111111110110000
1111111100001010
111101
1111111111001101
1111111110001100
1010010
1111111111010010
1111111101000000
1111111111110101
110011
1111111110000111
1111000
1111111010101100
1111111011001111
10111
1111111101111001
1111111101011010
110011
1111111110110001
1111111101001101
11000011
1111111100101001
110110
1111111111111010
1111111101101010
10100
1011010
1111111110010011
1111111111110100
1111111111000001
