1111111101100010
1111111110111000
11011
10011011
1111111010011011
1111111111011101
1111111101111010
100000
10101111
10000111
1111111111001010
1111111111111101
10101110
1111111110110001
1111111101001000
1111111111110110
1111111110100110
1100
1111111110010111
1111111111001000
1111111110000000
10001111
1111111101011010
1001110
110010001
1111111111111010
1000000
100001
1111111100110100
1111111110111110
1111111110000111
1111111101110111
11100
1111111111110000
11010011
100110
1111111100111100
1111111110011101
100001000
1111111110110101
1111111101010001
100011
111010
1101001
10001010
11101
1111111111011001
11011
1111111101010010
111111
1111111101001010
1011100
11001011
11000100
11001
11011001
10010100
10110
1110011
1111111111110100
1
1111111111010111
1100001
1111111101100101
100001
1111111010110100
1111111011000111
1111111101011011
1111111001101110
1110110
11000
100110011
1111111111000110
1111111011011100
1111111011011000
1111111100000111
1111111101010100
1111111101001110
1111111111011111
1000111
1
1111111101110011
1111111111101101
1111111111101011
1111111111110000
11001001
1000110
1010011
1111111110111101
11111100
101001
101000000
10000000
1111111100000001
1111111011111001
101101
111001010
11000011
1010010011
101011010
1001010010
10001111
10110100
1111111011010000
1111111110100000
1111111011101000
1111111000110101
1111111111010011
1111111111001111
110001
1111111110001000
1010011
1111111110000000
10001001
11011
1111111011110010
1111111111100010
1000011101
100011010
101101110
1110101111
100110111
1111111101001100
1111111101110010
1111111111001101
1111110100000000
1111110111010100
1100000
100010111
1111111000100101
1000001100
11111111
1001010000
1000001010
100111110
1111111100000010
101010010
1111111111001111
100100001
1111111111000001
100110
100101
10011111
1011100
101101110
10010000011
1101011101
10001011010
100101000
1111111001001001
1111110101001100
1111111100001110
101000011
1001010
1111110100100010
10000011
1011011110
1111110111111101
11110000
1010110100
1010110011
110010000
1111111011110000
1111111001000101
1111111010000011
1111111100101111
1111111101010100
1111111101011101
1010100
1001101
1111111110000011
11111
110100100
1101101101
10011011011
1000011101
1111110111100000
10101111
1111110110111111
1111101101101011
1111110000000001
1111110110011001
1011
11001101010
11000001110
1100000010
11001011000
1111111000100100
110110111
0
1111101110000101
1111101011000001
1111110110110100
0
1111111111111000
1111111110110100
1111111111101000
1010010
1111111111010100
10111010
110000000
110101101
1111100011
110011011
1111111011001111
1111111100000110
1111111010011101
1111101001011110
1111111111010010
1111011
101010111
10011011001
1101100
100010111
1111110111011000
1111111111000100
1010011
1111110000101010
1111100011101101
1111011010100101
1111101010010001
1111111000100011
1111111110010100
1111111011101100
1111111111001001
10011011
111000
11001010
1001010111
1000001010
1101011111
110111111
1111011010
1111111111001011
1001011101
1111110111011100
1111110110111011
1111110111101100
101000
1111111111010110
1111111011000011
1010110
1111110101100000
1111111100000100
1111110011000100
1111111111000111
1111101111000100
1111100000010111
1111101001001111
1111110010000111
1111111110111001
1111111110010101
1110
11001
1111111111111000
1000000011
11101000
1000010110
1101001010
10100100011
1111101000
1000000011
1001100011
111110111
101111000
1111111000011111
111001111
10000001001
1111110011000001
1111101111010100
1111101100111100
1111110110101001
1111110111101011
1111110011111011
1111111001010110
1111101111101010
1111101111110101
1111111110000101
1111111111001110
10010001
1111111111000110
11110000
11011110
101000010
1111111101011010
1111111111101011
101000101
100011101
110011110
1111110110101000
1001
1111110001001000
10101100
10010011
1111100001
11100100011
1110001100
1111110101100101
1111110001110101
1111110011011000
1111111010110111
1111110011100000
1111110100110111
1111111100000110
1111110011000011
1111111110010010
1111111100111100
11
1111111111110001
101101
10101100
1111111011000011
1111111101100001
101011
1111111101111101
1111110101100111
1111111010010000
1111110010110011
111001000
110110010
1111110010111011
1111100
10010000010
11111100110
10011111101
10110111111
10000100000
1111111101000110
1001111011
101100
1000101011
1111111101110101
1111101101011100
1111110101110110
1111111011110100
101
1111111111100110
1111111110101011
10011000
1111111010011101
101111110
1000111
11110000
1111111101010010
1111111110100011
111010011
11010100101
1000100110
1111110000111101
1111101011011000
1111111100111010
10010011111
11011111100
10000001101
1100101100
1011111011
1001001110
111101111
10000011010
100100
1111101111010100
1111111101001101
1111111101101000
1111111111011011
1011100
1111111111001001
10010000
1111111001011011
110000101
11100101
110001001
1010101000
1111111110011011
1010101100
1101000011
1111111010110000
1111101111001101
1111101011001010
1010010110
101111011
10101111110
11010001101
1111100011
11111100
1100000
101001010
1000001
1111111100111000
1111110110010101
1010100
1111111111000000
1111111110100100
1000110
1111100
1001101
1111110110111000
1111111100101001
1111111000011111
111101000
100001110
111111011
1111110000100101
1111101101000000
1111101110000010
1111101100011001
1111101010010011
11000000
10101011110
1000010100
100011001
1010101011
1110011001
111100001
1111111101001110
1111111001011010
100001101
100110
1111111101011101
1111111101110000
1101110
100101
10100001
1111111110101111
1111111001110110
1111111100110000
1111111010101010
10000010
1111110111101111
1111110100010101
1111101000000101
1111100010010011
1111110101011101
1111110010010101
1111111011101011
101000001
100001101001
1111111111
111010110
10000001
1001110100
1111111001
1111110100111000
1111111101010100
111000101
1111111111111111
1111111011010110
1111111011010100
110111
11101000
1111111111010101
1001010
1111111101110111
1010111100
110010111
101000
1101100
1111101111001000
1111101110011010
1111111011000010
1111110100010001
1111100110100100
1111100111101001
1000010111
1110000111
1010101001
1111110011100111
1100101
110101100
1000010111
1111111001000110
1101
1111111011011100
1111111011011101
1111101110111000
1111111001011110
110011
10100
101101
1100100
10101001
110000111
100010000
1111111000001001
101010111
1111111101110000
1111111001010010
1111110000111001
1111110000001101
1111101011100101
1111101111110000
1011111111
101010011
1111111100001111
1111111010001100
101001011
1101110110
1111110111010010
1111111111111011
1111111100011110
1111111100111010
1111110100110101
1111110100000111
1111111001111111
1111111111000101
1111111101110000
1000000
11001
10000110
1010101100
10001011
1111111001111111
1111111101011110
1111111111000101
1111111111110010
1111111001000011
1111110110101101
1111100001010010
1111110100011100
111110100
1110001
111100100
1001001101
1010110010
1011000100
1111111110101000
110111001
11011000
1111110110000100
1111101111100001
1111111000100100
10001101
10100011
1001110
1111111111111111
1111111111100010
11000010
101111110
100101111
1111110101001011
1111111110111100
1111110000010110
1111111110100000
1111110011000100
1111110010010010
1111110101110110
1111111101101101
10011000100
100110010
111110101
1100000
1111101011
111111001
1010111100
101100110
101011
1111111001001011
1111110001111101
1111111111111001
1111111010001000
1111111010110011
1111111100011101
10100001
1111111110110011
110011101
1100100111
1011100100
10011101
111101
1111111101101100
1111111010011001
1111111000101010
1111101010110111
1111100110111000
111000000
11100001010
1110110
10110111111
10011000111
1100100111
1010110
1100110
1001111001
1011000100
10110000
1111111111011111
10111101
1111111101011101
10101
1100010
1111111110011000
1111111111110110
1000011
1000010011
1011001111
101100100
1100010
1111111010011111
1111100111010110
1111111100011001
1111100111111000
1111111111011001
101110
1111111100111100
1111111101011000
10010011100
1110000001
1000011100
1111111010001001
1111110001110111
1001000
1000111000
111011
111110101
10110001
1111111111111001
1011001
1111111111001110
1111111110100111
111011
1001001
101110000
100110111
1111111001000110
1111111101101100
1111110100010100
1111111011100011
1000100000
1111110001010011
111101
110010
100010111
1111110011001011
100011
1100111111
1000111100
1111101
1001101011
111110
101000101
100000001
110101010
11011110
1111111100010010
10011010
1111111101101001
1001
1111111111001010
1111111111000011
110000101
110110
1111110101010101
1111111011110101
1111110100010011
1111111101011100
1110010101
100010011
1111110010100000
1111110100100101
1111100110010111
1111111010001111
1111110010000001
1101001
10010011101
1110111001
10000111110
10101000
1111111110101110
101000110
1000001111
1111111110110011
1111111110011001
1111111100100101
1101
11100011
1111111110110010
1111
111001111
101100000
101000000
1111111101010000
1111111111010010
1111111010100101
1010101001
1111111110100001
1111110100010110
1111111100110011
1111111101011001
100101010
1111111000011100
100100011
111001000
1111111110100100
1101000101
1001001101
1001100000
101011000
1111111101011101
1111111000111010
1111111101100101
1111111111110111
1111111111001101
1111111101000001
1100111
1111111110011101
100000000
110000110
1001101101
10001111101
1010010101
111011100
10000000111
10001010010
10000001111
110111010
1111111110101110
1111111001100011
1111110111100001
1111111000001110
1100000001
1100000111
1011111110
111010011
1001011111
1011111
1111111111101110
1111111110000110
1111111110001001
1011101
1111111101110001
1010011
110011
1111111110111110
0
1001111
11000110
110101101
101111101
10010000010
11001100111
10010011000
101010101
1010010101
100010000101
10011100100
1110011111
1011000000
1011101100
100100111
111110111
11100001
110111000
1111111110111011
1111111101101000
1111111101111001
101
10001
1111001
1111111101100010
1111111110000111
1111111111001111
1111111111000001
1111111110011101
100111
110100
1100
1000111
101001010
1111111101010000
10011111
10001110
110100011
1010100
101000011
1011101
1011111
1111111101100001
101111
1110001
1111111110111110
1001100
1000101
1111111101110011
1011011
10000101
