10111010
1111111111101010
101100
1111111110100011
1111111110000011
1100010
1111111101111100
10100
10001
1111111111001010
1111111100010100
1111111110111010
1111111111000100
1111111110110001
1111111111010001
1111111111011001
1111111111111101
1001010
10010001
1111111110100111
1111111111101101
1111111111010101
10010101
10101
1111111100100110
1100010
11111010
1111111101010011
10010100
1111111110011101
1111111110100001
10010
1111111111111110
1111111110011010
1111111101111111
101010
110
1111111110110101
111010
1111111101001010
1111111010100010
1111111101011110
11101
10001011
10111001
1111111110000111
1110
1111111101101111
101100
1111111111010110
111010
10110000
1111111110111100
1111111110111000
11000001
10001
10100011
1111111101111011
1111111101000110
1111111111001001
1111111111101001
1011011
1101
1001010
1011001
1111111111111001
1111111100110100
1111111011101111
1111111000110000
1111111000010000
1111111001110011
1111111001010110
1111110101010011
1111110110111000
1111110100100101
1111110011100011
1111111011100011
1111111010110110
1111111110010110
100
0
1111111110011111
11000001
1101101
1111010
10010000
1111111110110101
10010111
101
1111111111100010
1111111111001011
1111111011111101
111000011
1111111110111110
10111
1111110
110010101
1111111110101000
1111110111011110
1111110100000011
1111111001110111
1111111101101111
1111101110011101
1111100001110011
1111101111000001
1111110110010101
1111110100100000
1111111010011101
1111111010001111
1111111001110111
1101001
111100
1111111110001011
10001011
1110100
1111111101011000
1111111110001101
1111111111011110
11
100011
1000101111
1100101100
11000100111
11010101101
11010101011
1111000010
10111101010
11010100010
10000000100
100001000
1111111100011100
1111100111101111
1111111000100001
1111110101000111
1111111100001011
1111110110110111
1111111101000010
1111111110110011
1101000
11001
1000100
1111111011111010
1111111110100100
1111111111101011
1111111110011010
1111111111101011
100100100
111011101
100001001
1011101110
1101010001
100001000110
1101100011
100000000000
1100001000
1011111111
110011000
110010010
1100010000
1100000101
1010100110
110111
1111111000110000
1111110010110001
1111111001000010
1111111011001010
1111111101000010
1111111110111010
1111111111000001
1010011
1111011
1111111110011001
1111111110100001
1111111101101001
1111111011000100
1001101
1111111110100101
10000101111
100000100011
110000100010
100010001111
11100001111
1101101010
1000110001
10011100111
11100000010
100010100101
10100111100
11000110100
10110100011
1111111111010101
1111101111111101
1111110000111001
111111
110101
1111111101100001
1001000
10000111
1101001
10011000
1111111010001111
1111110010101010
1000001
1111111101100011
1011100100
11000
1111100101
1111110001
10001111011
1101111011
10100100001
11000100011
101100111100
1100001000
11001000010
10100011111
1110101101
10010011000
110101100
10111100
1111101111011111
1111111010000000
1111111111001011
110010
1000011
1111111110100101
1111111100010100
1010
11011111
1111111110111000
101000111
1111111100000011
10001101001
1101100
10101000
1000111111
10010111110
1010000001
11101011001
10011111011
101000001101
10000000000
10001101000
1111110111
1111111110010111
11100100
10001110000
101010
1111110100010001
1111111010110011
11001011
1111111111101001
1111111111011011
1101
1111111110001001
101001001
1010010001
1100110101
1111101011
1010001010
1101101010
10010101011
11000001000
11000010001
11110001011
10100011001
10011010000
1110111011
111001110
110100001
101111000
1111111110110110
1111110100110111
1111101111110000
10110000
11011110
1111111110010101
1111111101000101
1111101
101011
10111011
110101
1111111111000000
11001110
101101111
10010100
1100100111
1111111001111110
100101110
1010101000
10000000101
101011101
111111010
1011000110
1011001111
1111011110010100
1111110011000111
1111100010101101
1111110000010100
1111101101110101
1111101111110101
1111110110010110
1111110010110110
1010010001
10000110
1111111101101110
111110
1000010
1010011
1
10010001
1111111110010101
1111111101001110
1111111110110100
110110101
1111111110100110
1111110011000010
1111011111011101
1111101111110011
1111110110110000
1111101111100000
10111101101
10000110011
1111110010101001
1111110011001111
110010110
100010010
1111111110101100
110000110
100100100
110100001
10001000
1011101011
110111011
1100111
1111111111001000
101011010
1111111111011101
1111111110101011
1111110111100000
101001100
1111111000110101
1111111101101101
1111110110110101
1111101000111100
1111110000110011
1111100001100011
1111011001110100
1111100011110011
1111101100011101
1111111111100100
1111110000100100
1111110110111101
1001100111
1101010000
1100101100
1001111001
111110011
1111110000111011
1111110000110011
1111110100010001
10110111
11011010
1111111111011100
1111111111011000
111
101110
1111111101001010
1111111110000101
1111100111011110
1111100110110100
1111110011100111
1111110001000011
1111101001101111
1111111001111110
1111101110101110
1111100111101011
10101001
1110110111
1111110100101011
1111110110000000
1111101101101010
1111111101001110
1111111100111001
11001001
1111111011010000
1111101001110011
1111101000000100
1111110101111101
1101000
1111111110111010
11001101
1111111110001000
1111111100110111
1111111111111001
1111111110010001
1111111001000000
1111100100101101
1111110010010000
1111101010011011
1111101010000000
1111101001000000
111010111
1111110010110010
1111101000000001
1100111111
1111111111111111
101111000
1010010111
1111110001001110
10111
1111110011000111
1111110111111100
1111110000111100
1111101001001111
1111110110011010
1101010
110000111
11000100
1111111110011011
1111111110101001
1010000
1111111111011000
1111111001001110
1001010
1111110111001011
1111110001011011
1111110100100110
10000
1111111110010011
1100100111
1111111011111110
1111100100110110
1111111100110011
1111110000001101
1111110110010000
1111110110111010
11010010
1111111010111100
1111101011000001
1111111011101010
1111111010000001
1111110000011101
1111110001100100
1111111010011011
1111111101011010
1111111110001010
1111111100011000
1111111110000110
10000001
1111111111100011
1111111110111000
1000110110
1111111111010110
1111101111001101
1111110101111100
100011101
110010111
100011110
1111110101001111
1111110100011111
1111111000111111
1111110011110101
1111110010111001
1111111110111010
1111110011100100
1111101000110011
1111100110111000
1111101001010101
1111101100111001
1111101011110101
1111101100001101
1111111010010010
1111110111111111
1111111111100110
101011
111001
1111111101011011
1111111111000111
1111111101011010
1000010011
10100
111111
1111111010000000
10010001
10111
10011000
1111110101010100
1110110101
1111111110110010
1111111110010111
1101010
1111111111110101
1111110001011111
1111101110110110
1110000
1111111100101011
1111111011101001
111100000
101011001
100011001
101001000
1111111101110010
1111111101001101
1111111111110010
1111111111011001
1111111111110110
1111111011100001
1010001
110010110
111101110
1111010000
10001011011
1010100011
1001110101
100110110
1111110001100011
10011100
11100110
1111111101001011
1111110111000001
101000101
1011101001
10000000110
10011000001
11000101001
100011011010
10011110111
110100000
1010001100
11100111
100000010
10000
1101100
1111111111001110
1111111111011101
1110101000
11010000000
10101011011
1010110001
10010101101
101000000
1111111101010100
1111101010110011
1111110111111011
1111110001101000
1111110111011110
1111110100000101
100001110
11011011
1111111101010011
110110110
1011010011
11000101111
100000100011
10010001000
1010011010
1000100000
10001101
1111111111101001
1111111011100101
1111111111111010
1111111110010101
111
10100111100
11010101000
100000011100
10011111001
10001100100
1111110001110000
1111101100010010
1111110000110100
1111101100001101
1111110100010001
1111111010010111
11000
1010111001
1111111100110011
1111110110100010
10001101011
11010000111
100001111010
100100000001
11101000010
1010001000
111111011
1111111111000011
1111111111011101
101110
1110001
1111111100101000
1111111010011101
1011010010
11111111000
11111100011
10100100100
1001100011
1011111010
110100111
1001101
1111111001100000
1111111101000101
101101
100101011
1111111100000101
1111111100110100
1111111000100100
10011100111
11011001000
11001011010
10111011100
11000000011
1111101101
101001100
1111111110110100
11101000
1111111110100111
1111111101010111
1111111100010011
1101100
100010100
1101111111
10000110110
10000101001
10110101001
1000110110
11101100
1100011001
1100101100
1111111110111110
1011110101
1111111111101101
101011
1001101110
100010110
1111111010000001
10000010101
111111010
1101010010
10010101000
110111000
101101110
11000
10110101
1111111110011010
1111111110110100
1111111110101010
1011101
1111111110110000
1000100101
10101111
1010100110
100001011
1101000111
10010111000
10100100000
1101111110
10101100110
1000001100
10010001001
1010110001
10010011110
10001101
101101101
1111111101011010
1111111110001010
1001011110
1101111101
100100010
110110
1101000
1000000
10000101
110000
1111111111001000
1110001
1101100
11011111
111101101
1100101100
10111110000
10010110011
111100110
11100010
1110110
1100110100
1011000
1111111111101010
1111111001110010
11101111
111011011
1111111100110011
1001011101
110101011
10100100
1111111111110110
10010100
101111
1000101
1001010
1111111110000000
111001
1111111110010110
1111111110101110
1111111111100110
11110100
1100111000
10111100101
11111110101
11011100110
1110110011
1100011010
10111010101
10110110001
10111010100
10000000111
100011000101
11011111101
11100000111
10001100101
1100100000
111010100
110010011
1111111110100110
1001000
1111111101010100
1111111101110000
1000000
1111111110100100
1111111110010010
1111111100100110
1110110
1111111110001111
101000100
101011011
1110110001
10001101110
11000000000
11101110000
11000010100
11011110011
11011001111
101001111011
11010110001
10101010001
10010011100
10011001011
10010011001
1111001110
1000000001
10100101
1111111111111111
1010101
10100010
10010001
1110111
100100
10001011
1111111101110111
1110110
10011011
1111111111010001
1111111101101111
1111111
1100100
110101
100111001
110010
100110
11101111
101111010
0
1111111110110011
111010
1111111111000110
110110010
1000110
110000010
1101000
1111111110111110
1111111111011111
11010001
1111111011010101
1101011
