10010011
1111111100100000
1111111100011111
111001
1111111111100100
1101001
1111111111101001
1111111110100110
1111111111110111
1111111111101110
1010011
1111111110111010
1111111101101101
1111111111101100
100101
1010101
10011
101000
1111111100100101
1111111101011010
1111111110101010
10010101
11001000
1011010
1111111100010001
1111111100001000
1111111111000101
1111111111000000
1111111100010011
1111111111011100
10001101
11000
1111111110101100
1111111101101000
11110111
110111110
100110001
1111111111101001
1011100
11100011
1000101
110011011
10000100
1111111101011110
1010111
11100010
10000000
1111111101111000
1111111111111001
100011001
100001000
11001111
1111111011100011
1111111111111100
10010
1111111110001111
10110101
1111111011100010
1111111101111011
0
1111111110001111
11010100
10110011
111001010
101110001
11001010
110111111
101001110
1001101000
1010101001
1000000011
110100010
1001101101
110001010
100111
1101000
10100001
1111111111100110
100000100
11101
1001
1111111100100100
1111111101100000
1111101
1111111110110111
11110111
110111
1111111111000000
11100
1011011
111111110
1001101100
10000101100
10101010000
10001111111
1100011011
10010001100
11110001000
11100000001
10001001101
1101000100
10001011
1111111001101011
100111001
10100011
11010101
110111
1101111
11111000
1111111100111111
1111001
110
110010
1111111110110101
1111111101000000
1111111110101110
101100
110
1000001111
1011001001
1011100101
10001110110
1100101010
110001001
1010011010
10011010101
11011100010
11001000111
10110001100
1011100010
1111111110110111
1011001110
1001010010
100111110
100111011
1000101
1111111110011011
101010
1010001
1111111100110100
1111111110000110
100
1111111111110001
1111111110011000
111101
10101101
100110011
111010110
111011010
10010010
10001111
1111111010101110
1111111001010101
1000010111
110000100
1111111111101011
100110110
1111111110010001
100000010
1100001101
101000011
10101001101
1110110000
101110011
1001010000
1011101
1111111101111001
111001
1111111110000111
1111111101101110
1111111101000010
1111111100100011
1111111111101011
1111111100011101
101000011
101010000
110
1111111110100111
1111110111001101
1111101110000010
1111110110001111
1111111010111001
1111101001001011
101010101
1101001111
1111111100001001
100010
1101101011
1011010010
1111111101110101
1111111011110001
1111111001001000
1111111101010100
1111111101110001
1111111101001000
1111111110110011
10001111
10110000
1111111110011101
1000101
1111111100100111
110001100
11100000
111011010
1100010111
1111110110110010
1111110000100100
1111110100110111
1111110010101110
1111101111011100
1111111001011001
101101
1111111110000011
1111111110010100
110100100
101100110
1111110010001001
1111110110100100
1111111100110110
1111111011011110
10000010
1111111111101011
1111111010110001
1000001
10100
10011
110011
1111111100011111
1111111111000000
10011100
1111111110101100
111000011
10000001000
11110001
1000111100
110110001
10101011111
1010110011
1011001111
100101110
1111111010011100
1111110110000001
101100
1101100101
1001111011
1010111000
1001011100
1001100011
1111111100001111
1111111111000100
11010000
0
1111111110101000
1111111011111001
1011011
1111111110001111
10011010
10011001
1111111010100001
1111111101110100
101100100
10011111111
1010110100
1000000110
1010101110
101111110
10011001
1111101101000000
1011000
1111111010111110
1111111010001110
1011101010
111000011
1011110111
10001110001
11010110
1111110101000000
1111111111011110
100001100
10110
11101
1111111111110111
10000000
1111111011110111
1110101
10110000
1111111110110110
1111111100100100
111010010
100100100
1111111100101011
1111111011100100
11111010
1111111101110100
111111101
1111110000111101
11010001
1011110010
1000001010
10110001
1111111010111010
10110110
1111010110
100001
1111111000101011
1111111001100101
1111111110001001
1010100
1111111110010000
11111
1010101
10011110
1111111111010011
1111111111001011
1001010
1111111000100100
1111110111111010
11001011
10010
1111111011001010
100111001
10100100010
10000101001
100001100
1111111001111110
1111110010001100
1111111011110101
1001100001
1111101
1111111100010100
1111110101010101
1111111011100100
1111111111011011
1111111011011111
11010100
1000100
100011011
1111111111100101
10111010
10011110
1111110111001001
100110000
1000001111
1111101111001001
1111111001011110
1101000
1111111010011101
10100100
1010110100
1101110010
1000111010
1111111001011110
11001110
10000011
10111011
110111101
110110000
11111000
1111111110000000
1000111111
10001001000
100101
1111111111000111
1111111111000000
10011101
1101111
1100100
1011001
1111110001000001
1111110010001000
11100100
1111100010000100
1111110111100001
10010010
1111111101010010
1111111010001010
1111110010011110
1111111110110011
1111111111001001
1101101
10010100010
100101101
110001
10011001110
100000100
1111111001110101
1111111000100101
1111111001111000
1111111111011111
1001011
10011010
1000010001
10111
1111111111001111
10000001
1001101
1111110010010011
1111110110000001
1111111001011010
1111101000111011
1111010000101011
1111101010000111
1111101000010111
1111111101001110
1111111010011101
1111111101000010
1001010101
1111111100010111
101110100
111101
1011100
110010110
1111111100001010
1111111100101011
1111110111011111
1111110110000000
1111111101111110
111100110
11111100
1011000
101010
10100110
1110001
1100100
10000
1111110011011001
1111111000001011
1111100101001000
1111101000010011
1111011010100000
1111011010001111
1111010000100100
1111100110000111
1111111111010100
1111111000000010
1111111000100000
101011000
1111110011001010
10011101110
10011101110
10010101
1111111001000101
1111110111001100
1111101011100100
101001100
10100001001
111001010
10010110
11001
1111111111001111
1111111110001000
101110001
1101011011
10111101
1111111011110100
1111110111000011
1111100110010010
1111101001100111
1111101010100010
1111100100001111
1111101100000011
1111110000110110
100011
111101011
1111111111011110
1111110100001100
1111111100000110
10010111011
1000100001
1111111011100011
1111111001000101
1111111110010000
1001100
11001100011
101100110
1011100
1111111101001010
1001111
1101
1010110000
10101000101
1010010110
1101100111
10001100111
1111111100010011
111010
101101
1111110101100111
1111110001000110
1111101100011101
100011
1111111010010000
1111001000
10011000110
1111111101111000
10000100000
1100000011
10001111
1001100110
1111010
1111111111110011
1101011100
101010011
1111111111111011
10100
10000100
11011
10001100000
10111011111
1110001000
11011110110
100010111000
100110011110
11011010001
1110110000
1111111000111111
1111111110000010
1111101011001011
1111111000110000
1111111001101011
1000001111
10110100111
11010001010
10111111110
1001000101
110101011
1110011101
1111111101011111
110001111
110011010
1110001
11111
1111111110110010
1111111110011011
1111111111010001
1010010010
1111010010
10001101110
11000110111
10100000010
100110101100
100010111001
100011100000
11110100000
1010111110
101101111
1111111011100111
1111110111010000
1111111011011101
1110110101
100010100
1010111101
1110000011
1111100001
10010011010
11110011
110001001
10101101
11000000
10001101
1111111110010010
10111
1101110
100101110
110010000
1010000001
1011100110
110110111
1110100000
100000010
11000000010
10100101101
10101011011
1001110110
1111100011
1101101
1111110101000000
1111110011001011
1111111101011101
1111110101011100
110101100
111001001
1111111110000000
1111111100000100
1111111010110111
1111111110011101
1010001
1111111100100111
1111111111100000
1111111111000100
101
101000
1111111110001010
1101
1011110101
1111110110001110
1111110000000100
1111110100110011
1111111011000100
1111111111101011
1110
10100011010
1100010110
1111111111110011
1111110100100110
110111
1001100010
110111101
1010010111
1110011
1111111110111111
10010111
1111111110101101
1111111111111000
1010101
1111111101110001
10010011
111001
11111001
1111111110010001
1111111011001101
10001010
1111111110110001
1111111011100001
1111110000101111
1111110011001010
1111110110100110
1111111111000011
0
1111111110011001
10010101100
10011111101
1000110111
1101001110
1011010111
10001100
10110101
10110110
1111110
1111111111000010
1010
1000101
1111111110111111
1100010
1111111101101110
1111111101100001
1111111111111000
1111111111111101
1000110
1111111010100001
1111111010110110
1111111011001010
1111101110011111
1111111100001011
1111101111110101
1111110011001100
1111111110100100
1111111001011010
11110
1000001000
100001111
1100100100
1000101110
111000001
10001000101
1001000000
10100101
1111111100001100
1111111101100101
100001110
1111111111110110
100001
1101111
1001010
1111111110011110
10100011
1111111101011101
1111111001101001
1111111011110000
1111111111010101
1111111000001101
101011001
1111110
100010111
100000001
111110
1011101001
101000010
1111110001
1000101000
1000011111
10110010111
1011101100
101011001
1111111010111001
1111111000111001
100110111
101010101
10010011
1110
11101100
100100001
10110110
1111111100011111
1111111100110001
1111111011110110
1111111011100000
1111111010111111
1001010111
1011011110
1111100010
10100100000
11010101111
1010000010
111100011
1101001010
100011101
1001100010
1101000001
1010111100
10010010
10100011
1111111010010100
1111111101011010
1111111111010111
100000000
101011
11011
1010010
10010
11100010
1111111101110001
110100
1111111110110101
1111111100010101
1111111010000001
1111111001011101
1111111000101100
1111111010010110
1111111111101000
10
1111111010000111
1111110001010100
1111110111100000
1111111110101011
1111111110110010
1111111101110100
1111111011101001
1111111011010101
1111111110001011
10101011
1111111110001010
1111111110110010
1111111111110011
1010010
1111111110101110
1111111101111101
1111111100100001
1111111111011010
11000010
10010100
10
1111111101011011
100010101
1111111111001011
1111111110111010
1111111100100100
1111111110010111
1111111110010001
1111111111111101
10011
1001110
100110
111011
1111111100110011
1111111111011110
1111111111000100
1111111110111011
1111111111111100
1111111011001111
101
10000111
1111111110110110
101000
