1111111110111011
110011
1111111111001010
110100
10100111
11010
1111111100100110
110011011
1111111111111001
1111111111101111
1001010
1111000
1111111110010101
1111111111000000
1010011
1111111110010110
1111111101110011
1010110
1111111111010000
1111111111110110
10001
10001011
101100
1111111111101011
10111
1111111110110011
1111111110111010
1111111111011110
100
10011001
10010000
1111111110011010
11010
11011
1111111100101001
101100
1111111110000110
1111111111110001
111010
1111111110111000
1111111100011001
111110
1111111111001000
10100000
1010101
11100
1111111101001110
10011100
1111111101101110
1111111110001000
1111111101000111
1111111101000000
1111111110011101
11100
101001
110001
101010
100110110
10111001
1111111101010111
1110001
1100
100101
1111111101011100
1111111100000100
1111111001100011
1111111101010011
1111111000010000
1111111010011011
1111110111110111
1111111100100101
100111100
111111100
1000
100000
1111111100100111
1111111011011010
1111111100100101
1111111100101111
1111111001100100
1001111
1110110
110011
1111111101111101
101111
1100111
10110000
1111111111101101
1111111111011111
1101001
1111111101011110
1111111011111000
1111110111011011
1111110001100101
1111111001111101
1111111100101100
1111111010010111
1111110100010011
1111111011111110
111001000
1101101011
1011100001
10111111010
1110000101
111111011
1000010010
11111101
1010000
1111111101100001
101100
100011
1111111111010111
1010110
1111111110110010
1111111111000110
1111111110011001
1001100
1111110
1111111100100110
1111111000011101
1111111010110000
1111111010100000
1111110111111001
1111111110000010
1111110100100111
1111101001011000
1111101101001001
1110101
1101100111
10001111011
10011001001
10110011010
10111010111
10110010111
10000100010
1001011000
10100011
11100000
1111111110000110
1111111110011101
10100111
1111111101101100
111101
1110001
1111111110111111
110101000
1111111011100100
1111111010000101
1111111001011100
1111111011001100
1111101001011011
1111110010101111
1111110011110000
1100010111
11011110011
100011000100
1110111100
1010000
1100001101
10000100011
10001011010
1111111101110111
1111100
1100000
1111111111100111
1111111111110110
1111111101001100
1111111101001111
1010110
1111111110100101
110110
1111111111100101
1001110
10011110
1111111101000100
1111101101010010
1111101110100010
1111111010001001
1111111010101101
1111110111011011
1101001
1110111001
11010010000
10111001100
100001100
1110101011
11001110
10111000
1111111101011011
100110
1011010101
100100000
110010111
10011111
1111111100110011
1111111111001000
1111111101110110
1111111111000110
1111111110111011
100110110
1111111011001001
1111110010111011
1111111100101110
1111110111000111
1111101110100000
100100011
110001000
1111111001101010
11010011
10010110100
100011011110
1110001100
11011010
1011011001
1111111011011100
111000
1000000000
1111111110100011
1111111001111011
1000110000
11001010
1111111111110001
1000000
1111111100110110
1010
1011101
1111111111000000
1000111
1111110100101111
1111111001111101
111001101
10010000
1001001111
1001000101
1111110111010001
1011111001
10000001000
10011100101
10011000010
1100110010
1111111100000010
1111111101100011
10011110
1111110011100011
10111001
1111111111101100
1111111100011010
1010101101
1010100011
11011011
101101
1111111100001011
100001
100100100
1111111111010110
10000
1010
1111110110111111
10001101111
1111111110010010
1001010111
10100110
1111110001111000
1111111111011000
10100101001
100111110111
1000001010
1111110101101111
1111110001011111
1111110010011001
1111101100101011
1111111001010101
1111111100110000
1111111110010011
1010
1011011011
1111111101010110
101100010
11001100
1111111111100111
1111111111000111
1111111111100010
1111111111101100
110110001
1111111111000110
1111110111101010
101100110
1111101100111101
1111111010001000
1010010111
1111110101011101
1111111010011101
11111001100
100110000100
110100101
1111110111101110
1111111111100111
1111110001011100
1111110111010000
10111100
1111111100100111
1011000001
1101100011
1001010
1111110011001101
1011000
10101111
1111111111101110
1101
1111111111001100
10101111
10101000
11010011
1111111111000010
1111111111110101
100000
10001001
11101010
111110
101111110
110000110110
100100101111
1111111111000011
1111111111011110
1111110010010000
1111111001000001
1000100
1111111001011100
1111110111100101
1111111001000001
110010000
1111110101000110
1111101001110100
1111111010110010
1111111100110101
1001
1111111111111010
1011101
1111111111000110
101110
1000110111
1111110111010000
1111110111110100
1100100
111100011
111011100
111
111110000
100001011110
11111000100
10000000110
101000000
100100100
1111110010111101
1111110111001011
1111101100100011
1111111011010011
1111111000000001
1111111101001000
1111101100110110
1111101101001000
1111111101100100
1111111110010011
1011110
0
1111111110000010
1110010
10000101
1010110110
1110010
0
101111011
1111111101100100
1000101
110111101
101011001
10100111100
110011110
10110100
111111101
1111111011100111
1111111000101000
1111110101100001
1111100110000111
1111111110000100
1111111100001110
1111111001010011
1111111011110101
1111111011000101
10010000
1111111101101010
100100100
1000
1101100
1001001
1111111100110010
1111111110011011
1111111101101111
1111111111001010
1111111110111001
1111110110101011
1111111000111101
10000011
1111110101111101
1111111000100100
1111110110110101
1111110110100011
1111111100101011
1000010000
100111010
111001100
10011001
1111111011100110
1111111111110111
1111111010001011
1111111111100111
100
1111111011100101
1111111101001000
1111111111001011
1000
1111111111010000
100110011
1111111000100011
1111111101011100
111
1111111111100101
1111111011101011
1111111000001001
1010010010
10010101001
1101010000
1111101110110111
1111100010011100
1111101000011001
100010100
101101000
1000001110
1100001101
10001100001
110101
100011100
1111111000100000
1111110110111100
1111111010001110
1111110011100010
1110110
1111111101111001
1010000
11100001
1010
1111110101110001
1111110111110101
100010000
1001001
10010000
1101101000
1010100010
1100000000
1111111110101100
1111110011111011
1111111101101000
1111101100100100
11000101
1111111110010101
110001111
1101001110
10000001011
111011011
1001010101
1111111101000011
1111101011101000
1111110100110001
1111110111010100
1111111111011010
1111111111101110
1101111
11
1111111110101110
1111110110001011
1111111100101101
11011010
110001100
101010110
110011100
100110101
1100011
100010011
1111111110010011
1111110000001111
1111111010110110
11100110
1010010100
10111000
1100010010
1000110110
1111110110101010
1111111111011100
10100111
110110
1111111010001011
1111110111010101
1111111110111111
1111111111101101
1111111
1111111011110010
1111111111101001
1111111010000110
1111111100101110
101110011
111
1111110111100000
10000001
10000110
111111
100001001
1111110110000000
1111100111100101
1111100010001001
1111111100100011
1111110110011010
1010011110
1111111110011010
100001111
1010011000
100100001
1111110111100001
1111101110001000
1111101000110010
1111111010101011
1111111111101101
1111111111100010
0
101100
1111111110110011
1111111110001011
1000100101
1000111111
1011100001
1100011100
1000000011
10100001000
1100100011
1000100110
1101001
1111101100000100
1111101100100001
1111111001100110
1111110010001101
1111110111101000
1111110111011011
111111100
1111110110101010
1111111100100111
1111111011000000
1111101111000011
1111110100110011
1111111011111010
1111111101000100
1111111110011101
1111111101101101
10001011
1100000
1111111101101001
1111111011101001
100111011
10001111011
1010011010
10011
101111001
10001010
1111111001011010
1101
1111110101100111
1111111010000101
1111110011001010
1111101110100101
1111111000100100
1111111101000010
1010110011
1111111110001110
1111111010010011
101010010
1111111100001000
1111111001101011
1111111101001101
111000
1111111110000111
1111111110011101
111110
1111111110011000
10
1111111101011101
1000111011
111111001
111001000
11001010
1111111010000111
101010011
1111111011011011
1010111111
1111111011110011
1111110100100111
100100000
111001011
1111110101011110
1000000110
1111111011011111
1000001110
1010000
1111111001111001
1111101100110010
1111111100100010
1111111011111001
1111111101001111
1111111111010011
1111111111101001
1111111101100000
1111111110111011
1111111101100110
1111111111001011
1000100100
1001001001
110100111
1111111101011011
1111111111111110
1100010
1001100100
11000001000
111111010
1111111001111000
1101101000
110001
1111110101010111
1111110100110010
1111101111111111
1111111001010011
1111111011111110
1111111010101011
1111110111101101
1111111100011001
1111111011010011
1111111111000101
111000
1111111101001101
1111111111101010
1111111101110010
11000
1011110
101010011
111011011
1001011100
11011001
11111110
11011101
111110010
1111111101111110
101010100
1111111100011011
11101100
1111110001111100
1111111001000000
1111110100100111
1111111001101110
1111110100000100
1111110000000110
1111111100001101
10101100
100000010
1111111111010100
1111111111101101
1111111111001011
11001100
1111111111010110
1111111111110100
100000110
1000000101
100111110
1111000011
10000000001
10000010110
10001001101
1010010011
1110011110
1010101011
1001101000
1111111100001011
11101001
1111110101100010
1111111111100001
1111110010001011
1111111010011101
110010111
1111111111001111
1111111101110110
100011011
1111111100011101
1111111011001001
1110011
1001110
1111111110100100
1111111110011001
1111111110010100
1111011
11011101
1111111111011111
110001110
1001011110
110010110
1110111111
1010100100
1010100011
101110000
1001
1001
1111111001101011
1000111110
1111111111101110
100110101
1001010100
1100101101
110101011
1111001100
111001000
1111111010100101
1111111100111010
110
1111111101001110
1010000
1110101
1111111110011111
11001
1001111
110110
10100000
10101110
11000100
1000100100
1001101101
101111100
101111011
10000001111
10010100001
1101111110
1011110010
111100010
1101011011
1011011111
111000111
1110011
1011000
1111111111000100
1111111110111101
1101
1111111110111100
1111111110000100
1111101
1100100
1111111110100110
1111111111001110
10011110
1111111111101001
10101000
10100110
1111111111000000
101100111
11111111
11110111
10101
1010011
1000111
1111111111001101
111011
111000
1111111111010000
10101011
11001111
1111111111110001
1111111111100101
1111111111001010
110001
1111111011100010
101011
1111111111100010
