11011111001
1111010111011111
1111101100101000
11100100111
1001101000011
1011100111100
1111111110001000
10010110010
1111001110000011
1001100111001
101010011011
1101101010111101
1000100010011
101110010111
100000100110
1111101101110110
100110101110
1111000100101000
1111000010001000
111001101
1111110110000001
1111010100111001
1111101011001010
1110111010
1111111110000000
1111110111110010
111010001
1111110001001110
111000100010
110000100
