1111010100101110
101000010110
100110011110
1111000100001001
1111100011101110
1110110010100100
1111110111110011
110000000101
111000111110
1111010000000010
101110001111
101011011110
1111011111001110
1100110110
1110111001000000
1111110110110010
10101100
1101101100110
1000011100011
1111110101000001
1111011101001010
1111101010000001
11001010001
1000101011110
1111000011101100
1111100011011100
111011010010
1011100110101
1111011011111110
10011011010
