1000001111
10000010101
110110011101
1110110100111101
1110110111111110
1111001100010001
1101
1111111000011101
1010000111
1111010100001001
1110111011001011
1111011101001001
1100001100
1111001100011001
1111010110010100
1111101001100110
11101101000
10010111
1001111001011
11111110101
111001000001
1111101010101010
1110111101001000
1111100001010001
1111001110010100
1001
1111110011
1110011101000100
1111101100100001
111010000101
