1000010011
1111101101110101
100011
101110011001
1110101000011011
101010010011
1111101110000100
1111110000111011
1111111001111000
111011010
1110001100011100
1000010110010
10110100100001
1111101101100000
1110010100010110
1101011000111
10101110101111
1101110100101001
1111101100111110
1111111100101100
100110100011
100111100
1111110100001101
1101001000101001
1010100100
1111101110011000
111111101000
1101100000001001
1111001101010011
100101010111
