1110111101001100
1111010010111001
1111110000111111
1111011100000001
1111010001000101
10001111101
1111110011010001
1100111010000111
1110110001011000
1100111000111
1111110111011010
111011111
1111111110000101
11001010111010
1110101110111111
10000100100010
1101111010100
1110000001100001
111110000
1111100101110010
1001100111110
11010000111101
1101110001100001
1110110111011010
1100111000100101
110100010010
1000111011
1111100001111110
1110001111011111
1111011011001011
