1111111110111011
1111111111000100
1010010
1111111101100111
1111111101111111
1111111101111111
1111111101101011
10
1000111
11000001
1111111111110010
1111111111011011
1101110
10011010
110011
1111111111010011
111100
1111111110011111
1111111111111110
11100
1000100
1110000
10110111
1111111110111111
1111111110111011
1111111110011010
1111111111101011
1011000
1101101
1111111101101100
1111111111001100
1111111111111111
1111111110110101
1101
1000111
1111111101001000
1111111110010101
1111111101010000
1111111110101111
1111111101000001
1111111110100000
1111111111011000
1111111111010111
110001001
1011000
1111111111010101
1111111110110111
1111111100100100
1111111101101011
1001110
1111111101101011
101010
11000010
1111111101101011
1000011
1111111111111001
1111111110110101
1111111110101110
1111111010010011
1001010
1101011
1111111101111011
1111111101111101
1111111110010001
1111111011010001
1111111110011001
1111111000001000
1111111011010001
1111110111010101
1111111000110000
100010011
1001111100
1110010
1111111011001101
1111111101000001
1111111100010011
1111111111010101
1111111100011010
1111111111001000
1111111101010101
1111111110011001
1111111101100010
11110010
1111111100110001
1111111100010100
110110
1001101
1001000
1001110
101111011
1111111101011101
1111111011011101
1111111100100010
1111110110000011
1111111000111100
1111110111010111
1111111110011011
1111110001010010
1111111000101110
110110010
1111111001001110
1111110100110111
1111111111100110
1111110101000000
1111111010001110
1111111111000001
1111111110001010
11010011
1
1010
1111111110011011
1111111101011001
1111111111100000
1111111110011011
11100
1111111110111110
1111111111110110
100100010
11111011
101111
1001101
1111110101100000
1111101101101110
1111110100100101
1111111010000010
1111110001111111
1111111101001001
101110011
1010110000
1000001100
1000101111
1101100
1000101111
1100101000
110001010
11000011
101110101
11110111
110101
10010010
1111111111001110
10111111
1011010
10100101
10101101
1001011000
111111100
101100011
1111111101110000
1000001110
1111110111110111
1111111100111010
1000000
101011000
1111111100010111
101111011
1111111101000110
101000010
100100001
1111111011001011
1111111111011111
1111111011001111
1111111110110111
1111111100101010
1100000
1111111111001011
1000011
1111111111001110
1111111110100001
100010
1111111111111011
1010011
10101000
10010111
11111011
1111111010101000
1000010100
11001001
1111111010010111
1100110000
1111000101
1111111110000100
1111110001111011
1111111011111001
1000100001
1111111100101000
1111101110010000
100100100
100000000
1111111101011101
1111111110010010
110011110
100110010
11011101
11001
1111111110110100
1111111110010001
10100001
11011
100100011
1001100
1111110001000110
1111111111001000
1111111110000010
1111101
11010110
1111111100110110
1111111011000100
1010001100
11100100
1111111100110010
1111111011011011
10001100
1111111101100101
1111110011000101
1100111
1111110110111001
1111111000000001
1111101100010000
1111111110111011
1111110101101100
1111111101100000
1111111110011001
1111111101111110
1111010
1111111110001011
1001010
1111111110100110
1111111101000011
1111111010100011
10000000
1100110100
10000001110
1001111001
1111111101001001
101111
1111111001100111
1101111110
1010001
1100001010
1111111011100010
1111101100111111
1001101
1110110
1111101110101111
1111111001100101
11010
1111111100010111
11000011
11010111
110001010
1000110
10110111
1111111011110111
1111111101010110
100010
1111111110010111
101111
1000111010
1101110000
11001110
1111111001001001
1111111101101111
1111111100110010
11
1111111111100010
1111111011110101
1111100100
101111
1010110100
1110100100
100011001
111101
1100100001
1001100100
1111111101101001
1111111111011101
1010101000
1111111100010101
1011000
1111111101110110
1111111111110110
100110
1111111001111110
10111000
1111111110100100
111101111
1111111011111101
1111111010101110
101010100
1001111000
111100
1111111111001011
1111111110111001
1111111101010100
1011110101
10010001111
1100100100
1111111110101010
1000110111
1001110000
110001101
100001010
100010010
1111111001011011
10111000
1111111111100100
111101
1111111101011011
10001110
1111111110111001
111101
111100001
1111111000001001
11001100
100011111
10011011110
10000011010
1101101010
111
11100111
11011001
10001111000
1101110011
110000111
10000111000
1101110101
101110011
10011011000
1001010010
1111001010
11000001000
1010000011
1001101010
100011100
10110011
1111111101111110
110000
10110110
1111111101000100
1101001000
1111111010101111
1111111101110101
1101001010
1111111011001110
1111111110110000
100011111
1001110
1111111100
110010001
10010110101
11000000
1111110101001001
1111111100000011
10000110
101100000
1111011110
10000010010
10010011011
11010111001
100000011
10101010
11001001
1010110
1111111110001011
1111111111100010
11010
1111111011010001
1010001100
1011100010
11000110
11111101
1111111011101100
1111111111010011
100111101
1001001001
10111010101
1100001000
10000001101
1101001111
101000000
1100000010
1111111010010000
1100000011
11000000011
1111010111
10001011111
10110101
1111111100101001
1111111101111010
1111111101000000
1111111101101001
1111111110010111
1111111101110010
11100110
1111111100010011
111100110
100
1111111100000000
1111101111100101
11011111
111010110
1111111101101011
1111111110100000
10110010001
11010001111
11011011000
1010010101
1001000011
1101101011
1111111111111010
1111111001110011
1111111100001000
110100011
110110000
1111111111000010
1101111
101
1111111101101001
1111111111110011
101001010
1111111111011000
1111111110011001
1111111100110011
1111111101101111
1111110000001011
1111101101010010
1111100100001100
1111101101001110
1100101101
1111111111001101
111000101
10000011001
100000010011
100001010010
10101101001
1111111100000001
1111110101001011
1111111000101100
1111111000101011
1111110100000110
1111111101101001
1100100111
110011011
1111110111110110
1111110101110111
1111001
1010
1001100
1111111101100000
1111111111110010
1111111100100100
101011
1111110101010010
1111101101001001
1111100101001100
1111100101110111
1111110110111100
1111111001110101
1111111000010100
1010000110
10010101001
11000100011
11010010110
1101101100
1111110011101100
1111101100001010
1111101101101111
1111110000111000
1111110110111111
1111111111001101
1001000
1111111110010101
1111110101111010
1111111001111111
1100
1111111111011100
1111111110110001
1111111111011000
1111111101000101
1111111100011100
1111110101000000
1111101000001111
1111011101100001
1111101011001111
1111011111000101
1111100010000011
1111100101010010
1111101101100100
100011111
110011100
10000110000
100010010
1111101000001110
1111110100010011
1111110101011000
1111110110000111
1111110101100100
1001
1100000010
11101000
1111110110101110
1111111100110100
1111111110100011
1111111100010111
1111111111001111
11111000
1111111100110111
1111111100100111
1111110011011011
1111110000010100
1111100111100101
1111101110000010
1111011100100011
1111011000011001
1111010110111010
1111000011011010
1111011110110110
1111101000011110
1111111001000101
1111111110011011
1111110100110011
1111110111001101
1111101111101010
1111111100111011
1111111011001001
1111111000000110
10001111
1111111010011101
1111111110010001
100011110
11010000
111000
1111111111100010
1111111110111000
11011011
1111111100000000
1111111010100110
1111111010101100
1111111101101000
1111110001010100
1111111000111001
1111110001000010
1111100111010001
1111100110010001
1111011000010011
1111101110110101
1000
1111111010001011
1111111011100111
111001
1111110101100101
1111110011110100
1111110100110011
1111111110001011
1111111010100101
1111111101111110
1111111100111010
1111111100001011
1111111110011011
11100100
1111111101001010
1111111110110101
1111111010100101
1111111001001001
1111111010100011
1000111110
1111010000
1110000011
1101
11100011
11010011100
1000010000
1111110111000101
10011101
1111110110011100
1111110000100001
100100010
1111110111101111
1111110101001011
1111101110111001
1111111101111110
1000010000
101100010
10110
1111111110111111
1000111
10001100
1111111110110111
0
1111111101101101
1111111100111101
1111111101001101
111101001
1010100110
11010010
11110111
1001001100
1111011000
1110100110
1111111111100100
1111111001000001
1001101111
1111110100000001
1111110001011101
1111111111101000
100101
1111101111110100
1111111010000101
1111111010100111
1111111101111110
1111110110001100
1111111100010110
1111111110111011
100
1000111
1111111111001011
1111111011101111
11111
10000100
1100011
1010101111
1111110101
1010010110
1111111110000101
1111111100000101
11001000
11010
1111110111110111
110011110
1111001000
1111110001110110
1111111001010110
1010010000
1111111111000101
11110110
1111111101110001
1111110110001001
1111111011110001
1111110000110000
1111111001011010
1111111100100010
1111111101000110
1101110
1010
0
1111111111111111
1111111011110101
1111111101101011
1111111100100110
1111111001011100
101111111
1111111010001101
1111111111001011
1111111111100101
1111110011100100
1001011010
10110100
111111
1111111011111011
1101111
1000010
1111111110111011
111
1111110101110010
1111110010110100
1111110000000001
1111110111101011
1111110111000111
1111111110000100
1111111101001101
1110011
1111111111101100
10000110
1111111111000101
10101110
1110000
1010110
1001000
1111111100000011
1111111110100110
1001001000
10111101010
1111111111101111
1111110111000001
1111100110110001
1111101001000000
1111101110111011
1111101100000110
1111101011001100
1111110100100111
1111110110111111
1111111010011001
1111110101000100
1111111000001001
1111111101100001
1111111000001101
1111111011000110
10000
10100100
10000010
1010
1111111111001011
1101000
100001000
11100111
10100010
11001000
101000111
11011000
1111111001011011
1111110100000010
1111110111101001
1111110100010100
1111111010011101
1111110010110101
1111110010110000
1111101100011000
1111110110011000
1111111111100010
100001011
101000110
111000
1111111101000101
1111111101101100
1111111011111100
1111111111011101
11101011
1111111110001111
1001
111010
1111111110100110
10
11010010
1000001100
1000100111
111000011
111001000
11110011
1011
1111111111010010
1111111100111110
100010010
1111111110111011
1011001
1111111101100000
1111111111111001
110110
11100010
10100100
101011111
110000
1111111111100111
101001
1111111111001111
10010110
1100010
1111111111000011
1000101
1111111111010001
110110
1111110
1111111110001101
1111111111111011
1111111111111010
1111111110001000
1010110
111
11111000
1101001
1111111111010100
110000
1101000
111010
100011000
10110100
110110
1101110
1110101
1111111111101011
1110100
10101
1010010
1111111110101011
