1111111111110011
101100
1111111100110100
11001010
1111111101000000
1111111101110110
10000100
11011101
111000
1111111110011010
101001
11111000
1111111101101111
0
100011
1111111110111011
1010
1111111111110100
100
10111
10000111
100001
1111111111101110
1111111101101011
110000
10010111
1111111100001000
1111111101100111
10110110
1111111110001001
1001
10
10000100
101011
1111111100110010
10101110
1111111101000010
101011
1010100
1111111101110100
1111111100101101
11010111
100110100
100000001
10110101
1111111110101100
1111111111111001
1111111110000110
1111111110011000
100100101
1101
1111111111001000
10011110
1001010
11000011
1111111111100000
111000
1010
11011010
1111111101100100
10011
1011111
1111111110001010
100010
1111111100100001
1111111111110010
100110
1111111101011111
110101001
1000001110
1010
11010101
1011001
1111111110111110
1111111011110011
1111111110101011
1111111111010111
110000
1111111111101010
1111111111100111
1111111101001110
1111111110101001
1111111111100100
1111111011111110
11010000
1111111111100110
1111111110001101
1000111
1111111110111101
101111
1111111111101001
1011111
1111111101110101
1111111110100011
1111111111011010
10101
11011101
1111111101111111
1111111100010010
1111111100001001
1111111010101110
1111111001010111
1111111001001011
1111111011110111
1111111000000010
1111111001100101
1111111111101111
1011110
1111111110111100
1011011
1111111101110000
1111111110011010
1111111111101100
110000
11111
1111111110001011
10011011
1111111110011110
1010100
1111111101100110
1111111011001010
1111110101110101
1111110100111010
1111111010101100
1111111101100100
1101
101010
1111111010111001
1111111010011110
1111110111111101
1111111110001111
1101100
1111111000000011
1111111100010010
1111111100010001
1111110110110111
1111111001010111
1111111111101010
1111111100110001
1000100
1111111111111011
1111111101011101
10001001
1100
10011
1111111111000000
1111111011000110
1111111001011111
1111110010001010
1111101011110110
1111100000100000
1111100101101000
1111101100011101
1111111000101110
1111111010001111
1111111111101011
11010101
100001011
1111111100100000
1111101111011011
1111100110010010
1111110000000011
1111110101110110
1111110100010100
1111111000110110
1111111101001110
1111111110110100
10001100
1111111110110101
101011
110110
1111111111101001
1111111101001111
1111111101110101
1111111001101001
1111110110000110
1111111011110000
1111111000000110
1111110000000100
1111110100010000
10111110
10010110
1111111001010111
1111110010111111
1111111010011110
1111111110110110
1111111110111111
1111110111001011
1111110111101100
1111111110111101
1111110000010110
1111101111000101
1111110000000110
1111110110110111
1111111111001101
0
1111111100001000
10000
1110
1110000
10100100
1111111101000000
1111111111101000
1111111110000010
1111111111101110
1110010001
1111111101000101
1111110110011111
1111111101110111
1111111100111100
10101001
1111110110111001
110000
110101000
111110111
111010000
1001111011
1111111101011000
1111110011000110
1111110000011010
1111101011001010
1111110011000111
1111111101001000
1111000
1111111110010101
100111
1111111110010010
10101000
1111111
10000011
11110101
1100010010
1110101100
101011000
1111111001001110
1111110010111011
1111111001110100
1111110010010100
1000000110
1111111100111000
1111110000001011
1111111100011001
1000101000
11000000
11110010
1111110111111101
1111110110000010
1111110111110010
1111101111011110
1111101111101111
1111111100101000
1111111110011111
1100011
1100110
111111
101000
10100001
1000110100
1001100010
100000001
100101101
1111111101110011
1111101111011010
1111110000111111
1111110110011011
1111111111000110
10010111000
1011100000
1111110111001100
1111101101011101
1111111000011111
111111
1111111001011001
1111110111111000
1111110111001110
1111110101100100
1111110101101100
1111110000011101
1111111110100000
1111111111010100
110010
1111111111010010
11000110
1111111101111100
1111111111110101
1101010010
11001110
1111111111101010
100101001
1111111101011101
1111111110111111
1111111010101110
1111101111110011
1001010001
1111100111
1110011100
101011100
1111111001111100
1111111010011110
100101
1111110001101110
1111110111110110
1111110101000001
1111110111111110
1111110010010100
1111110110000111
1111111011110010
1111111111101101
10011110
1111111111111000
10101010
100100100
1111111111110110
1101111
1111111111111000
11001000
1111110101100110
1111111110101110
10010010
1110111
1111110111010101
1000101111
1101010000
1100001
1111111110110001
1111111100010001
1111111001011010
1111111010100010
1111111101010010
1111110111111111
1111111001100011
1111111100100100
1111110100111000
1111111001011101
1111111110101010
1111111110101100
1111111111110110
1111111101001111
100000
11000000
1111111100111001
1110001
1111111101111000
1111111111100010
111110
1111111111001100
1111110001100111
1111110110111100
1111111100010010
1110
1111111011101001
101101100
1110101010
100100010
1111111100101100
1111101111100110
1111110001010111
1111111010101100
1111111001111000
1111110101110000
1111111110100001
101011
10010110
1010001
1111111110111011
101100001
10111011
10011001
1001111
11001010
1011001000
1111111001101000
1111111000100100
1111111011011000
10000
11001110
1111111001010100
1111100000001000
1111110000100010
1111111001110111
1010100001
1111111100010000
1111101101010101
1111101110010000
1111111000101101
1000010
1111111111011011
1001110
100111110
101111000
100000011
1111111111000011
1111111101001101
1111111101111110
100110110
1111111111010000
1111111010111100
1111111111101111
1011011010
1111111011011011
101111000
10011011
100010110
1111111100101111
101011011
1111101110101101
1111101110110011
10101
1011001010
1111111011111111
111000101
1001011100
1111111101000100
100101
111010101
1101100111
111001001
111100010
1011101
1100010
1111111111101111
1010000
1000001
1111111110001001
1111110011110111
1111110111101000
1111100
111011
1000110
1111111110000001
1111111001110111
11111010
101101001
1110110
1111111101010000
111110010
1011101111
11000001
111000011
100001011
1111111111100100
1111111100010001
111001011
110101111
1111111111000010
111011
1111111001100101
100010
10111
100100
1011100
1111111110001111
1111111010111000
1111110100001000
1111111101011101
1000000011
10001000110
0
1111110101000100
1111110010110111
1111110101101110
1111111010011000
1000100
1111100110
10101111011
1111111011011001
1111111011001110
100100101
1101101
1111111110100011
1111110111101101
11111000
101011101
1111111011011100
101011
10010100
1111111110101101
1111111111010000
1011111
1111111100001100
1111111110101000
1111111011000110
111100
110
1111111101100001
0
1111111011100111
1111110100100000
1111111111110000
10000011000
10001001000
1000011010
1100011100
1111111100110001
1111111100110110
1111111110111000
11000100
1111111010110101
111000
10011111
11100100
101000011
1111111110100111
100000
1111111111011100
10001001
10100000
1111111110011011
10100
1111110101010101
1111110010011011
1111110011001100
1111110001111000
1111111000110010
1111101010001101
1111100101000001
1111110100111001
10110110100
10010000111
1111111111001101
1111110100001111
1111111000000001
1111111001000111
1111110010111000
1111111001010010
1111101111110110
1111101100000111
1111110100101000
1111111001111100
1111111101010111
10000100
1111111111010011
100110
110110
1111111110111110
1111111100100010
1111111001001000
1111110010101100
1111110000110011
1111101010110011
1111101101000010
1111101110010101
1111011101001110
1111101000000010
111110101
10101001101
10010110001
1111110100110110
1111110100011000
1111100111010111
1111100010111000
1111101111010010
1111101101101000
1111100100010010
1111100110101001
1111110001001011
1111110111110100
1111111111001111
1110
1111111111011100
100100
1010111
1111111111001101
1111111011001011
1111111011010010
1111110001000001
1111100111111001
1111101000100100
1111101001010010
1111101001110111
1111101111000011
1111111100100000
11111000100
10011110100
1100101000
1001010
1111110111100001
1111110011010111
1111110000110110
1111101111000010
1111110001010011
1111101101110001
1111101100011011
1111110101010110
1111111001100000
1111111010101001
1111111110111100
111
1111111111001011
1111111101001111
101110
1111111110010100
1111111001000111
1111110001100011
1111101100101101
1111011111001100
1111100111100101
1111101110111111
11001011
110100101
11001100001
1100100000
1001110011
1110001101
111110000
1111110111110010
1111111001111011
1111111000111001
100000100
1111111100100000
1111110011100100
1111110101111110
1111110110000100
1111111111111010
1111111110101001
111000
11110101
101100
1111111110111110
1111111001100101
1111111011110001
1111111100000001
1111101111000100
1111100000110111
1111100110101001
1111110100100011
1111111101100101
1111111000001111
10111111
1100000111
10101100111
111001100
11101001
11000111
1111110111001000
1111111001100001
1111111000101110
1111111010111110
1111110011110000
1111111011100000
1111111101100010
1111111101001011
1111111111010011
1111111100110010
10000001
111100
1111111101100110
1111111110000010
1111111001111010
1111111101110101
1111111000011101
1111101100000101
1111100010101110
1111101100101110
1111111000011101
110110010
1110111100
1101101101
1111111110101111
1111111111100001
110101111
10100000111
1111111001000111
1111110100000101
1111110001011011
1111110111010111
1111110101100000
1111111000001010
1111111101010011
111011
1111111111001101
11
101010
1111111110111100
1111111110111010
10010101
1111111111110101
1111111101000111
1111111011100111
1111101100101110
1111110001001100
1111110011001001
1111110101011100
110010010
1111110101010001
110101001
1100
1111111111101110
1111111110010010
1110111100
1111111011010100
1111111011001100
1111110111011010
1111110111010011
1111111001100110
1111111101101111
10110
1111111010101111
1100110
1111111110101011
1101001
10100111
1111111101110101
1111111111101010
1010011
1111111110100101
1111111110000010
1111111001001101
1111110110001011
1111111100011011
1111111001111111
1111111011000011
111110100
101010011
100111000
100010010
100110100
1110110
101010100
1111111110001111
11100000
1111111110001010
1111111101001100
1111111101110111
1111111111011101
1101011
1111111110010000
1111111110100100
10000000
1111111111000001
1100
1111111111001010
1111111010100101
1100100
1111111101011001
1111111101100000
100100
1111011
11111101
1111111000010000
1111111101010101
1111111101111011
1111111101110011
1111111100011000
1111111111001000
1111111100101101
1111111110011010
1000111
1111111111001010
1111111101010011
1111111011011010
1111111101100001
1111111101101110
10011101
1111111111111111
1111111111001001
101000
1111111111001010
1000111
1111
1010
1101010
10100111
1100100
10011010
1111111100110111
110001101
1111111110000010
1111111111001110
10011111
11000010
1111111100011111
1111111101001011
1001111
1111
1111010
101110
10011111
1111111110001111
110010
1111111110011111
1111111111101101
1000101
1000001
