1111111111101110
1111111011010111
10010111
100011001
1111111101001110
1111111100010001
1111111110000100
1111111111010010
11110000
100001001
100111
110110
1111111100110110
1111111110001001
1111111101111011
1001010
1111111110010000
1111111101111101
1100110
1111111111100011
1001111
1111111111000101
1001011
1111111111100010
1111111110001110
1111111111100000
1111111110000101
1111111100010100
1111111111010001
1111111111110000
1111111101110001
1100111
10110001
1001
1111111101100110
1011
111011
1001001
1111111111000000
1010101
10001011
10000001
1111111100110110
1111111101001101
110000
11010010
10001100
10001010
100100011
1111111101110000
11100010
100100
10010101
10
1111111111110101
10000
100101
111001
1111111110010111
10000110
1111111101110100
0
1111111111000110
10100011
1111111110100110
10100
1111111111101010
1001011
100011110
1000001
1111111101010001
1111111001011101
1111111111101111
1111111111011001
1011110
1111111111010100
1111111110100011
1111111101110010
1011110
10010001
1111111
1111111101000101
11010011
1111111101010001
1111111110110001
1111111111100110
1111111110110111
101010110
1111111011101111
100010
10010010
101111100
1111111101100001
1111111101100111
1111111101100001
1111111100101010
1111111000111110
11000100
1111111011010011
1111110011001101
1111111001000100
1111111010010010
1111110101011000
111001
100101
1111111111110100
101
1011001
101001
10010101
1111111110101100
1111111101110011
0
1111111111010010
1111111101111101
11011101
10010001
1111111110010000
11000101
1111111110001011
1111111101000100
1111101110101010
1111110111101001
11110
1111110101100000
1111110110001111
1111101111101000
1111101001111011
1111110011110010
1111111110101011
1111111110001011
1111111011010110
1111110010011000
1111110011010000
1111111000100000
1111111011111011
1111111100010011
1111111110000011
1111111111001110
101101
1111111111101000
1111111100011001
1111010
1101001
10001011
1000101
1111111101011011
1111111010001100
1111101110111111
1111101010111110
1111110100110101
1100110
1001001
110110010
1111111000101001
1111101100000001
1111110011001011
1111111001100000
11001010
110101111
1111111011111010
1010100001
10001
1111110011100010
1111111101110111
1111111100110010
1101
1111111101111001
10011011
1111111110101100
1111111110110111
1110000
1111111101110111
1111111010011111
10100
1111110100100000
1111101101000101
1111101110111001
1111111100001100
1001000011
11110111
1111111110010001
1111111001000101
1111111101101000
10000001001
10011101000
1000111000
11100010
1000111
111010011
100
1111110100010001
1111111001111010
1111110111110101
1111111111001001
1111111110000000
101111
1111111011111001
10100110
111100
1111111111110010
1111111110111101
1111111110101110
1111111001010000
1111110011101011
1111111110001111
1111110111110001
1111111010100100
1011101
1001011
100000010
1110100
111000010
1100100010
1000110111
11010110
1111111110111001
1000100001
1111111100110011
10010001
101011000
1111111011001111
1111111001111111
1111111100100110
1111111101001011
101100
1001111
1010000
11101111
10010101
1111111101011110
1111111100001001
1111111101001100
1111111001111010
1111110101100101
1111110000011100
1111111100110100
10000011
10000001110
10000011110
101101100
1011101011
1111111110110110
110010011
11110001
1111111010101001
110010111
100010110
1001001
1111111010001111
1111111110101000
1111111110111101
11011
1111111111000111
110001
1111111110010111
1110101
1111111100101011
1111110111111111
1111111110111001
1111110011110100
101011100
1111111100111110
1111110001110010
1111110101011100
110000010
10100110011
1001110101
1111111000110100
1111111000001010
1111111100000101
100101
111100111
1111110100000110
1111110110010010
1111111101111101
1111111010001111
1111111001011101
100000010
10010110
101110
1111111111111100
100111111
1111111111111010
1101100
1111111010011100
1111111010110101
1111111011110111
1010011101
11
1111111001010001
1111110111100000
1000001
1110011
11110110000
1111111101
1111111010100110
1111111110111100
1111111101000110
1111111001100100
1001000011
100000110
1010101
100100101
110111011
1111111011111011
10100000
101001
1010010
1111111110010110
1111111111000110
1111111111001000
1111111010111010
1111111011111001
1000010001
100011110
1100110
1111111010010011
1111111101110101
1111111011101110
1111110000111101
110011111
10111000111
10111110101
1111111100110111
1111101001101101
1111111111010000
1111111010011000
100000100
1110111110
1011111110
10010110110
100001010
1111111111111010
101111
1111
10001010
1111111010111100
1111111111000101
1111111110101011
1111111011110010
1111110111101110
10101110100
1000000101
1111111100101011
111100101
1111111101001000
1111110011110110
1111110010101111
1111111111100000
100011110
1111111111100110
1111111110111001
1111111000100110
101011
1001011
1000001011
111101011
10011111010
10011010001
10001000010
1110111111
11100110
110011
1111111111100000
10000101
1101101
11010
1111111010101011
1111111110011100
10010111101
1001001000
1110111
10100011
1111111101111111
1111111011111110
10111011
1111111111000101
1010101000
1111111010101010
1111110110011110
1111110100110100
1111110111101101
1111110100000111
1111110001101010
101010
1011010110
1011100111
1110101010
1000000111
11101110
1111111111000001
10010
1111111111001011
100110
1111111101011010
1111110111100100
1000011011
1011100111
111001110
1111111100011001
110100001
1000000000
1111111111111000
1111111001101000
101010000
1001010111
1111111011000100
1111101000010001
1111110101110011
1111111011100000
1111110110100010
1111111101010110
11000111
111101100
1110001000
1011010011
100000001
10000010
11011
1111111010110000
1111111111010110
1111111111110100
1111111111000010
111010
1000111010
111011011
1001101010
1001001010
1100001101
1111110010000100
1111101010100111
1111111000010011
1001011110
1111111111111111
1111111111110011
1111111100101100
101011
1111111100000101
1111110010010011
1111111001110010
1111101111010101
1111111010111001
10011010
1010001011
1001101101
1111111101100100
1111111101001010
1001101
1111111111000011
101110
111001
11101010
110001000
1111111111110000
1010000110
111111000
1001110000
1111110111001000
1111110010110110
1111101110100001
1111110010101000
1111111010110011
10000100110
10011111
1111111011100001
1111110110100010
1111101111101011
1111110110100111
1111111000111010
1000101011
10001010
1111111110110011
1010110110
1010100
10010101
1011110
1111101
1111111110100001
1000000110
1001000101
100010110
1000000010
1010010000
1011100010
10100011111
110100010
1111110101011110
1111101111101101
1111110000001101
1111010
110110100
1111111110010110
1111111111111010
1111111100110100
1111111011011000
1000001100
101100010
1001001001
100000
10011
1010010100
11100010
1100101
1111111111100111
1110100
10001
11101000
1100011000
1111111101001111
10100110100
111101110
10000110110
1101101110
1111111101001001
1111101011101000
1111100101001011
1111101110011110
1001100000
1110110001
1111111101010000
1111111111000000
1000101101
100110101
10011101
1010011
1100111010
10111
101000110
110000001
1111011
1111111101111011
11011110
1111100
1111111110010111
1100110
1000100
1101
101101001
1111111000010110
10010101000
10110011011
1111110111111100
1111100011011111
1111101010110110
1111110111111111
10011111
1000100001
1110111
1011101
1111111101010100
1111111100101110
101111110
11001110
111101010
1111111101110111
1111111100011011
100100100
1001
10011
1111111011100000
101001110
111101
10000
101001001
1111111100000001
1111111111101011
111110010
10011010110
1011000010
1111111010010101
1111011100100101
1111100110111011
1111101011010011
1111111000000110
1111110011111100
1111110100101101
1111111000001011
1111101011111101
1111110001010100
1111111010100110
1111111010110001
1111110101111011
1111110101001001
1111111011011011
10010
10100111
1111111101100000
0
1111111100101100
100011010
1010111
1111111111001101
1111111111001001
1001111111
1001010010
1011000110
11001100
1111110101110100
1111100101110110
1111011101111010
1111100011011100
1111100110101001
1111110000000010
1111111011001000
1111110001110001
1111101010000101
1111101101001000
1111101111011000
1111110100011111
1111101100101000
1111110000111100
1111111001001100
1
1000100
1111111111111010
111111
1111111111000010
1111111111010100
1011000
100011
111010
1111111111000101
10001100
0
10000110011
101100101
1111111000000111
1111111001000101
1111110110001110
1111101010111111
1111101011111011
1111111001000001
1111110000011101
1111111101101100
1111110110111001
1111110101001000
1111110101011000
1111110000010111
1111110011000101
1111111000101001
1111111110011010
101
1111111110000001
1111111111010011
1101
1111111110111110
1111111110010010
111
1111111111100011
101000000
1111111001011000
11111100
10001111111
10010001101
1111111111110101
1111111100100010
1111111000110111
1111110001001010
1111101100010000
1111111001000101
1111111000010110
10010010
1111111101100101
1111111010010111
1111111001000111
1111111000110000
1111110100011000
1111111111101100
1111111101110100
1111111110010011
11111000
10100101
1111111110001000
10
1111111111101110
10001
1111111101110111
1111111010000110
1111111011010000
1000
1010110100
1000100110
1111111101011011
1111111010011100
1111110100110110
1111101101010011
1111101101100010
1111110110110011
1111111110001010
10010100
11001
1111111001010011
1111111010011010
1111110111010111
1111110011111001
101100
110010
1111111111010000
1111111111111001
1101000
1111111110001011
1111111111000101
10111
1111111111001001
1111111001010101
1111111011111100
1111110110110101
1111111010000011
1111111010101101
1111111000000001
1111110101011101
1111111011001000
1111111110011101
1111111011000011
1111111011010011
1111111010111011
11101101
10011111
1111111101110000
1111111100100000
1111111101011100
1111111011010010
1111111011011110
11
1111111111111001
10010011
100000
11000
1111111101111111
100101
1100101
1111111110110001
1111111110110001
1111111010000100
1111111100111000
1111111000000010
1111111011110000
1111111101000000
1
1111111101011011
1111111001101110
1111111000010100
1111111100111111
1111111111100100
10000100
1111111110100010
1111111111101101
1111111111100000
1111111011111011
1
1111111111110110
1001101
111000
1111111111110010
1111111111001110
10001101
1111111111000011
1111111111100101
1001100
1111111110001110
111100
1111111110000100
1111111100100100
101011
1111111110000000
1111111101011110
1111111111111010
1111111110011101
1111111111111101
1110
1000
10000001
1111111100011101
1111111111101111
1010001
10000010
1111111110100111
1101000
1111111110110010
100010
10001
1110110
1111111110110111
