1000111
1010111
1111111111010111
1100101
1111111110000011
1111111111000010
11011111
1111111110001010
1111100
1111111101111011
1111111111000101
1100001
1111111111110100
1111111111110110
1111111111101010
1111111111110000
11100
1111111111010010
10000101
100000
111100
1001
1111111110010010
100001
10010010
11110101
1110111
1001
1010111
1111111011111011
1111111011101100
1111111110111101
1111111111111100
10010
11101
1111111101111010
1111111110111101
1111111110100011
1111111110100100
1111111111001111
111
1111
10101101
1011001
10101110
11110001
1111111110110100
100000010
1011111
1111111111010101
10011011
1111111111110100
1111111110111100
1111111111110111
1111111111001001
1111111110000011
10001
111010
10000110
1011001
10011000
11011
1111111110101010
1111111110010010
101111
1110010
11010111
111101
11100110
1001100
1111111110001111
1111111110000010
1111100
1111111101100100
1111111101101000
1111110111111101
1111111101111000
1111111010111011
1111111101010011
1111111111000010
1111111010011110
1111111111111000
1010001
110011
1010011
1111111110011000
1000010
11111
1111111101110101
1111111110010111
1111111111111001
1111111111000011
101001101
110000101
100010011
1000001111
1110110001
11011010
1111111101101011
1111111011001001
1100011
100000010
1111111110110000
1111111010001100
1111111100000000
1111111000100000
1111111001011101
1111111011111100
1111111110001110
1111111101111010
1000111
1111111101011110
100100101
1111111
1111111101111110
1010111
1111111111110000
11001111
1111111111010111
1111111100101111
1111111111001000
1111111100010010
100100
111010100
10111011
1111111100111011
1111111000001111
1111111001111101
1111111001110110
1111101111101110
1111110010011010
1111111000010111
1111110110010001
1111110111011011
1111111001100000
1111110101000110
1111111010100011
1111111101011110
1111111110001010
1100
1111111111100100
1101100
10
11011110
1111111111101110
1111100
100101
11010001
0
1111111111100010
1111111010110101
1110001011
101011111
111010111
1111111011000111
1111111110111111
1111111010001010
1111101101100001
1111100111110110
1111110011101100
1111101111000110
1111111101101110
1111111111111101
1111101111101011
1111111001010010
1111111111000001
10000000
1111111110100011
10010
100001011
10111
1111111111110101
1111111111101000
111111110
1100000110
11000000
1111111111011111
10011001101
10000011010
1011010100
1111111111110101
1001010011
1111111000100000
1111101100011100
1111110000011011
1111111000001001
1111111110101011
1111110101011101
1111111111111011
1010011110
110011000
1111110011010010
1111111000000011
10111111
1100011
1111111101001011
101101
10010010
1111111101000001
100000000
1000011
1010001
1010100100
110010
1101110
1010000
1010101000
11
1010100001
110011111
10111011
1111111011100001
1111110001111100
10110111
1111001110
110011101
1001011001
110101110
1100100001
111000011
1111111000011100
1111111110111010
10100111
1101000
0
1111111110010010
11100
1111111111001110
1000101
110000111
1111111111000110
1111111110000001
110100000
1111111110100011
1111111110101100
1111111110010001
111010101
111001111
10110110011
10110011010
100011100111
10010111111
10010000111
10111111000
11011111100
10111011110
11000110111
11001010100
101001011
11010010
11110000
1111111111111010
1000001
1101101
10000
10100111
1011110010
1001011010
10101100
1111111101101010
100010
1001010
1111111111000000
1111111111101001
1010001010
10100001001
101010110100
101101111001
101111010110
101011110011
11010111100
11100111001
10001000001
10001001110
11001101101
10111100010
1101110100
1000110101
10000
10010
110100
1000001
1000110
100110
11110101
11000011
1111111000001101
1111111001101100
101111011
1000101011
1011111100
10101001001
1010000011
1101001110
10000000010
1100110011
101010011001
11001100000
10000101010
111101110
100000
101010000
10011000101
10110100110
1101110000
1010110001
11011101
1100110
100110011
1111111111101101
11101010
1110101
1111110101101101
1111110100101111
1111110101101001
1111111000011000
1111111100010101
1111111110011100
1111111010010000
110101101
1111110101111101
1111111010000100
1111101111010011
1111110010111001
1111101010000101
1111100011111011
1111011111011100
1111110000011111
1111110011010001
1111111010010100
111101011
1010001001
1011000010
11011011
100011000
1111111110111001
1110010
1111111111011001
110
1111111111100101
1111110011010100
1111110100110011
1111111100110000
1111110100001011
1111110011011100
1111111010010001
1111110001101000
1111101101101110
1111111100110011
100011000
1111111010011111
1111110001000011
1111011110100110
1111011111100010
1111100111010101
1111111100100010
1111110101110001
1111111000000001
11011011
1111111101001110
1111111110010011
110010111
10011001
1111111110011000
1111111111000001
1111111110110011
1111111100010010
1111111110000010
1111110011001001
1111101110010100
1111110001011101
1111110101110011
1111111010110110
1111110100110101
1111110011001001
1111110101101101
1111111000011000
10
10000010
1111110100100100
1111101111010101
1111110000111111
1111111111111001
1010100
1111111000011000
1111111100001110
101100100
1111111010000101
1110011
101100101
100101010
1111111110100000
110010
1000100
1111100
1111111101101011
1111101111110010
1111110000111111
1111110111011000
1111110111001110
1111111111011110
1111111110011000
100000000
1111110011101010
110000100
1111111111001010
1101001110
1111111101011100
1111101001011101
1111101101110010
1111111100100000
101111100
1000110
11100
1111111111001100
11100100
110111111
11111011
1111111111111000
1111111110100011
101011
11010
1111111110010011
1111111101100001
1111111100010011
111110
1111111101100011
1111111101011110
1111111101011110
1111110010011000
1011111
1111110110101010
1111111010001011
1000100
101000111
1111110111000010
1111100110011100
1111110001011011
1111111110000001
1111111011001000
1111111000010110
1111110110000001
11110000
11111011
10110000
1111111100001110
1111111100011000
1111111111110110
1100111
100001101
10100001
1111111011101100
100000010
1111011
1111111010101100
110101
1111111001010110
1111111100100000
110111111
1111110111111000
101110001
1111111110111011
1111111001000100
1111100011110010
1111101011100010
1111110111101011
110010011
1111101111111110
1111110111000010
1111111110101000
1111111111001001
1111111000011010
1111111101111011
1111111101100000
1111111110011000
1111111110101101
1000101
10001
1111111011010101
1111111110100001
1100000
110110110
1111111110111010
1111111010010000
1111111000110111
1000110011
1010011111
1111111110111110
110110001
1111101011010110
1111101011011010
1111100110110010
1111110100110001
1111111111111100
1111101110011100
1111111110011110
1111110110001000
1111111100111110
1111111111111101
1111111100101110
100011011
101001001
1111111011110001
1111111110011010
1111011
1111111110111110
1111111110011001
1111111111001110
10011
1111111111100001
1010000000
101111010
1111111100100000
11011100
1000101011
1100100001
111110111
1111110010010011
1111101001000110
1000001
1111111111001001
1111111110110011
110100100
1111111101100111
1111110011000010
1111111110000111
111101100
1111111100000010
10000111
1101111001
11001111
111000
1000101
1111111101111110
1111111100111111
1111111111010100
1111111011100111
1111110110001100
110000
1100111101
1111111110111010
100110001
11100111
1111111001100111
110100100
1111111101111100
11001001
1010110
1111111100111100
100100111
1011011100
110101101
1111111011101111
101100011
101111010
1101
11100111
101001111
111
1111111111111011
1111111101000011
11000
1111111111111010
1111111011100101
1111111111000111
1111111101011111
1011100
10000100001
100011101
1111111011010111
1010000001
111001111
101111111
11000100
110100100
1111111001000110
10010001
111011011
10110111
11010010
1011110000
1100011000
1000101100
1111111111111011
10010100
1111111110001111
1001011
1001001
1111111111011010
1111111111000100
1111111101011111
1110100
100100000
110101011
1101100001
111011001
111010010
111110000
1111101001
1000101110
1111111000111000
1111110100110100
111011
100011110
1000001000
1111111010100011
1111111100010111
100011111
10100101
1001110011
10110010
1111111001000111
1111111111010011
1000101
1111001
10111111
1000000
1101
1111111101111101
1001110
10000
111110010
10010001010
1111011100
1101110111
1111001101
1101111011
11101101
1011111001
100110001
110100111
1010000010
1111111100011011
1111110101100111
1111111101101111
1111110101100010
1111111100100101
1000000011
100010010
100000
1111111111001111
1111111111000111
110111
1111111101110110
1111111110001110
10110100
1111111110010110
1111111110100011
1000001
1111111100111010
10010111
1101011100
11001001
1010111111
100010011
1011111011
10011010110
10010010010
1011100101
10011001010
100100000
11011
1111110011111001
1111111000100010
1111110101100111
1100101
1110111
10000110
10111
1111111101010110
1111111111110110
1111111110001111
1100111
10010010
100011
1111111111000111
1011101
1111111010001000
111
11010011
11110100
1111111110010010
1111110111110101
1111110101110001
10111010
1100010100
10000011001
1100101010
1111111001010110
10010
1111111101000100
1111110101111110
1111110110100001
1111111100000100
1111111110010111
1011011
1111111110000110
1111111101010011
10101010
1111111101101001
10001110
10010110
10010000
10101011
1011010
10010010
1100000
1111111110101010
1111111111101101
1111111111010010
1111110101001101
1111111110001011
10110011
1111110111101100
1111101110101010
1111101101010100
1111111101010010
11000
11001111
1001111
1111111010111100
101000
10101011
1111111111110001
11110111
1111111101101101
1111111110010011
10011111
1111111111001000
1111111110001000
1111010
1111111111011001
110010
1000100
1111111111010010
1111111110010111
1111111101010001
0
101001011
1010000000
100111110
10000
1111111111010000
1111111111100101
11011100
1111111100100001
11011011
110101100
10111101
10000100
11000001
1111111110111000
10110011
1111111110001110
1111111100110011
1111111111110110
1110010
1001100
1111111111100101
1000110
1111111100110001
11001001
1110000
11101110
1111111101010101
1100101
11101100
11100101
1111111111010011
10100000
11111100
1111111110011111
1111111011101011
10011001
1111111101001110
100011011
110011
0
1111111110010001
1010001
100100
1100001
11000010
1111111111110010
