1111111111001000
101000
1111111111111000
1111111101010001
1111111101110001
1111111111101110
1111111101101111
1111111101010011
1111111111100010
1111111110110000
1111111110011101
1111111111000110
11001101
101
1111111011101001
1111111111101111
1001010
1111111111110010
10001
10110110
1111111111101000
101010
1111111100000101
1111111111001000
110100
1111111111011110
1111111100011111
10100000
1111111101110111
1111100
1101110
1111111100111101
11
1111111111010010
10100011
1111111111001011
100000
1101001
10000010
1001001
1111111111001100
10101
1111111110010101
1111111
1010101
1100001
1111111110011110
11101110
1110001
1111111110101011
1111111110101001
1101000
11011100
11
1111111100110101
1111111101001001
1101011
1111010
1111
1111111111100011
1111111110101010
1111111101111000
110001
1011000
101111
100001101
11110110
11111011
101001110
11001100
1111110
1001101
11100011
10011
10101
110011
1111111110111110
1011110
1111111110111010
1010111
1111111111001111
1111111111100100
10100100
1111111110101110
10100111
1011000
1111111111111001
1110101
111001
1111111110101111
1111111111001100
1111111110101111
11100100
1001110011
110001110
110000111
111111011
1101100011
110100110
100110
100101
100011000
1011111
100110101
1111111110100100
11010011
1111111111010110
0
1111111110011101
1001110
1111111111011010
1111111110111001
1111111110110100
1
101000
10101
1111111110110000
1111111111001000
101111
100100011
10110000
1011101001
1000100000
11011
111
110100101
1001010000
1001111000
101010101
1100011100
101001000
1000100
1111111110111100
1111111100100001
1111111111010100
1000110
1
1111111110000100
1111111101100110
10100
1111111101011001
1111111111001000
1111111111100001
1111111111110001
10100001
1111111010101010
1111111101101011
1111111110110001
1111111010101001
1111111010100011
1111111101011001
100011
1000001100
110011001
1111110111100010
1111110011101010
1111111011001111
1111111110101000
1100101100
110111110
10101010
11111011
101110010
1110000
10001100
10101111
1111111101011000
1111111101101000
101111
1111111111010011
10101101
10001110
1111111111011110
1111111010111000
1111111011100010
100100
1111111011010011
1111110101000010
1111111010000101
1111110111000000
1111111000011011
110101
110000
11111111
10010111
1111111110110001
10001111
11111
10010111
1111111101001101
1100010
11100011
1000011100
100010100
101111010
10000000
1111111101110001
1111111111110111
1101
1111111001111100
1111111011001000
1111111010101111
1111110110111001
10011010
1111111110001000
1111111101110111
1111111100001100
1100000011
10100001
11110010
1100010111
10101010101
101010100
1111111100000000
1000101
1111110111010000
1111111111011110
1111110111111000
1111110010011101
1111111001101011
111100101
1101010110
1111001
1111111111111100
1111111101010010
1111111101011111
1111111111010100
1111111101100001
11110000
1111111110001011
1111110110000010
1111101111000001
1111100100110000
1111110101111100
1111110101010000
1111111001010011
1111111111100011
1001011110
10011111
1111111000100000
11010000
1111110001011110
1111101111010111
1111111101011000
1111110111000011
10110101
1111110010111101
1111110011000100
10011000
1011100111
111110100
1111111110111110
1111111101101110
1111111110001010
1111111111101100
1111111101011100
1111111101001110
1111111000100110
1111111001000110
1111110110001101
111110
1111110110001001
1111110110010111
110111001
1101011
11101100
1111110101000111
1111111101011110
1111110111101110
1111101101000001
1111111100011111
1111111110010100
1111110011100011
1010010
1111111010100110
1111111001001001
11001
1010010101
110101011
1001101
10001000
1111111111001001
1111111111001001
1111111101011100
10001110
1111111110111110
1100011
110101010
1001110110
100011010
1111111111101000
1111111010110011
101101110
110000110
1110101011
111111
1111110111010101
1111101001011100
1111111001110001
1111111111101100
1111110110110101
1111110111000011
111000100
1111111011100101
100001111
1001010100
11000010
1101110
101
1111111101101101
1111111101010000
10001100
111000011
1111111111111110
100101101
1011101
1010110010
1111111010000110
1111101111100101
1111101100100001
1111111111000110
10111100000
100011100001
1000010110
1111110110011010
1111101110100100
1111111001010000
1111111101111000
1111110101101100
1111111101010010
101010101
1111111011101000
1111010
110101111
110100
1111111111111110
11101
1111111101100101
1111111101111001
11111011
1010010001
110100101
101111101
1001100
1111111010010010
1111111110100010
1111111010100101
1111111000011101
1101110101
101100001101
100101101010
101011010
1111111011011000
111000011
11000011
110110110
11111001
111001001
1011110111
1001010001
10001110
1111111011010000
11110011
1111111100111000
1001011
1100
1111111011111111
1111110
100010000
11011110
1111111011010100
100010011
1111111110001011
110000000
1111110110110111
1111110111110110
100100010001
110110001001
100001010011
1000011100
1111111110011000
11100100
1110010010
1110010011
111110010
1011100100
101110001
1111110010
1000110011
11
1111111111010011
1001100
1111111110110100
11100001
1111111100110011
110101010
1000110110
101101111
1111110111100010
1111111101001001
1111111010010110
10101100
1111111100111011
10000001101
101010010000
110111100000
11011111011
1010100111
1000100101
1000001111
1000000111
1111111100101110
1111111000
10000010001
1011011111
110111000
1011101100
11011100
1111111111010101
1111010
100
1000010
1111111111111111
100101
1010100010
10010110000
1000101
1111010
111111101
10011001101
10001010010
101111010011
111011111001
110001111110
10100100010
1111110111110101
11001110
1111111011011011
1111111111110110
110110010
1101110001
1100101000
1101100111
1001101110
10100100
10011110
1111111111111111
1111111111110111
1111111101101110
1111111111000100
1111111110111110
10101000
1100100110
10011100001
10000100101
1100110100
10110111100
11101010000
100010010001
101010001101
11010111000
11011110110
10010
1111110010011110
1111111001010110
1111111110001000
101010100
110100100
1000011100
1011011001
1010001100
1001100000
1111111110111110
101000010
1111111111100111
1010101
101010
1111111110101100
1001
100100111
10000111011
10111111111
11001011001
11000111111
10111111011
11000011101
1110100110
1110100000
10110110011
101011011
1111110100111110
1111110100011110
1111111000010011
1111111000111011
1111110110101010
1010100100
1001011000
111100001
1111111111011100
1111111110001111
11100110
1111111111100001
1111111111010101
0
10011111
1111111111000011
1111111110100111
11101000
1110011110
10010001110
1111111001
1111011111
1000001100
1010000011
101101011
1000101111
100001011
1111111011110100
1111111100000000
100010010
10000010
1111110110100111
1111100110100110
1111111001110100
1111110111011010
1000101100
111101101
1110010000
110000111
1010
1111111011111010
1111111111001101
1111111111110010
10011100
11100
110110010
111000
10011101000
10011100100
101010000
100101010
1111111110110011
1111111100010111
1111110110110110
1111111100000100
11100111
1111110111100001
1111111010001110
1111110110000111
1111110110001001
1111111011010000
1111111111110110
1111111100010101
1000010010
1111110
11101011
111100
1111111011111010
1111111101111011
1110010
1111111111111011
101111
1111111111000101
1111111101100001
110110001
11001010111
1101111011
1000010001
10111100
1111111011111011
1111110010110111
1111101100001000
1111111011110100
1111111010010011
1111110111000110
1111110100101111
1111111001101010
1111111011110000
110001100
1111111011010111
1111111001000011
1111101
11000001
101111
1111111111011101
1000000
11000000
1111111111010111
10010000
1111111101000000
1111111111011110
1111111011101111
110100
1100111111
1100101011
1111100011
110001000
1111111000111110
1111110001111010
10010000
1111111101100101
1111111100100111
1111111100011001
1111110110100001
1111110110000100
1111111100000100
1111111110110111
1111110100000110
1111110101001000
1111111010010111
110101
110100
1111111111111000
1111111010000000
11001011
10010011
1111111111110000
10001
1111111110110010
1111111111101100
1111111000110000
1111111111101011
110100000
1111111100100111
1111110001011111
1111101110011101
1111111010100001
11010100
1111111101011111
10011101
1111111011111110
1111110101101111
10011100111
1111111101101100
1111111100010100
1111111010011011
10101110
101100001
10111001
1111111100101101
1111111011111110
1111111110111011
100110
1111111110011110
1100101
111011
11111100
11011000
11110010
10101110
1111111111001110
1111110110100011
1111111011000011
1111101111101001
1111111010100100
1111011101
10010010000
1001111001
1000010111
1111111110011100
1000100011
101100100
100000110
111000
110001111
111100011
100111101
10010001
1001010
1111111111010011
101010
1111
101001
1111111111100000
100101
100100101
111111
1111111101010110
1111110010101100
1111111100011111
1111110100111000
1111111100010000
1111111101001010
1111111000111111
110001101
111001110
10100110110
110010101
1100011101
100000110
101010111
10110010
1111111101111010
10101110
101110100
1011001
1111111011011111
10001101
110101
1001011
1101010
1111111110111110
1111111110001000
1111111101000001
0
1111111101110000
1111111011111111
1111111100101001
100010
1111111000111000
1111111110101101
1111101110100010
1111101100111011
11101
1111111001110100
1111110110000111
1111111100100110
1111111011100111
1111110100011100
1111110110010011
1111111101111010
1111111010110110
1111111110100000
1101010
1111111110010010
1100111
1111111110010111
1000000
111000
1111111110011110
110001
1101
101000110
1111111101011110
1111111111011100
1111111010100000
1111111100101100
1111111000001000
1111111100001111
1111111100100001
1111111110110100
10001101
1111111101101101
1111111101001111
1010000
111100
1111111011010100
1111111000010010
1001001
1111111110101001
1111111111011110
101001
1111111111101111
1111111111100010
1111111111101001
1111111110110010
1111111111011101
100001
11011100
1111111111000110
1100111
1111111111011010
1111111110001110
1111111111011011
1111111111010101
110110
1111111110010110
1111111111110101
1010000
101010011
1111111110100110
10000000
1001111
1111111101001001
10100101
1101010
1010111
1100110
1111111110010100
100110
10101
1111111111100101
101000
111110
