1111111110010000
10111001
1111111101111000
11110111
1111111101010010
110010
1111111110101011
11000
10001011
1000011
1111111111110011
111000
10011
1111111111101000
1111111100100100
11111100
100100
1111111111000110
11010110
1111111110001011
1111111111010100
1111111101001010
1111111110101110
1111111110111110
1111111110101110
1111111
1101
1111111111111001
1011010
1111111101100111
1111111111101111
1111111101111011
0
1111111111011011
1111111111110111
1111111111100111
1111111011110100
1111111110111101
1111111101011111
1010010
11001110
1111111110100010
101001
1111111100110100
1111111110000001
1111111110101011
10100101
1111111110101001
100
1111111111111111
1111111111110000
1111111111011100
101101
1111111111010100
1011
1111111100001101
1111111101110101
10000011
1111111111110001
11101
111110
1111111100111010
1000110
1001
10100110
1111111100000111
110001101
1111111111111100
1101110
111011
10001
1001110
10110011
101
1111111100010010
1111111
100111
1100
1111111110111101
1111111101011001
1111110
10110
1111111111000101
1111111110101010
110000
1000001
1111010
1111111111011001
1001001
1111111111101000
1111111101101010
1111111111100011
1001101
1111111111000101
11110101
101000101
110001010
1010110110
10010110
11101100
11101110
1111111101011000
1111110000101001
1111110110101110
111011
110111100
100111
10001010
1000110
1111111110010011
101000
1111101
10100011
110101
1000010
1000
1111111110000010
1111111111010100
10101110
11111011
101101101
1010001110
1010111101
100010100
1001110001
1001111000
1110111110
1101111101
100011
1111111010001111
1111101100001000
1111101000110001
1111101111010110
1111111011000011
1111110011000101
1111111110001101
11000101
1111111111010100
11001
1111110
1111111111101100
1001100
1111111101000011
100
1111111111010000
1000011
111001010
1000001011
1000001110
1001001000
10011111010
1100110100
1100011011
1110111010
10100001100
10110110000
10001101101
100100111
10001000
111101101
1111111110011101
1111111000110000
1111111011001110
1001
10010110
1011111
1101000
1010010
11111011
1111111100110000
1111111011111101
1111111110000010
10000101
110111101
1110001110
1111110011
1110011001
1011110001
11010011011
111000011
10100110
1111010001
10011010011
11100111001
10000010100
111110110
100000010
1111111100111111
1111110001110001
1111111001010100
1111111000100100
1111111110011101
110111111
111111001
10001011
11100010
1000
1111111101111100
1111111110100010
10111
110010
101001111
111010
111000100
111100101
10100110000
1110111000
10101110101
1101110011
1011110111
11000110111
101001010001
111100010
1000100
1111111110100000
1111111101010110
1111110011110000
1111110100111010
1111110101110110
1111101011111000
101010110
1100110010
100011
1111111011111000
1111111111011011
1001011
11001
10011
1111111100000100
1010100
1111111100101001
1111111001010001
1111111101111111
11111110
1101111100
1010001010
110101001
11100101101
100111000101
11010011001
1111111010011011
1111110010001000
1111101101110111
111000
1111111110101100
1111111001010111
1111110011100010
1111101110110010
1011100101
1111001101
10100100
1111111111001111
1111111010111110
1110101
10111100
1111111101010111
1111111001110001
1111110110001011
1111101101100100
1111111011110111
111110
1111111100111010
1000110100
1001000101
1101110111
11000100111
10011000010
1111111100001110
1111101110100000
1111110001001101
1111111101010100
100110110
1111110101001100
1111111010111100
1111111111000111
1111111011011101
101010100
1011111100
1000001110
1111111111000011
1001110
1111111101000101
1111111101001110
1111111001010000
1111110111010100
1111110000010101
1111101110001101
1111111011000010
1111111100000000
1111111010100101
1111110111110101
100000011
1111111010011110
1101001
1111111010010001
1111110000111001
1111101100111001
1111101110101000
1111111011001011
1111110110011000
1111110000110010
1111110010110010
1111111010110000
10111110
1101001101
10001111110
111011010
1111111100100101
1010011
1111111100011101
1111111001110110
1111110110001011
1111110011011011
1111110010011000
1111111000010111
1111111000101011
100100110
1111110011000010
1111101110001001
1111111001001010
1111110100101010
1111111101001000
1111110101000110
1111110100001011
110001001
111100010
1111101100101111
1111100100001100
1111100111101111
1111110000110110
100
10000011
1100001010
1011000100
10101100
1111111101110001
100001
1111111100101111
1111111000101110
1111111110000000
1111111010001101
1111111010101001
110011
1111110110000011
1111101100000011
1111101110001011
101111
1111111000010000
10001011010
10000000110
1111111100100111
100111111
100011101
1111111001101100
1111110001110111
1111110111000010
1111110010111011
1111111110111000
110010001
1111001011
1001101110
100111001
1111111110100100
1111111111110011
1000001
10000101
1111111010000111
11000011
1111111011000111
1111111010100000
1111110110100100
1111111101011100
1111111010111110
11000010
1111111000010101
100101011
100111010011
1110100100
101011110
111110101
1101110101
1111110111010000
1111111001001000
1111111101101111
1111110010001111
1111110100111010
1111111111001011
1101110111
1100101
100001000
11001
1111111111101110
1111111110110110
1111101
1111111101100000
1111111100110001
1001100101
1101010
1111110101010101
1111111111001111
10001000
11100111
1101001
11010010000
11000011000
1010111
1111110001110010
1110100111
1110011101
1000111001
1111111110111101
1111111000110110
10010011
11101010
11110010
11011
11100
1111111110000111
11101010
1111111110101111
101110
1111111110011100
111010
100010111
1000101100
1110100010
111111011
1111111000000101
1111110101011111
100010100
10010001111
11001111001
10010111000
1111111011111010
1000101010
1100011011
1110001010
1100111001
1111111110111100
1111110010000111
1111110011111101
1001100
10
100110111
101010010
111
10001
1111111101100101
11000010
1111111111011010
10110011
101011000
1001100
1010011100
10100100
1111111000111010
1010001111
10101100101
11000011010
10101000101
1001101110
101100110
1011001111
11000011
1010010011
111100001
1111111110110000
1111110101101101
1111111010101000
1111111110010111
111111101
1110100001
1010100111
11010011
1111111110100111
1111111110110010
110010
100110
110001
11100001
1111111110110000
1000011000
1011000011
101001011
1010000001
11001011100
1111111100100101
1111110101000110
10010110
1001011001
1110000100
10010001
1111111101
1110001001
1000
10000100110
1111111110010001
1111111000111101
1111111111001000
1000010010
11011001
110011
1011110
1100111
10000010
1111111110010111
1111111110001111
10110111
1011000
1010011010
1100010111
110010101
100100110
1111111111111010
1111111100010000
1111110101001101
1111111001011000
1011100001
10110000010
1111111111100000
10010100010
1111111101111110
1000010011
10000001111
100100111
10010011
1011000111
1111101000
100110001
100110
10001011
1111111110100101
1111111111010001
11000111
10011
1111111111001010
1111111110011101
1011001011
10011110111
1011001001
1111111100001010
1111110111110011
1111111110110101
1111111110110111
1111111100010011
10000100110
10000000011
11000100000
1001110110
11011101
1100110000
101100111
1100100001
10001000000
1110000011
1011001110
1100001
1111001
1111111101010010
1110
1111111110001101
1111111110100110
10110101
1001001
11000
10000001010
1011001111
1000100000
1111111100100110
100011011
1111111110101000
1111110110001100
1111110111000111
1000101110
1110010000
11000000101
1011101010
101110000
10011010
1110100111
10001000101
10011001110
1011100010
1000100010
101111010
111110
1111111110010001
100000
100000010
1111111101111110
10010100
10110001
100110101
101010000
110111111
1110111010
1001111111
1111
1111101010100001
1111111011111110
1111110100110001
1000001
1101011001
1111011111
1010101111
11000110
100101
1011110111
111110110
111100010
1111000000
110110110
10010001
1111111111100101
10000111
10
110101
10000101
1110011
100011101
1111111110001100
1111110010010000
111011
10001111
1111110110001001
1111111000011001
1111111100100000
1111111100110010
1111110111010100
1000101111
1110001
111110110
110100000
1111111001000010
100110011
101110101
1101101000
1001110101
1011111001
100011100
1000111
1111111101111001
1111111110100010
1111111110100000
1111111011100001
100100
1101000
101110000
1111111111011010
1111110010010101
1111111000111011
1111111101010111
101101001
101100
1111111011011010
101010010
1111110110001000
110110111
1001101010
1000000101
101110
1111110011110101
101010
111000100
1101001000
110110010
11110111
100011010
1001000
1111111111001101
101010
1111111110110000
1001111
1110000
1011
110110
1111111110111101
1111111001001100
1111110011010010
1111111110100100
101101000
1100101
100011011
110110100
1111111101111000
10111011
110010110
101101011
1000000110
1111111001010100
1100100010
111101100
11001000
1111111111100000
110011
10001000
1111111101111000
1111111110010110
1111111101010111
1111111101111110
100101110
1111111111010111
11110001
1111111101001010
1111111010010110
1111110111101010
1111110101000010
1111111011000011
1111111011100111
100000
1111111110111111
1111111101110110
1111101000100100
1111101011011011
1111101010011101
1111110000111111
1111110111010001
1111111101011000
11000001
10001111
1111111100110110
1111111011101111
1111111010100111
10001110
1111111110011111
1111111101001001
1101100
10000
1111111101011001
1111111110000101
1111111011000011
1000010
1010110
1011010
11010000
1111111101101000
1111111010111110
1111110111100110
101001
1111111111000100
1111110111100000
1111110001010010
1111110011101110
1111111000011000
1111110110010010
1111111010001000
1111111101000110
1111111111011110
1111111101101001
1111111010001010
1111111111101000
1111111110100011
1111111100010000
100011
1111111111010111
10000011
1111111111110001
11
10011001
1110001
10011011
1111111111100110
1111111110011001
1111111100001110
1111111111011101
1111111110110111
1111111101000101
1111111110101111
10001111
1111111011100110
1111111100111111
101000010
1111111111010101
1111111011101111
1010011
1111111101000111
101101
1111111010110001
1111111110101010
1111111101100000
1111111100100011
1111111110000111
1000010
1111111011100100
