1100010000
1111101010111010
1110110110101100
1000100100100
110111100000
101110111110
100101110110
10001000111
1111101001110100
111111101001
1011101001100
1111100011100000
11110111000
101011101100
111100000100
10100100010
1111001101010110
1111010011111010
1110100100001000
1111111011010011
1111101010011011
1111110101111011
101000101001
1111100101
11100110011
1111110101011001
10100100000
110110001110
100011011111
1111100010100000
