11011101101
100110100000
1111100111
1111010000011001
1111101101001000
1000110110101
11111001011
1011100110
11000010111
100111110100
1011000000
1110110111101100
110010101011
11010110010
1110110001000110
1111110001011111
1111001101110101
1111011011110100
1111111111100100
10110000101
1000011001
1110111110111111
1111001001010001
101001100
101011000
11000100010
101011101101
1100010111
11011100000
1111101000010010
