11000110101
1111011010011001
1110111100110101
1110000011
1001011111011
1110101100111111
1100111
1111101101011001
1111010110110100
10101010101
1111010000010111
1111001011010000
1111111000100111
111000111000
1000001111
1111000010001100
10111011111
1001111100101
1111100011110011
111111
1110101111001110
11111110010
100110000100
1111110001001000
100111110010
1111001111
1111011000010010
1111011001101111
110101001010
11101001100
