1111111111101001
11110011101
111001011011
1110110101011010
1110110001010010
1110011011000100
1100010011
1111110100000000
1000001110000
1110111001100101
1110111010101110
1011011011111
1111000100011001
1111110100010101
1110100010011011
1111101101010011
1111100010111010
1100100111000
1011101010111
1000100011
1111110011001011
11100101010
1111111111101100
1111110111001010
1111111111110001
11001100100
1111101110001100
1111110100011100
1111000010011000
100010111000
