1111110010010111
1111110010111001
1111100001010000
1011111100
110110001011
1111100101011110
1101010111
1111111110001101
1111101010101000
1001100011
10001000
1111010110010000
11110100
1001000001110
10000100101
1111011000010101
11101001101
111010000011
1111010111100100
1111101110011100
1110101011011110
1110010010
10010101101
11000111101
1111110110101011
1011100000
1111010101110100
1001001011
1010010100000
1000101
