1110111110001110
1010001111111
1010100011
1111010000110111
1111110011011111
1111111011001010
1111111101010010
100001000101
1001110111
1111100100110010
1010011010011
11011100
1111100101100101
1111100010001100
1111110110010001
1001010111001
1100101101
11110001011
10001100011
1111011001100101
1111111010001110
1111110000010010
1111100001110101
101100111001
1110011100101001
1110110000011100
10000001011101
1001101010110
1111010110011010
1111111110010010
