11110001011
1111111110111100
1110110001
1111011101110100
1111110000110110
1111111000001011
10010000111
1111111010110111
11000100
11110000011
1110110101000000
1111001110010010
11001101001
100000010110
1110101101101001
1111010011011110
1111010011000101
1111101010011100
1111010010
1111111001000111
1111110101001010
1111010100111000
1110101110111011
1111100110101100
1101001010
1010101011
1111100101001011
1110110110000101
10110100011
1111011101001100
