101111101110
1111111101010110
1100001111
1000011000011
1001100001100
10101110000
1010100010
110000110000
1110010001011101
1111111101100001
100011010010
1111100000110001
100001010111
1111101111100011
1111010001100100
1011010110
1110011001110101
1111010111011110
1111011110101011
1101100111000001
1001111110
1111001101000011
1101011111
101111011
100110010000
10011101010000
1001101011100
1011000000111
1111001100110101
1111101011111001
