1110001111001010
1111001100101000
1110111001001001
1110111101101010
10000101111
110010111011
1010000000100
1011110010001011
1111101000100111
11101010110
111010100101
110010111110
1111110111110001
1011100011010
1100001111
111000010101
1111011111101010
1111111001000100
11110111111
10000111010010
10110110001
1010001001010
1111101000110110
1111111001101101
1100010111101111
1111001111111011
1110010110111101
111110010111
1111101101011011
1111011001001110
