1111010010110101
1111001010110110
10011010100
1010111000011
1100010110101111
1111110010100011
10000000010
1111011101100100
1110111100000100
1111110001110001
1111110000111011
11001001101110
11000101011
11010001
1111001100101110
1010100110001
101010111001
1101011011
1001111100001
1111001000101010
1111011101
101001101011
11001011101
1110100110101010
1111000011000000
101100011100
100
1110111000110110
100000001
1101110011100001
