0
0
0
0
0
0
0
0
0
0
0
0
0
0
0
0
0
0
0
0
0
0
0
0
0
0
0
0
0
0
0
0
0
0
0
0
0
0
0
0
0
0
0
0
0
0
0
0
0
0
0
0
0
0
0
0
0
0
0
0
0
0
0
0
0
0
0
0
0
0
0
1
1
11111111
11111111
11111111
0
11111111
0
0
0
0
0
0
0
0
0
0
0
0
0
0
0
0
11
10
11
1
11111110
11111111
0
11111110
11111100
11111101
11111110
11111110
0
0
0
0
0
0
0
0
0
0
0
100
11
0
100
0
111
10
100
111
11111100
0
11111111
11111100
11111100
11111001
11111011
11111101
11111100
11111110
0
0
0
0
0
0
0
1
100
1001
110
100
1
1
1
0
11
100
1
1001
0
11111111
11111100
11111010
11110111
11111010
11111010
11111100
11111111
0
0
0
0
0
0
1
100
101
1001
11111111
11111101
11
10
10
11111111
1000
11
11111100
0
0
0
11111011
11111100
11111100
11111000
11111010
11111110
0
0
0
0
0
0
11
110
100
101
11111101
11111100
11111110
1
1
101
110
11
11111110
11
0
11111011
11111111
11111001
11111000
11110111
11111000
11111100
11111111
0
0
0
0
0
10
101
100
0
11111111
11111110
0
110
11111101
11111110
10
10
1001
101
11
11111011
11111111
11110110
11110101
11111010
11111010
11111011
11111111
0
0
0
0
0
1
11
11
0
11111101
11110111
11111101
11111000
11111100
1
1
1111
10100
1000
110
11111101
11111001
11110010
11110110
11111001
11111011
11111100
11111111
0
0
0
0
0
0
11111110
11111100
11111001
11110111
11110010
11110111
11111101
11111010
11111111
1101
10010
1100
1010
11111111
11110111
11111000
11110111
11111001
11111100
11111111
11111101
0
0
0
0
0
0
0
11111111
11111011
11111000
11111001
11111110
11111100
11111111
11
1000
11111111
1011
11
11111010
11110101
11110101
11110101
11111011
11111101
11111110
11111111
11111100
0
0
0
0
0
0
0
11111111
11111100
11111010
11111101
11111101
0
100
100
111
11
1001
0
11111011
11110111
11111000
11111100
11111010
11111110
0
11111111
11111111
0
0
0
0
0
0
0
0
11111101
0
0
11111101
1
101
0
0
11
11
0
100
11111111
11111101
11111110
10
10
1
0
0
0
0
0
0
0
0
0
0
11111111
0
0
11111111
0
11111011
11111100
0
11111110
0
0
11111110
11111100
11111000
1
0
110
10
0
1
0
0
0
0
0
0
0
0
0
1
0
1
10
11111111
0
0
1
1
11111111
0
0
11111100
1
11111101
1
0
1
1
0
0
0
0
0
0
0
0
11111101
0
10
1
11
11111110
11111111
11110111
11111100
10
11111000
0
11111001
100
0
10
0
0
0
1
0
0
0
0
0
0
0
0
11111110
11111011
11111100
11111110
0
11111011
11111100
11111011
0
1
11111001
11111011
11111111
1
11
0
101
100
11
0
1
0
0
0
0
0
1
10
0
11111100
11111001
1
11111111
11111011
0
0
10
11111011
11111001
11111101
11111111
10
11
10
1000
111
11
0
0
0
0
0
0
11111101
11111111
0
11111111
11111101
11111110
11111101
0
11111110
11111111
10
1
11111110
1
11111111
0
1001
101
0
11
10
10
0
0
0
0
0
0
11111101
11111111
11111110
11111011
0
1
0
100
0
11111110
10
11111111
11111111
11111111
11111101
0
1
11111011
10
0
0
11111111
0
0
0
0
0
0
0
0
0
11111010
0
11111111
11111111
11111011
0
11111110
10
11111010
11111101
1
0
11111000
11111110
10
0
11111101
11111100
11111110
0
0
0
0
0
0
0
1
11
0
1
100
11111111
11111111
11111110
11111110
11111011
11111111
11111100
0
11111110
11111001
1
11111101
1
11111100
11111011
11111111
0
0
0
0
0
0
0
0
1
0
11111110
10
0
10
10
1001
101
11
11111001
11111101
11111111
1
11111101
11111011
11111111
11111100
11111101
11111111
0
0
0
0
0
0
0
0
1
1
0
1
0
0
11111111
11111101
11111101
1
1
11111111
0
10
11111101
0
11111100
0
11111111
0
0
0
0
0
0
0
0
0
1
10
10
10
0
0
0
11111110
0
0
11111111
11111110
0
0
0
0
0
0
0
0
0
0
0
0
0
0
0
0
0
0
0
0
0
0
0
0
0
0
0
11111111
11111111
0
0
0
0
0
0
0
0
0
0
0
0
0
0
0
0
0
0
0
0
0
0
0
0
0
0
0
0
0
0
0
0
0
0
0
0
0
0
0
