0
0
0
0
0
0
0
0
0
0
0
0
0
0
0
0
0
0
0
0
0
0
0
0
0
0
0
0
0
0
0
0
0
0
0
0
0
0
0
0
0
0
0
0
0
0
0
0
0
0
0
0
0
0
0
0
0
0
0
0
0
0
0
0
0
0
0
1
0
0
0
0
1
1
0
0
0
0
0
0
0
0
0
0
0
0
0
0
0
0
0
0
1
0
0
0
10
11
101
1000
100
1
10
11
10
0
0
0
0
0
0
0
0
0
0
0
0
0
1
10
1
11111111
0
10
1
1
101
11
10
0
101
10
10
1
0
0
0
0
0
0
0
0
0
0
0
0
1
1
10
11111111
11111101
11111100
11111111
10
10
11111110
110
10
10
10
110
11
11
10
1
0
0
0
0
0
0
0
1
0
10
0
10
10
100
1
1
11
11
101
0
0
11111111
11
1
11
10
10
100
0
1
0
0
0
0
0
0
0
11
0
1
100
0
10
11111110
11111110
0
0
11
11111111
0
1
11111111
1
0
11111111
0
1
1
0
0
0
0
0
0
1
11111110
0
11111100
11111111
11111111
11111111
101
11
11
10
101
0
0
100
0
0
11
1
1
1
0
0
0
0
0
0
1
0
11111110
0
0
1
11111100
11111001
11111111
11111111
100
10
1
11
101
0
11111110
0
1
0
0
10
0
0
0
0
0
0
0
0
11111101
11111110
0
11111111
11111110
11111000
11111100
1
11111011
11111011
11111110
0
0
11111101
11111111
11111101
11111100
11111100
11111111
1
0
0
0
0
0
0
0
0
11111110
11111000
11111011
11111101
11111100
11111100
1
1
11111011
11111100
11111011
11111100
11111101
11111001
11111001
11110101
11110110
11111000
11111011
0
0
0
0
0
0
11111111
11111110
0
11111110
11111101
11111111
11111111
0
0
11
11111111
11111111
11111110
11111101
11111111
0
11111001
11111110
11111000
11110100
11110111
11111101
0
0
0
0
0
0
0
11111100
11111101
11111110
11111101
0
1
100
0
11110111
11111111
0
11111001
11111101
11111110
1
11111110
11111110
11111101
11110110
11111010
11111110
0
0
0
0
0
0
0
11111110
11111101
11111101
11111101
11
110
101
11111111
11111000
11111000
11111101
0
11111110
11111101
11111111
11111100
0
11111111
11111011
11111100
11111111
0
0
0
0
0
0
0
0
0
0
1
100
101
11111111
11111001
11111011
11111100
11111111
100
0
11111100
11111101
11111110
100
0
11111110
11111110
1
0
0
0
0
0
0
0
0
11111111
11111111
11
10
0
11111101
11111000
11111110
1
0
1
11111111
11111101
0
100
10
10
1
0
10
1
0
0
0
0
0
1
0
11111111
0
10
10
11111001
11111100
0
11111110
11111101
11111110
1
11111100
11111011
11111100
0
11111110
10
10
0
11111111
0
0
0
0
0
0
0
1
0
0
11111111
0
11111001
11111101
11111101
11111010
11111000
11111001
0
1
11111110
11111101
11111111
0
11
111
10
11111111
0
0
0
0
0
0
1
10
0
0
11111110
11111101
11111010
11111011
11111110
11111101
0
0
10
0
11
100
1
1010
110
1010
100
0
0
0
0
0
0
0
10
11
0
10
110
10
100
101
1
11
1010
100
111
110
1000
1001
11
1001
101
1000
101
1
0
0
0
0
0
0
10
110
10
0
1000
101
100
111
111
111
110
111
101
101
1000
101
101
111
110
110
101
0
0
0
0
0
0
0
1
101
110
10
111
101
110
100
10
1
0
1
0
0
0
1
110
111
100
100
100
0
0
0
0
0
0
0
1
101
101
100
10
0
11
0
101
11111111
1
11111110
0
10
1
10
11
100
0
11
1
1
0
0
0
0
0
0
1
10
11
1000
111
11
110
0
1
0
11
110
100
1
100
100
0
0
0
0
0
0
0
0
0
0
0
0
0
1
10
110
1001
111
1010
1010
10
10
10
11111110
0
1
10
11
10
11111111
0
1
0
0
0
0
0
0
0
0
0
0
0
0
0
0
0
0
0
0
0
0
1
10
0
0
0
0
0
0
0
0
0
0
0
0
0
0
0
0
0
0
0
0
0
0
0
0
0
0
0
0
0
0
0
0
0
0
0
0
0
0
0
