0
0
0
0
0
0
0
0
0
0
0
0
0
0
0
0
0
0
0
0
0
0
0
0
0
0
0
0
0
0
0
0
0
0
0
0
0
0
0
0
0
0
0
0
0
0
0
0
0
0
0
0
0
0
0
0
0
0
0
0
0
0
0
0
0
0
11111111
0
11111111
11111111
0
11111111
11111111
1
0
0
0
10
1
0
0
0
0
0
0
0
0
0
0
0
0
0
11111110
11111100
11111101
11111100
11111001
11111001
11111010
11111011
11111100
11111010
0
11
10
101
101
11
1
0
0
0
0
0
0
0
0
0
0
11111111
11111110
11111100
11111010
11111101
11111011
11111110
0
0
11111011
11111111
11111100
11111100
11111100
0
10
101
10
0
0
0
0
0
0
0
0
0
1
0
11111101
11111100
11111101
11111100
11111100
0
1
11111110
11111100
0
0
0
11111111
11111111
11111111
0
10
11
0
0
0
0
0
0
0
0
1
0
11111111
11111100
11111100
11111011
11111110
11110111
11111010
11111011
0
0
11111101
10
11111110
0
11111111
11111111
1
10
0
0
0
0
0
0
0
0
0
0
11111100
10
11111111
11111010
11111011
11110111
11111010
0
0
0
0
11111100
11111110
0
0
0
11
10
0
0
0
0
0
0
0
1
100
1
11111111
11111111
11111101
11111011
1
11
1
11111100
11111100
11111101
11111111
11
0
10
11111111
0
110
10
0
0
0
0
0
0
0
0
101
10
11
0
100
111
1100
10001
1101
110
10
11111101
11111101
10
1
1
11111001
11111111
110
1
0
0
0
0
0
1
11
10
111
1010
1101
10001
10111
11011
11011
10101
1000
110
10
0
0
11
11111111
0
11111101
0
10
11111111
0
0
0
0
10
10
101
1000
1100
10000
10011
11001
10011
1001
1
11111111
1
0
10
11111101
0
11111111
11111110
10
1
0
0
11111111
0
0
0
0
1
10
1000
1100
1101
1011
111
1001
11111000
11111001
11111101
0
11111111
11111110
11111100
11
11111111
0
0
11
10
0
0
11111110
0
0
0
0
0
1
110
101
100
0
11111011
0
11111010
0
10
11111111
11111110
11
11111111
10
11111111
1
11
10
0
1
0
0
0
0
0
0
0
0
0
11111111
11111000
11111000
11111110
11111011
1
10
11111111
11111110
11111100
0
11111111
10
11111110
0
0
0
110
101
1
0
11111111
0
0
0
0
0
11111110
11111011
11111001
11111101
0
0
1
0
101
0
10
11111110
11111110
10
1
11
10
0
110
1
11111110
11111110
11111110
0
0
0
0
11111111
11111100
0
0
0
1
11111010
11111100
10
10
10
11111111
0
10
11111111
0
0
11111111
11111111
10
11111111
11111011
11111101
11111111
0
0
0
0
0
11111111
0
11111110
100
11111111
10
10
11111110
0
10
11111101
0
11
0
11111110
11111111
11
10
1
0
11111110
11111110
11111111
0
0
0
0
0
0
11111100
11111110
0
0
0
11111111
0
11
11111011
0
0
11111100
0
11111111
11111101
1
0
1
10
0
11111111
0
0
0
0
1
11111111
11111101
0
11111110
11111110
10
0
10
100
11
11111110
10
0
11111100
11111110
0
11111110
11111111
11111110
0
11111111
0
11111111
0
0
0
0
1
11111111
11111100
0
0
11
0
11111111
11111011
11111110
1
100
11111100
0
1
100
0
11111111
0
11111111
11111111
0
0
0
0
0
0
0
0
11111111
11111110
0
1
0
0
110
0
100
11
10
1
101
1
11111111
11111011
11111101
0
11111111
11111110
11111100
11111110
0
0
0
0
0
0
0
11111101
11111101
1
0
11111111
101
0
0
11
0
11111110
11111110
11111111
11111111
10
0
10
0
11111111
11111111
0
0
0
0
0
0
0
0
11111111
11111100
0
11111111
0
0
11
11
101
0
0
11
100
10
11111110
0
11
10
0
0
0
0
0
0
0
0
0
0
11111110
11111111
11111111
11111101
11111011
11111011
11111111
10
0
11111101
1
1
11
11111101
11111101
1
1
1
0
1
0
0
0
0
0
0
0
0
11111111
11111111
11111110
11111110
11111101
11111100
11111001
11111001
11111000
11111100
0
0
11111101
0
0
1
0
1
1
0
0
0
0
0
0
0
0
0
0
0
0
0
0
0
0
11111111
0
0
0
0
0
0
0
0
0
0
0
0
0
0
0
0
0
0
0
0
0
0
0
0
0
0
0
0
0
0
0
0
0
0
0
0
0
0
0
0
0
0
0
0
