0
0
0
0
0
0
0
0
0
0
0
0
0
0
0
0
0
0
0
0
0
0
0
0
0
0
0
0
0
0
0
0
0
0
0
0
0
0
0
0
0
0
0
0
0
0
0
0
0
0
0
0
0
0
0
0
0
0
0
0
0
0
0
0
0
0
0
0
0
0
0
1
0
0
0
0
0
0
0
0
0
0
0
0
0
0
0
0
0
0
0
0
1
1
1
1
1
11111111
0
1
11111111
0
10
1
10
1
1
0
0
0
0
0
0
0
0
0
0
0
0
0
1
11
11
1
1
11111111
0
1
11111101
11111101
11111111
11111111
0
1
0
0
0
0
0
0
0
0
0
0
1
1
0
0
11111111
0
0
11111110
11111111
11111010
0
10
11111110
0
101
11
0
0
11111111
11111111
1
0
0
0
0
0
0
0
0
11111111
1
0
11111111
11111111
11111111
11111010
11111011
11111011
11111101
11111110
11111110
0
1
11111111
11
11111111
11111111
1
11
10
0
0
0
0
0
11111111
11111111
10
0
11111110
11
11111100
11111011
11111010
11111011
11111101
0
10
1
101
10
11111110
0
0
0
0
1
1
0
0
0
0
0
11111111
0
10
10
0
11111110
11111100
11111110
11111100
11111100
100
11111110
11111100
11
10
0
11
11111111
11111110
0
0
1
1
0
0
0
0
0
1
1
1
11111111
11111011
0
0
11111101
11111100
1
10
0
11111100
11111111
11111111
11111010
0
11111100
11111111
11111111
11111111
1
10
1
0
0
0
0
1
10
11111111
11111011
11111111
1
11111101
11111100
11111100
11
101
1010
0
0
11111110
11111110
11111100
11111011
11111110
0
11111111
10
11
1
0
0
0
0
0
11
0
11111101
11111110
11
11111101
11111011
11111111
100
1101
1011
11111110
11111100
11111111
11111101
11111111
0
11111111
11111101
11111110
0
1
0
0
0
0
0
0
0
10
0
11111111
11111010
11111001
0
11
1011
10000
110
11111101
11111100
11
1
101
11111111
0
11111110
11111110
11111110
0
0
0
0
0
0
0
1
1
0
0
11111110
11111101
0
110
1100
1000
1
0
11111101
0
1010
101
10
0
0
10
0
0
0
0
0
0
0
0
10
11111111
11111110
11111101
11111010
11111111
10
1010
1000
110
0
1
11111101
0
1
1
0
0
1
0
0
0
0
0
0
0
0
0
0
11111101
11111101
0
0
11
101
1011
1001
1001
101
101
0
11
11
0
0
0
100
1
10
1
0
0
0
0
0
0
11111111
11111100
1
11
0
100
1000
110
11
100
101
110
10
100
1000
11
11
10
100
10
1
0
0
0
0
0
0
1
0
11111101
100
111
111
111
100
100
110
110
110
110
1
110
1
111
100
100
100
11
0
0
0
0
0
0
0
10
0
11111111
11111111
10
1
1
11111111
11
110
110
100
100
101
11
11111110
0
11111111
0
0
10
0
0
0
0
0
0
0
0
0
11111110
11111101
11111110
0
11111111
11111110
11111101
100
111
100
1000
111
1
11111111
11111110
0
0
0
10
0
0
0
0
0
0
0
0
0
11111111
11111111
11111111
11111011
11111111
11111111
11111010
11111101
11111101
10
100
0
10
100
1
101
11
10
1
0
0
0
0
0
0
0
0
0
0
1
101
1
0
11111000
11111110
11111101
11111110
1
11111111
11111100
0
1
0
11111111
0
0
0
11111111
0
0
0
0
0
0
0
1
11111110
0
1
0
11111110
11111011
0
1
11111101
11111111
0
0
11111100
11111010
0
1
11111111
11111111
0
0
0
0
0
0
0
0
1
1
0
11111111
0
0
11111110
0
10
0
0
11111110
0
11111110
11111011
0
11111111
0
11111101
0
0
0
0
0
0
0
0
0
0
0
11111111
0
1
11111101
11111101
0
0
0
11
100
10
0
0
11
10
11111111
11111101
11111111
0
0
0
0
0
0
0
0
0
0
0
1
0
11111100
11111111
100
11111111
0
11
11
110
1
0
10
1
1
11111111
11111111
0
0
0
0
0
0
0
0
0
0
0
0
0
11111110
11111110
0
11111111
11111111
0
0
10
0
0
11111111
11111110
0
11111111
0
0
0
0
0
0
0
0
0
0
0
0
0
0
0
0
0
0
0
0
0
0
0
0
0
0
0
0
0
0
0
0
0
0
