0
0
0
0
0
0
0
0
0
0
0
0
0
0
0
0
0
0
0
0
0
0
0
0
0
0
0
0
0
0
0
0
0
0
0
0
0
0
0
0
0
0
0
1
0
0
0
0
0
0
0
0
0
0
0
0
0
0
0
0
0
0
0
0
0
0
0
0
0
11111111
0
100
10
0
0
0
0
0
0
0
0
0
0
0
0
0
0
0
0
0
0
0
0
11111111
0
0
0
11111111
0
1
11111110
0
11
0
0
0
0
11111111
11111111
1
0
0
0
0
0
0
0
0
0
0
11111111
11111011
11111000
11111010
11111001
11111110
1
10
11111100
11111101
0
1
1
10
1
10
10
11
0
0
0
0
0
0
0
0
1
0
11111110
0
11111101
11111000
11111110
1
101
11111111
11111010
11111101
11111011
11111100
11111101
1
11
10
100
1
0
0
0
0
0
0
0
11111111
0
0
0
1
11111101
11111111
1
11111111
0
0
11111100
11111111
11111101
11111111
1
1
10
0
1
0
1
1
0
0
0
1
0
11111101
11111101
11111111
0
10
11111110
11111100
1
0
10
11111101
0
11111111
11111101
0
0
0
0
10
0
0
1
0
0
0
0
1
11111111
11111111
11111111
0
10
110
11111111
11111100
0
0
10
0
11111111
1
1
11
1
1
1
0
1
10
0
0
0
0
0
0
11111110
0
0
11111111
10
0
0
11111011
11111101
0
11
1
11111111
11111111
11111111
110
10
100
0
11111101
1
10
0
1
0
0
0
0
11111111
11111110
11111100
11111100
10
0
11111111
11111101
11111010
11
1
0
0
11110111
101
110
110
11
11111111
11111111
1
11
1
0
0
0
0
1
0
11111111
11111100
11111111
110
1
0
0
11111001
0
100
11111111
11111111
11111111
100
1
1
10
11111110
1
1
0
0
0
0
0
0
0
11111110
11111100
11111100
0
0
11111110
0
10
11111111
10
101
100
11111111
11111011
11111110
11111010
1
0
0
11111110
0
1
1
0
0
0
0
0
11111110
11111110
0
0
11111100
11111101
11
0
11111100
11111110
100
10
11111010
11111011
11111000
11111101
0
11111111
11111100
11111110
0
0
0
0
0
0
0
0
0
0
11111111
0
11111110
11111101
0
0
0
0
1001
10
11111000
11111001
11111001
11111110
0
11111111
11111110
11111110
11111111
0
0
0
0
0
0
0
0
0
11111111
11111110
1
11111101
11111101
0
110
0
111
100
11111101
0
11111110
11111011
11111111
11111110
11111100
11111101
11111110
11111111
0
0
0
0
0
11111111
11111111
10
0
11111011
11111111
11111011
11111001
11111110
0
0
100
111
0
11111101
11111001
11111010
11111011
11111110
11111100
11111100
11111101
11111111
0
0
0
0
0
11111111
0
1
0
11111110
10
10
11111001
10
11111110
11
111
10
11111011
11111100
11111111
11111101
11111110
0
0
0
0
0
0
0
0
0
0
11111111
11111101
11111110
0
0
10
11111110
11111011
0
11111100
110
100
1
11111010
11111111
11111101
11111011
11111011
11111100
11111011
11111011
11111110
0
0
0
0
0
0
11111110
11111101
11111011
11111110
1
10
0
0
11111111
0
100
110
0
11111100
11111110
11111001
11111001
11111010
11111011
11111101
11111101
0
1
0
0
0
0
0
11111101
11111110
11111100
11111110
0
11111111
0
11111111
11
101
100
110
11111100
11111011
11111110
11111101
11111101
11111110
11111111
0
11111111
0
0
0
0
0
0
0
11111110
11111101
11111100
11111110
0
11111111
1
0
0
1
1
100
11111001
11111001
11111100
11111001
11111010
11111111
0
11111110
11111111
0
0
0
0
0
0
0
0
0
11111110
0
11
101
110
10
1
0
10
11111101
11111101
11111100
11111011
11110110
11111011
11111101
11111111
0
0
0
0
0
0
0
0
0
0
1
1
1
10
1
10
11
10
100
11111101
11111001
11111010
11110110
11111000
11111010
11111011
11111100
11111101
11111111
11111111
0
0
0
0
0
0
0
0
10
101
11
1
10
10
10
10
11111111
11111100
11111111
11111110
11111000
11110111
11111001
11111010
11111100
11111101
11111111
0
0
0
0
0
0
0
0
0
1
10
0
0
10
10
11111101
11111110
11111110
11111101
0
0
11111101
11111010
11111011
11111100
11111111
0
0
0
0
0
0
0
0
0
0
0
0
1
0
10
10
1
0
11111110
0
10
1
1
0
0
0
0
0
0
0
0
0
0
0
0
0
0
0
0
0
0
0
0
0
0
0
0
0
0
0
0
0
0
0
0
0
0
0
0
0
0
0
0
