0
0
0
0
0
0
0
0
0
0
0
0
0
0
0
0
0
0
0
0
0
0
0
0
0
0
0
0
0
0
0
0
0
0
0
0
0
0
0
0
0
0
0
0
0
0
0
0
0
0
0
0
0
0
0
0
0
0
0
0
0
0
0
0
0
0
0
0
0
0
0
0
0
11111111
0
11111111
11111111
0
0
0
0
0
0
0
0
0
0
0
0
0
0
0
11
0
0
0
1
1
0
11
100
0
11111111
11111011
10
0
11111101
11111111
0
0
0
0
0
0
0
0
0
1
1
11
101
1
0
1
10
11111111
0
1
11
0
101
11111111
0
11
0
0
11
0
0
0
0
0
0
0
1
1
1
11
0
0
11111110
1
0
10
11111111
10
11
0
11
10
11111110
0
10
100
100
0
0
0
0
0
0
10
11
1
1
0
11
11111110
0
0
11111110
10
10
0
100
0
1
0
0
11111110
0
11
110
11
10
0
0
0
0
10
1
1
1
11111110
11111110
11111101
0
0
1
1
11
0
1
100
11111011
1
10
11111111
11111110
0
100
11
1
0
0
0
1
0
11111111
0
0
11111100
11111111
0
11111111
0
0
11111101
11111101
0
11111100
11111011
0
11111110
0
11
11111110
11111111
11
10
0
0
0
0
0
1
0
11111101
0
11111110
10
0
11111110
10
11
1
11111111
11111101
0
11111111
11110111
11111001
11111100
10
1
11111111
11
10
0
0
0
0
0
11
1
11111110
0
0
11
0
11111110
11111111
0
11111101
10
100
0
0
11111110
0
11111011
0
0
11111110
0
1
0
0
0
0
0
1
11
11111111
11111111
11111111
0
11111111
0
11111100
11
100
111
110
0
101
101
11
11111110
11111111
11111100
11111110
11111101
0
0
0
0
0
0
0
1
1
11111111
0
101
10
100
1
11
11
11
101
11
11111100
1
10
0
11111101
11111100
11111100
11111010
0
0
0
0
0
0
11111111
0
100
0
1
101
10
101
11
10
101
10
11
1000
0
100
101
0
0
0
11111110
11111100
11111111
0
0
0
0
0
0
11111111
11111011
11111000
11111001
11111100
11111101
11111111
1
110
1
10
100
0
1
100
0
11111110
11111110
0
10
11111111
11111110
0
0
0
0
0
0
11111011
11110011
11110100
11110001
11101111
11110001
11111001
11111111
100
110
11
100
0
0
0
0
11111110
11
1
1
0
0
0
0
0
0
0
1
11111011
11110111
11110101
11110011
11101110
11100111
11101010
11101100
11110010
11111010
0
11
1
10
0
10
0
10
1
11111110
0
11111111
0
0
0
0
0
10
11111111
11111110
11111111
11111100
11111010
11110011
11110000
11100111
11100110
11101100
11110111
11111011
11111111
1
0
0
0
0
11111110
11
1
11111110
0
0
0
0
0
100
10
10
11
1
110
1
0
11111111
11110110
11110110
11111001
11111101
0
0
11111101
0
1
100
0
0
11111111
11111101
0
0
0
0
0
101
10
10
101
100
111
110
101
1011
1001
11111110
11111110
11111001
11111110
0
1
1
100
11
11111111
11111110
0
11111111
0
0
0
0
0
11111111
10
11
111
0
110
11
100
100
11
1
0
11111001
1
1
11111100
11111110
11111101
11111110
101
11111111
0
0
0
0
0
0
0
11111101
11111111
11
11
100
1000
11111111
11
0
11
11
101
1
0
11111100
11111111
0
0
0
0
11111101
11111111
11111111
0
0
0
0
11111111
11111110
11111101
11111011
11111011
11111100
0
1
10
11111100
11111101
11111101
0
0
11111101
0
11111110
100
100
0
0
11111111
11111101
11111110
0
0
0
0
0
0
0
11111111
11111101
0
11111101
11111111
0
100
0
11111111
1
1
11111111
11111110
0
1
0
11111111
11111101
11111110
11111111
11111111
0
0
0
0
0
0
0
1
0
1
1
11111111
1
0
11111110
11111111
0
11111110
10
1
11111011
11111001
11111110
11111110
11111111
0
11111111
0
0
0
0
0
0
0
0
1
1
10
10
0
10
10
11
10
1
0
10
11111110
11111110
0
1
0
0
0
0
0
0
0
0
0
0
0
0
0
0
0
1
1
0
0
1
1
1
1
1
0
0
0
0
0
0
0
0
0
0
0
0
0
0
0
0
0
0
0
0
0
0
0
0
0
0
0
0
0
0
0
0
0
0
0
0
0
0
0
