0
0
0
0
0
0
0
0
0
0
0
0
0
0
0
0
0
0
0
0
0
0
0
0
0
0
0
0
0
0
0
0
0
0
0
0
0
0
0
0
0
0
0
0
0
0
0
0
0
0
0
0
0
0
0
0
0
0
0
0
0
0
0
0
0
0
0
0
0
0
0
11111111
0
11111111
11111110
11111111
0
0
0
0
0
0
0
0
0
0
0
0
0
0
11111111
11111111
11111111
11111110
11111101
11111111
11111111
1
10
11111111
11111111
0
11111101
11111111
11111111
11111110
11111101
11111111
0
0
0
0
0
0
0
0
0
0
11111111
0
10
0
0
0
1
110
11
11
0
0
1
10
0
11111011
11111110
11111111
11111111
11111111
0
0
0
0
0
0
0
0
0
0
0
0
1
0
0
1
11
10
110
0
11
0
11111110
0
11111111
0
11111111
0
0
0
0
0
0
0
0
0
0
11111110
11111011
11111110
11111110
11111111
11111110
100
1
0
0
11111110
110
11
1
110
1
11111111
11111110
11111110
11111111
11111111
0
0
0
0
0
11111111
0
0
11111001
11111000
11111001
11111100
11111101
10
1
11111101
100
1001
0
101
0
1
0
11111110
11111011
11111101
0
0
0
0
0
0
0
0
1
11111101
11111011
11111101
11111100
11111101
11111101
11111010
1
10
111
11
10
0
100
10
0
11111100
11111001
11111100
0
0
0
0
0
0
10
10
1
11111110
11111011
11111111
0
11111101
10
0
0
11
1101
1001
1010
111
111
11
100
11
11111101
11111011
11111110
0
0
0
0
1
11111110
0
1
11111111
11111111
11111111
11111011
11111110
1
0
11111000
1
1001
10000
1101
110
0
11
111
0
11111101
11111011
11111110
0
0
0
1
1
0
0
1
11111111
11111100
11111110
11111101
10
0
0
11110110
11111100
11111011
100
1000
110
1000
1
10
0
11111101
11111110
0
0
0
0
0
0
10
0
1
11111111
0
11111111
0
10
10
11111110
11110101
11111001
11111110
11111110
101
101
101
11
101
11
0
0
0
0
0
0
0
0
11
110
1
1
11111111
11111101
11111111
11111101
11111111
11110111
11111000
11110111
11
0
100
0
11
111
101
1
0
0
0
0
0
0
0
0
1
1
0
0
11111011
11111000
11110101
11111011
11111111
11111010
11111011
11111100
11111111
11111111
0
10
110
101
1
1
11111110
11111111
0
0
0
0
0
11111111
0
10
1
11111111
11111000
11111000
11111000
11111010
11110111
11111001
11110110
0
11111111
11111100
11111110
10
100
100
0
0
0
11111111
0
0
0
0
0
11111110
11111111
11111111
11111111
0
11111100
11111010
0
11111101
11111101
11111100
11110111
11111011
0
11
0
10
100
0
0
11111100
11111111
0
0
0
0
0
0
0
11111111
0
0
0
11111111
11111001
11111111
11111010
11111001
11110111
11110111
11111101
0
10
101
10
11111111
11111111
1
11111010
11111110
0
0
0
0
0
0
0
0
11111100
11111101
1
11
10
1
11111111
11111011
11111010
11111100
10
11
11
1000
1
11111110
11111111
11
11111011
11111101
1
0
0
0
0
0
0
1
11111101
0
101
110
10
100
11111111
11
0
11111110
0
11111101
0
0
11111110
1
0
1
11111111
11111111
0
0
0
0
0
0
0
1
10
11111111
0
0
0
101
110
1
100
0
0
11
11111100
11111101
11111111
11111110
11111111
0
11111111
0
0
0
0
0
0
0
0
10
0
11111111
0
0
0
0
10
111
100
11111111
0
11
11111010
11111101
11
0
0
0
0
1
0
0
0
0
0
0
0
0
11111111
1
1
110
111
0
11111100
100
0
11
101
0
10
0
1
0
0
1
1
0
0
0
0
0
0
0
0
11111110
11111111
0
10
0
1
11
110
1
11111110
0
10
11111111
101
11
0
11111100
11111110
0
0
0
0
0
0
0
0
0
0
0
10
0
0
11111111
11111101
11111010
11111111
1
11111110
1
10
11111110
11111101
11111100
11111010
11111101
11111111
0
0
0
0
0
0
0
0
0
0
11
100
10
10
1
10
0
101
101
0
101
10
11111111
11111101
11111110
0
0
0
0
0
0
0
0
0
0
0
0
0
0
0
1
10
10
1
1
0
0
1
1
0
1
0
0
0
0
1
0
0
0
0
0
0
0
0
0
0
0
0
0
0
0
0
1
0
0
0
0
0
0
0
0
0
0
0
0
0
0
0
0
0
