0
0
0
0
0
0
0
0
0
0
0
0
0
0
0
0
0
0
0
0
0
0
0
0
0
0
0
0
0
0
0
0
0
0
0
0
0
0
0
0
0
0
0
0
0
0
0
0
0
0
0
0
0
0
0
0
0
0
0
0
0
0
0
0
0
0
0
0
0
1
1
11
10
11111111
0
0
0
0
0
0
0
0
0
0
0
0
0
0
0
0
0
0
0
0
0
1
101
101
111
110
1000
1000
101
1
1
11111110
11111111
11111111
0
0
0
0
0
0
0
0
0
0
0
0
11111111
11111111
0
1
10
101
110
110
1001
101
11111111
0
0
11111101
11111101
11111101
0
0
0
0
0
0
0
0
0
1
0
0
11111111
11111110
11111010
11111101
0
100
0
1001
11
11111100
11111110
111
101
11111111
11111101
11111100
11111111
0
0
0
0
0
0
0
0
11111111
1
11111111
10
11111110
11111011
11111110
11111111
11111111
10
1
100
110
10
11111101
0
11111101
11111011
11111100
11111111
1
0
0
0
0
0
0
0
0
0
11111111
11
1
11111001
11111000
0
11111011
1
1001
110
11
0
1
1
11111111
11111111
11111100
0
11
0
0
0
0
0
0
0
0
0
0
10
11
1
0
11111011
0
1
100
1000
1
1
11
11111110
101
0
11111001
11111100
10
1
0
0
0
0
0
1
11111110
0
100
0
11111101
11
10
0
0
11111100
100
11111111
11
110
11
110
10
0
11111010
11111010
11111111
0
0
0
0
0
0
0
11111101
11111110
1
11111110
11111111
0
0
11111100
11111010
11111101
10
1000
10
1010
1100
101
11111111
0
11111001
11110110
11111101
0
0
0
0
11111110
11111110
11111111
11111111
11111111
1
11111111
0
10
11111110
11111110
11111011
0
1001
1101
1101
1111
110
1010
0
11111011
11110111
11111010
11111111
0
0
0
0
11111111
11111101
11111111
11111111
0
10
11111100
11111101
0
11111011
11111001
11111111
1000
1101
111
1000
1000
0
11110111
11110110
11111001
11111011
11111100
11111111
0
0
0
0
0
11111110
11111111
11111110
11111111
0
11111111
11111111
0
11111100
11111111
11
1011
1010
101
11
11111100
11111111
11110100
11110100
11111100
11111101
11111101
11111111
0
0
0
0
0
11111111
11111110
11111101
11111111
0
11111011
11111111
11111011
11111101
1
11
1100
100
1
11111101
11111100
11111001
11110111
11111110
11111111
11111111
0
0
0
0
0
0
0
0
11111111
11111101
11111100
11111110
0
11111111
1
11111101
0
1000
1
11111000
11111111
11111011
11110111
11111110
11111000
11111111
100
0
1
1
0
0
0
0
0
1
11111110
11111011
11111111
11111111
0
1
1
10
110
11111100
11111011
11110111
11111110
11111010
11111011
11111110
11111110
0
1
0
10
0
0
0
0
0
0
1
0
11111111
0
1
0
0
100
0
11111011
11111010
11111001
11110111
11111011
11111100
0
10
11111110
0
0
0
10
0
0
0
0
0
0
1
11111110
11
10
11111110
11111111
11111111
11111110
11110111
11110010
11111011
11111101
11111111
0
0
10
0
1
0
0
0
1
0
0
0
0
0
11111110
0
11111110
10
0
10
11111011
0
11111100
11110111
11111011
1
0
0
100
0
11111111
1
0
10
0
1
0
0
0
0
0
0
11111111
11111111
11111111
11111100
0
11
11111111
11111111
11111111
0
10
0
1
11111100
0
11111111
101
10
100
11
11111111
0
0
0
0
0
0
0
0
0
11111110
11111111
0
0
0
10
10
11110111
11111110
10
1
11111111
11111111
11111111
11
11
110
1
0
0
0
0
0
0
0
0
11111111
0
11111111
10
0
11111111
1
0
11
0
11111011
11111111
11111110
11111110
11111110
11111111
0
0
1
1
1
10
0
0
0
0
0
0
0
1
0
11111111
11111110
1
1
11111110
11111101
11111110
0
1
11111101
11111110
11111101
11111101
11111111
11111011
11111111
0
0
1
1
0
0
0
0
0
0
0
1
0
1
100
0
1
11
1
0
100
0
11111110
0
0
11111100
11111000
11111001
11111111
0
1
0
0
0
0
0
0
0
0
0
1
1
11
10
11
0
11111101
10
11111111
11111111
11111001
11111111
10
0
11111101
11111101
11111111
0
0
0
0
0
0
0
0
0
0
0
0
0
0
0
1
10
1
1
11
111
10
0
11
0
0
0
0
0
0
0
0
0
0
0
0
0
0
0
0
0
0
0
0
0
0
0
0
1
1
0
0
0
0
0
0
0
0
0
0
0
0
