0
0
0
0
0
0
0
0
0
0
0
0
0
0
0
0
0
0
0
0
0
0
0
0
0
0
0
0
0
0
0
0
0
0
0
0
0
0
0
0
0
0
0
0
11111111
0
0
0
0
0
0
0
0
0
0
0
0
0
0
0
0
0
0
0
0
0
0
0
0
1
1
0
0
0
0
0
0
0
0
0
0
0
0
0
0
0
0
0
0
0
0
1
0
0
10
1
0
11
10
10
1
11
10
11111110
11111111
0
1
10
10
0
0
0
0
0
0
0
0
0
1
0
1
1
11
1
101
11
10
1
10
0
11111101
0
1
11
100
10
10
1
0
0
0
0
0
0
0
0
0
0
10
100
111
111
101
11111110
11111011
11111110
10
100
11
10
1000
111
11
101
10
0
0
0
0
0
0
0
0
11111111
0
0
10
101
10
11111110
11111111
11111111
11111101
110
1000
100
101
111
100
11111110
11111111
111
110
1
0
0
0
0
0
0
0
0
0
0
100
1
0
11111111
0
10
0
10
11111110
0
0
1
11111100
11111110
11111101
11111110
10
0
1
0
0
0
0
0
0
1
11
11
11111110
0
11
10
11111001
0
11111011
11111101
11110111
11111010
11111101
11111101
11111001
11111101
11111001
11111001
11111010
11111110
10
0
0
0
0
0
0
0
0
0
1
10
11111101
11111001
0
0
11111101
11111010
11111001
11110101
11111001
11111101
11111011
11111000
11111010
11111011
11111011
11111111
1
0
0
0
11111111
11111110
11111111
11111110
0
11111011
0
0
11111101
11111100
1
11111101
11111110
11111011
11111001
11111000
11110101
11111001
11111000
11111011
11111100
0
11111110
11111100
0
0
0
0
11111110
11111100
11111101
0
0
1
100
1
0
11111100
11111101
11
101
110
10
1
11111101
11111000
0
0
11111101
11111100
11111100
11111101
0
0
0
0
11111111
11111110
11111111
11
10
11111110
1
0
0
11111101
11111101
1
1
0
111
111
100
1
100
101
11111010
11111111
0
0
0
0
0
0
0
0
1
10
0
0
0
11111110
11111001
11111011
11111111
11
11111111
1101
101
111
1011
11
1000
101
0
11111111
0
11111111
0
0
0
0
0
0
101
11111111
11111111
0
0
11111110
11111001
11111110
11
1
110
111
100
100
110
101
10
10
11111111
11111011
11111110
0
0
0
0
0
0
1
10
1
0
11111000
11
11111110
11111100
0
0
110
1011
11
11
100
11111110
100
101
10
0
11111010
0
11
1
0
0
0
0
10
0
0
0
0
11111010
11111111
1
101
1010
1001
1010
101
11
0
1
0
101
100
0
0
0
11
0
0
0
0
0
11
1
11111111
11111100
1
11111101
11111000
11111110
111
1100
110
11111111
11111111
10
11111110
1
11
10
1
0
0
11111111
1
0
0
0
0
0
101
10
0
11111100
0
11111101
11111111
111
101
10
10
0
0
10
10
1
1
1
11
0
10
0
1
0
0
0
0
0
101
0
0
11111100
11111100
11111011
1
1
10
11111111
1
100
110
10
11111110
11111110
1
10
1
0
1
0
0
0
0
0
0
0
100
10
0
11111101
0
11111111
11
11111110
11111110
0
0
110
11
1
1
1
100
101
1
0
11
10
0
0
0
0
0
1
100
11
11
0
0
11111111
0
11111111
11111011
11
10
101
1
11
1000
101
101
0
0
1
10
10
0
0
0
0
0
0
1
11
11
0
11111111
11111110
11111110
0
11111110
11111100
11111011
0
10
111
1
1
1
11
0
0
1
1
0
0
0
0
0
0
0
1
1
0
11111101
11111110
11111110
1
1
0
11111111
0
10
10
0
0
1
110
11
1
0
0
0
0
0
0
0
0
0
0
0
11
10
11111111
0
0
111
1
11111100
0
11111111
0
11111011
11111111
0
11
0
1
1
0
0
0
0
0
0
0
0
0
0
10
11
10
10
0
0
10
11111101
11111101
11111111
11111111
11111110
11111111
11111111
1
0
0
0
0
0
0
0
0
0
0
0
0
1
11
11
0
10
11
0
11111111
0
0
11111111
11111111
0
0
11111101
11111111
11111111
0
0
0
0
0
0
0
0
0
0
0
0
0
0
0
0
0
0
1
0
0
10
0
0
0
0
0
0
0
0
0
0
0
0
