0
0
0
0
0
0
0
0
0
0
0
0
0
0
0
0
0
0
0
0
0
0
0
0
0
0
0
0
0
0
0
0
0
0
0
0
0
0
0
0
0
0
0
1
0
0
0
0
0
0
0
0
0
0
0
0
0
0
0
0
0
0
0
0
0
0
0
0
0
0
0
10
1
0
0
0
0
0
0
0
0
0
0
0
0
0
0
0
0
0
0
0
0
0
11111111
11111011
11111111
0
11111110
11111101
11111111
0
0
0
0
11111111
0
0
0
0
0
0
0
0
0
0
0
0
0
0
1
0
0
0
1
11111111
11111111
0
0
11111100
0
11111011
11111001
11111011
0
0
10
0
0
0
0
0
0
0
0
1
1
1
1
10
11
101
0
1000
11111110
0
1
0
1
100
0
1
0
0
10
0
0
0
0
0
0
0
0
11111110
0
1
11111111
100
10000
1100
1000
1001
101
111
1
1000
10000
1001
100
11
11111111
11111110
0
10
1
0
0
0
0
0
11111111
11111100
0
0
100
1001
10001
101
1001
101
1000
1010
111
101
1110
1010
111
1000
1
11111101
11111100
11111111
0
0
0
0
0
0
11111110
11111101
0
0
110
111
1100
110
101
111
1010
11
1010
101
1101
110
100
110
110
11111111
11111110
11111111
0
0
0
0
0
0
0
11111111
10
101
1
0
1100
111
101
10
1000
111
0
111
100
11111110
11111110
11111110
1
11111111
1
1
0
0
0
0
0
0
0
11111110
11
0
0
11111111
100
11
11111100
101
11111100
11111001
11
11111100
11111010
11111011
11111001
0
11111011
10
0
0
0
0
0
0
0
11111110
1
11111111
0
11111101
11111010
11111100
0
110
11111110
1011
0
11111111
11111001
1
1
11111111
0
110
0
100
110
10
0
0
0
0
0
11111101
110
1
0
11111111
11110110
11111100
11111010
11111010
11111000
11111010
11111111
101
0
1000
1100
1010
111
101
0
10
11111111
0
0
0
0
0
0
11111110
101
11111011
11111001
0
11111011
11111100
11111000
11110110
11110100
11111110
111
11111100
1
11
1
10
1001
0
11111110
11111100
11111010
11111110
0
0
0
0
0
0
11111111
11111000
11111011
11111000
11111010
11111100
11111011
11111011
11110110
10
1000
1
0
11111001
10
11111101
0
11111101
11111011
11111011
11111100
11111110
0
0
0
0
0
11111101
11111011
11111011
11111110
11111001
0
11110011
11111010
100
11110110
0
0
10
11111101
11111100
1
11111000
0
11111100
11111100
11111100
11111101
11111101
11111110
0
0
0
0
11111111
11111100
11111001
11111100
11111010
11111100
11111100
1
11111111
0
0
10
11110111
11111010
11111111
11111000
11111010
11111100
11111001
11111110
11111010
11111101
11111101
11111111
0
0
0
0
0
11111100
11111100
11111110
11111011
11111110
11111001
11111110
0
11
11111110
11111111
11111000
0
11111101
11111001
1
11111101
11111001
11111010
11111011
0
0
0
0
0
0
0
0
11111100
11111101
0
11111110
11111111
1
11
11
0
11111100
11111101
11111110
11111011
11111111
11111011
11111110
11111111
11111100
0
1
10
1
0
0
0
0
0
0
11111111
11111110
1
0
101
11111111
0
11111010
10
0
11111111
11111001
11111001
11111101
11111101
111
110
0
11111111
10
100
10
0
0
0
0
0
0
1
1
111
10
10
11111100
11111001
11111110
11111101
10
11111111
1
0
1
10
1011
101
11
101
11
101
0
0
0
0
0
0
0
0
0
110
110
0
0
100
11111100
11111110
1
101
10
100
1
0
1
1000
100
100
110
111
1
0
0
0
0
0
0
0
0
1
1
0
0
0
11111111
11111101
11111110
1000
1
1
10
0
0
111
0
11
111
101
0
0
0
0
0
0
0
0
0
0
10
10
1
0
10
1
110
1
1000
1000
1100
101
11
100
11111110
100
110
100
0
0
0
0
0
0
0
0
0
11
111
1000
111
1100
1001
111
1010
11
111
0
111
110
10
100
1
100
11
0
0
0
0
0
0
0
0
0
0
100
1000
1001
111
101
100
1111
1100
1011
101
111
1010
1011
1010
110
100
11
11111111
0
0
0
0
0
0
0
0
0
0
10
100
100
110
1001
111
110
111
1110
111
110
110
110
110
1000
101
11
0
0
0
0
0
0
0
0
0
0
0
0
0
0
0
1
0
0
0
0
0
0
0
1
1
0
0
0
0
0
0
0
0
