0
0
0
0
0
0
0
0
0
0
0
0
0
0
0
0
0
0
0
0
0
0
0
0
0
0
0
0
0
0
0
0
0
0
0
0
0
0
0
0
0
0
0
0
0
0
0
0
0
0
0
0
0
0
0
0
0
0
0
0
0
0
0
0
1
1
1
10
10
10
11
1
10
100
10
0
0
0
0
0
0
0
0
0
0
0
0
0
0
0
1
0
11111110
1
0
0
11111111
1
1
1
0
11111100
11111011
11111111
11111110
11111110
0
0
0
0
0
0
0
0
0
0
0
0
0
11111111
0
0
0
11111011
11111011
0
100
1
11111110
11111011
11111001
11111100
11111011
11111100
11111111
0
0
0
0
0
0
0
0
0
0
10
0
0
1
11111110
11111111
11111101
0
0
11
11111111
11110101
11111011
11111100
11111011
11111110
0
0
0
10
0
0
0
0
0
0
11111111
0
11111111
0
11111111
11111101
11111100
11111101
0
11111011
11111011
11111100
11111010
11110111
11111001
11111001
11111010
11111101
11111110
0
1
1
0
0
0
0
0
0
11111111
0
11111101
11111101
0
11111111
0
0
1
0
11111011
11111101
11111011
11110101
11110111
11111010
11111011
11111101
11111111
11111111
11111101
0
0
11111110
0
0
0
0
0
0
11111111
0
0
11111111
11111110
0
11111111
11111110
0
11111110
11110100
11111000
11111100
11111010
11111110
0
11111111
11111111
11111101
11111101
11111100
11111111
0
0
0
0
11111111
11111111
1
0
0
1
11111110
11111101
11111101
11111111
11111010
11111011
11111011
0
10
11111110
11111101
11111110
11111110
11111110
11111110
11111111
11111101
11111111
0
0
0
0
11111111
0
1
11111111
0
100
11111111
1
0
11111011
11111101
11111111
10
10
0
11111110
11111111
11111110
11111101
11111101
0
1
11111101
11111111
0
0
0
0
0
0
1
11111110
0
0
11111110
11111011
11111101
11111001
11111111
101
11
1
11111111
11
100
0
1
0
1
10
11111111
11111111
0
0
0
0
1
10
1
0
10
1
11111100
11111101
11111101
11111011
11111110
101
100
0
1
11
0
0
11
0
1
11
11111110
11111111
0
0
0
0
1
10
1
0
11111101
11111100
11111100
11111100
11111101
11111110
110
101
11111111
11
0
11111111
10
100
100
1
110
11
0
0
0
0
0
0
1
0
11111110
11111111
11111010
11111110
11111100
11111100
11111010
11111101
11
10
11111111
0
11111110
0
11111011
10
10
11
101
1
10
0
0
0
0
0
0
11111111
11111100
11111111
11111101
11111110
11111100
11111011
11111110
11111101
1011
110
0
11111111
11111110
0
11111111
100
0
10
0
0
101
0
0
0
0
0
0
0
11111100
11111111
0
11111110
11111111
1
11111110
11111100
0
1001
110
11111110
1
11111101
11111110
0
1
0
100
100
101
0
0
0
0
0
0
11111111
11111101
11111110
11111110
11111111
11111010
10
1
0
11
101
11111111
11111110
1
0
11111110
0
0
0
11111111
1
11
0
0
0
0
0
0
11111111
11111100
11111101
0
1
0
1
11111110
100
10
101
10
0
110
10
11111111
11111110
10
0
11
1
1
0
0
0
0
0
0
11111110
11111011
11111100
11111110
11111111
11111110
11111110
11
0
11
101
101
100
100
1
10
11
0
11111110
0
11111111
0
0
0
0
0
0
0
11111110
11111101
11111100
0
0
11111101
100
101
100
110
1000
1
101
111
110
0
110
1
11111100
0
11111110
11111110
0
0
0
0
0
0
11111110
0
0
0
10
100
101
11111111
11111111
11
101
100
0
11
101
100
0
11111111
0
0
0
0
0
0
0
0
0
0
11111111
10
1
11111110
11111110
10
0
11111011
11111001
11111101
0
11111110
1
11
10
0
0
11111110
11111110
11111110
0
0
0
0
0
0
0
0
11111111
0
0
11111110
11111110
0
0
0
1
11111011
11111010
11111100
11111110
11111111
11111011
11111110
0
11111111
0
0
0
0
0
0
0
0
0
0
0
0
0
11111110
11111111
11111110
11111110
11111110
11111100
11110111
11110110
11111010
11111011
11111011
11111011
11111101
11111101
0
0
0
0
0
0
0
0
0
0
0
0
0
0
0
0
11111110
11111011
11111011
11111101
11111011
11111011
11111100
11111100
11111101
11111011
11111011
11111110
11111111
0
0
0
0
0
0
0
0
0
0
0
0
0
0
0
0
0
11111111
11111111
11111111
11111111
11111111
0
0
0
0
0
0
0
0
0
0
0
0
0
0
0
0
0
0
0
0
0
0
0
0
0
0
0
0
0
0
0
0
0
0
0
0
0
0
0
0
