0
0
0
0
0
0
0
0
0
0
0
0
0
0
0
0
0
0
0
0
0
0
0
0
0
0
0
0
0
0
0
0
0
0
0
0
0
0
0
0
0
0
0
0
0
0
0
0
0
0
0
0
0
0
0
0
0
0
0
0
0
0
0
0
0
0
0
0
0
11
11
10
1
0
0
0
0
0
0
0
0
0
0
0
0
0
0
0
0
0
0
0
11111110
11111111
11111110
11111100
11111101
11111111
0
11111111
10
101
101
101
11
11
10
10
1
0
0
0
0
0
0
0
0
11111111
11111110
11111100
11111110
11111110
11111100
11111010
11111011
11111111
11111110
0
101
101
0
1000
100
0
1
10
11111111
11111101
0
0
0
0
0
0
0
0
0
11111111
11111110
11111110
11111010
11110101
11111000
11111111
0
11111111
1
100
101
111
10
0
11111110
1
0
11111110
0
0
0
0
0
11111110
11111110
11111110
11111111
11111110
11111101
11111010
11111010
11111100
11111111
11111011
1
0
0
11111110
11111111
1
0
0
0
11111111
0
11111101
11111101
0
0
0
0
11111110
11111100
11111011
11111100
0
11111011
11111010
11111101
11111110
11111110
11111100
1
0
11111111
11111101
11111110
1
0
1
11
11111111
11111010
11111010
11111110
0
0
0
0
11111111
11111101
11111100
11111111
0
11111100
11111000
11111110
0
100
1
100
11111011
11110111
11111111
11111010
11111100
11111101
0
10
0
11111100
11111100
11111111
0
0
0
0
11111110
11111011
11111010
11111101
11111101
11111010
11111111
0
1
100
1
1
10
0
11111001
11111101
11111010
11111011
0
0
11111101
11111011
11111101
0
0
0
0
0
11111101
11111100
11111011
11111110
11111011
11111010
11111110
11111101
0
110
11
100
100
11111111
1
11111101
11111011
11111110
11111111
11111010
11111100
11111010
11111100
11111111
0
0
0
0
11111111
11111101
11111110
1
0
11111100
0
11111110
1
101
111
11
0
0
11111111
11111100
11111101
11111110
11111100
11111001
11111010
11111010
11111110
11111111
0
0
0
0
0
11111111
11111110
100
11
1
0
11111100
100
10
10
101
111
11
0
11111101
11111011
11111110
11111110
11111100
11111101
0
0
0
0
0
0
0
0
0
11111110
10
1
0
11111011
11111001
11111110
0
110
10
11
100
110
11111100
11111001
11111111
11111111
11111111
0
0
0
0
0
0
0
0
0
0
0
11111111
11111011
11111101
0
11111110
11111100
1
11
11
100
101
11111100
11111000
11111010
11111100
11111011
11111111
11111111
0
0
0
0
0
0
0
0
0
11111110
11111011
11111111
110
11111111
11111010
11111101
1
11
110
11
100
11111001
11111001
11110110
11111000
11111010
11111101
0
11111111
0
0
0
0
0
0
0
0
11111111
11111010
11111111
10
10
11111111
11111111
11111110
0
1001
11111111
11111111
11110100
11111001
11110111
11111001
11111011
11111100
11111111
0
1
0
0
0
0
0
11111111
11111110
11111110
11111001
0
11
0
0
0
10
11111110
11
0
11111001
11110011
11111011
11111101
11111100
11111110
0
11111110
0
10
0
0
0
0
0
11111111
11111110
11111011
11111010
11111110
1
1001
100
0
1
11111110
11111011
11111001
11110101
11111011
0
1
100
11
0
11111111
0
10
0
0
0
0
0
11111111
11111111
11111010
11111011
11111100
11111111
1000
11
11
11111110
0
11111101
0
100
0
11111101
11111111
100
10
11111111
1
10
1
0
0
0
0
0
11111111
11111111
11111110
0
0
11
100
1
11111111
100
11111001
1
1
10
101
100
10
11
11
10
11
100
0
0
0
0
0
0
0
11111111
100
11
0
100
11
11111111
1
1000
11111111
11111111
11111110
100
0
100
11
1000
101
11
100
101
10
0
0
0
0
0
0
0
111
110
1
100
0
11111111
0
0
1
0
10
1
11
110
101
1000
111
1
0
1
1
0
0
0
0
0
11111111
11111111
1
100
11111111
11111101
11
0
11111011
0
11111111
11111111
11
0
10
11
110
100
0
11111111
11111111
0
0
0
0
0
0
0
0
11111111
1
0
11111111
11111110
11
0
11111110
11111110
11111110
1
0
11111010
11111110
0
0
0
0
0
0
0
0
0
0
0
0
0
0
1
0
0
11111110
11111111
0
11111011
11111110
11111101
11111110
11111101
11111010
11111010
11111110
11111101
11111101
11111111
0
0
0
0
0
0
0
0
0
0
0
0
0
0
0
11111111
11111111
11111111
11111110
11111101
11111110
11111110
11111110
11111110
0
0
0
0
0
0
0
0
0
0
0
0
0
0
0
0
0
0
0
0
0
0
0
0
0
0
0
0
0
0
0
0
0
0
0
0
0
0
0
