0
0
0
0
0
0
0
0
0
0
0
0
0
0
0
0
0
0
0
0
0
0
0
0
0
0
0
0
0
0
0
0
0
0
0
0
0
0
0
0
0
0
0
0
0
0
0
0
0
0
0
0
0
0
0
0
0
0
0
0
0
0
0
0
0
0
0
0
0
0
0
0
0
0
0
0
0
0
0
0
0
0
0
0
0
0
0
0
0
0
0
0
11111111
0
11111111
11111110
0
0
0
10
1
1
1
0
0
0
0
0
0
0
0
0
0
0
0
0
0
1
0
11111110
11111111
11111101
11111110
11111110
11111101
11111111
0
11111111
11111101
11111100
11111101
11111101
11111101
11111111
0
11111111
0
0
0
0
0
0
0
0
0
10
0
11111110
11111101
11111100
11111011
11111110
1
1010
1001
110
0
11111000
11111000
11111011
1
0
0
11111101
11111111
0
0
0
0
0
0
0
11111110
11111111
11111110
11111011
11111000
11111010
0
11
110
1110
10100
1000
11111111
11111100
11111010
11111101
0
11111110
11111110
11111100
11111110
11111110
11111111
0
0
0
0
0
11111110
11111101
11111101
11111100
11111011
11110101
11111110
11111110
1
10000
10110
100
11111101
11111110
0
11111101
11111111
1
0
11111110
11111100
11111111
0
0
0
0
11111111
11111111
11111110
11111111
11111101
11111110
11111100
11111110
11110111
11111001
11
1000
1111
10
0
11111101
11111110
10
1
1
1
0
0
0
0
0
0
0
0
0
11111111
11111111
11111110
1
11111101
11111110
11111000
11111010
0
10000
1101
11111111
11111000
1
1
10
0
11111110
11
100
0
0
0
0
0
0
0
11111111
11111110
11111110
100
100
11111111
11111101
11110101
11110110
11
10100
1001
11111011
0
11111101
10
11
11
1
101
1000
1
0
0
0
0
0
11111111
11111110
1
0
0
1
11111010
11111100
11110101
11110100
11
1111
101
1
11111001
0
1
100
111
100
111
110
11
0
0
0
0
0
11111111
11111110
101
0
11111111
11111110
11111101
11111110
11110100
11110001
1
1011
101
0
11111010
0
11111100
0
0
0
10
0
11111111
0
0
0
0
0
0
0
10
11111111
11111011
0
11111001
0
11111100
0
1010
1001
11111110
11111111
0
0
0
11111111
11111110
0
11111101
11111101
11111100
11111111
0
0
0
0
0
0
0
11111000
11111110
11111101
11111110
11111100
11111110
0
100
100
100
10
100
11111111
10
11111101
11111101
0
11111101
11111000
11111000
11111111
0
0
0
0
11111111
11111110
11111111
11111011
11111111
11111001
0
1
0
100
11
11111111
11
110
100
0
110
0
10
0
11111110
11111001
11111110
0
1
0
0
0
0
0
0
11111110
11111100
11111110
0
11111111
0
11
100
11
0
11
0
101
0
11111011
11111101
11111010
11111111
11111101
11111101
0
1
0
0
0
0
0
0
11111111
0
11
100
11
10
1
110
111
11111111
100
0
100
0
101
11111111
0
0
11111110
11111110
0
0
0
0
0
0
0
0
0
101
100
11
11111101
0
10
100
11
0
101
100
101
1
10
11111101
11111101
0
11111100
11111100
0
0
0
0
0
0
0
0
1
1
0
1
11111111
0
0
100
1
11111110
11
110
11111111
0
11111101
11111000
11111011
11111111
0
11111111
0
0
0
0
0
0
0
1
11
11
0
0
0
10
10
11111110
11111110
0
11111101
0
0
0
11111110
11111110
0
10
101
10
10
0
0
0
0
0
0
0
1
110
111
11
1
10
11111101
11111110
11111101
11111101
11111101
11111101
11111010
11111111
11111111
11111101
11111110
1
100
100
1
0
0
0
0
0
0
0
0
10
100
101
110
101
11111111
10
11111101
0
11111101
11111100
11111101
11111110
11111100
11111111
11111101
101
101
101
1
0
0
0
0
0
0
0
0
11111111
0
10
10
10
101
11
11111110
1
0
11111001
11111101
11111010
11111111
0
0
110
110
101
0
0
0
0
0
0
0
0
0
0
0
0
0
0
0
0
11111011
0
0
11111111
11111101
11111111
1
110
11
100
100
0
0
0
0
0
0
0
0
0
0
0
0
0
1
0
11111110
11111111
11111001
0
11111100
11111111
11111101
10
111
110
10
10
1
0
0
0
0
0
0
0
0
0
0
0
0
0
1
11
11
11
10
10
0
10
11
10
10
100
11
1
0
0
0
0
0
0
0
0
0
0
0
0
0
0
0
0
0
0
0
0
1
0
0
0
1
0
0
0
0
0
0
0
0
