0
0
0
0
0
0
0
0
0
0
0
0
0
0
0
0
0
0
0
0
0
0
0
0
0
0
0
0
0
0
0
0
0
0
0
0
0
0
0
0
0
0
0
0
0
0
0
0
0
0
0
0
0
0
0
0
0
0
0
0
0
0
0
0
0
0
0
0
0
0
11111111
0
0
11111111
11111111
11111111
11111111
11111111
0
0
0
0
0
0
0
0
0
0
0
0
0
0
0
1
0
0
0
0
0
0
11111111
11111100
11111111
0
0
0
0
0
0
0
0
0
0
0
0
0
0
0
0
1
10
11111110
0
1
0
11111101
11111001
11111101
11111110
11111100
11111101
11111110
0
0
0
0
0
0
0
0
0
0
0
0
0
1
0
10
11111111
11111011
11111010
11111010
11111000
11111101
11111010
11111101
0
0
0
1
0
11111101
11111100
11111111
0
0
0
0
0
0
0
0
1
0
11
1
11111111
11
10
11111001
11110111
11111010
11111110
1
100
10
11111110
0
11111111
0
11111111
11111100
11111110
11111111
0
0
0
0
0
1
10
0
110
101
0
10
0
11111100
11111111
101
11
11111101
11111101
11111111
11111100
11111110
0
11111101
11111100
11111110
11111110
11111101
11111111
0
0
0
0
0
10
0
0
0
11111110
0
1001
1011
1010
1001
1000
0
11111100
11111110
0
0
11111110
11111101
11111110
11111111
11111011
11111101
0
0
0
0
0
0
100
11
110
110
100
110
1101
1001
1011
11
101
0
11111111
0
11111111
0
0
11111010
0
11111111
11111100
0
0
0
0
0
11111111
0
11
1000
1001
1000
1010
110
100
1000
1
11111111
11111011
11111101
11111101
11111101
11111111
11
10
0
0
11111101
11111101
0
0
0
0
0
11111111
0
10
111
1
11111111
1
11111111
11111111
10
11110011
11111000
11111000
0
11111101
0
0
0
11
0
11111110
11111010
11111101
0
11111111
0
0
0
11111111
0
0
0
11111100
11111000
11110111
11110101
11110000
11101101
11110001
11111110
1
1000
11
10
11111111
11111111
0
0
11111100
11111001
11111110
11
0
0
0
0
0
0
11111011
11111000
11111000
11110101
11110010
11110011
11110110
11111111
11111101
10
0
11111010
1
1
0
11111010
11111110
11111111
11111101
0
11
11
0
0
0
0
0
1
11111001
11110010
11110101
11110101
11111001
11111110
1
10
100
0
11111111
1
100
100
10
10
11111101
11111101
0
1
1
11
10
0
0
0
0
0
11111010
11110101
11111011
11111100
101
10
11111100
11111111
10
0
0
10
0
111
1
0
10
11
10
0
11
0
0
0
0
0
0
0
11111101
11111010
0
0
11111111
11
11111111
0
11111110
10
100
11
0
0
11
1
1
0
0
0
1
1
10
0
0
0
0
10
1
0
11111111
11
1
11111101
11111100
0
100
0
101
10
11111111
11111101
0
11
10
11
0
11111110
11111111
10
0
0
0
0
0
11
110
1
0
0
101
0
1
0
11111011
11111111
0
11111111
11111101
1
0
1
11111011
11111111
11111111
0
0
1
0
0
0
0
0
10
100
1
0
0
1
0
10
1
11111111
11111110
0
1
1
11111101
10
11111100
11111110
11111111
0
0
1
0
0
0
0
0
0
100
11
1
0
11
100
0
0
10
11111100
11111011
11111111
0
11111110
11111101
11111100
11111111
0
0
0
11
10
0
0
0
0
0
1
100
11
0
11111111
0
0
11111101
11111110
11111111
1
0
0
11111111
0
11111101
0
1
0
0
0
11
10
0
0
0
0
0
0
0
10
100
11111111
11111111
0
11111111
11111101
11111011
11111111
11111101
11111010
11111111
0
100
10
101
11
11111111
0
0
10
1
0
0
0
0
0
0
0
1
100
1
11111100
0
11111111
0
11111100
0
11111101
0
0
0
11111111
0
0
0
0
11111110
0
0
0
0
0
0
0
0
10
10
1
11111111
11111100
0
11111110
11111110
11111101
11111011
11111111
1
11111110
11111101
11111010
0
1
0
0
11111110
11111111
0
0
0
0
0
0
0
1
10
0
11111111
11111111
0
11111100
11111100
0
11111111
11111101
1
10
0
10
100
1
0
1
0
0
0
0
0
0
0
0
0
0
11111111
0
0
0
0
11111111
0
11111111
11111110
11111111
11111110
0
0
1
11
10
1
1
0
0
0
0
0
0
0
0
0
0
0
0
0
0
0
0
0
0
0
0
0
0
0
0
0
0
0
0
0
0
0
0
0
