0
0
0
0
0
0
0
0
0
0
0
0
0
0
0
0
0
0
0
0
0
0
0
0
0
0
0
0
0
0
0
0
0
0
0
0
0
0
0
0
0
0
0
0
0
0
0
0
0
0
0
0
0
0
0
0
0
0
0
0
0
0
0
0
0
1
0
0
0
10
10
10
0
11111110
11111110
0
0
11111110
11111111
0
0
0
0
0
0
0
0
0
0
0
0
0
1
1
10
11
110
111
101
0
11111110
11111101
11111011
11111011
11111110
11111101
11111101
11111110
0
0
0
0
0
0
0
0
0
1
10
11
11
10
100
11
111
101
11
0
0
11111110
11111110
11111111
11111111
0
11111111
11111010
11111111
11111111
0
0
0
0
0
0
1
10
100
101
11
1
10
0
11
1
10
1
11111011
11111010
11111110
10
11111101
11111111
11111011
11111000
11111100
11111110
0
0
0
0
0
0
1
1
101
101
100
100
11111111
0
11111101
11111110
11111100
10
10
11111101
11111111
11111100
11111110
0
11111110
11111011
11111010
11111100
11111111
0
0
0
0
0
1
1
110
101
110
0
0
0
11111100
11111110
11111001
0
11111110
11111011
11111010
11111101
11110111
11111100
11111101
11111101
11111100
11111101
11111111
0
0
0
0
0
10
100
101
101
100
101
100
11111111
11111110
11
0
11111110
11111001
11111101
11111111
11111110
11111101
0
10
11111111
0
1
0
0
0
0
0
0
0
10
100
100
10
101
11
0
0
100
10
100
100
101
101
1000
1010
1110
1100
1001
11
0
0
0
0
0
0
0
0
11111111
10
0
1
0
0
11
0
11
100
1001
10011
10011
10101
10011
1101
1101
1101
1011
101
0
0
0
0
0
0
1
0
0
11111111
0
0
1
10
101
100
101
100
101
111
101
1000
1010
1110
1011
1100
1000
110
1
0
0
0
0
0
1
0
11111111
11111111
11111111
11111101
0
11111101
0
11111111
0
11111110
0
10
10
1
1001
111
1000
1000
11
11
1
0
0
0
0
0
1
0
11111111
11111111
0
100
11
0
0
11111010
11111100
11111110
11111110
11
0
10
100
100
110
101
1
0
0
0
0
0
0
0
0
0
1
1
11111110
0
10
0
11
11111011
10
100
1
0
100
1
11111111
11111111
1
11
0
0
1
1
0
0
0
0
0
0
0
11
11111111
1
11111110
11111111
10
11111100
100
110
11
11111110
0
0
10
11111011
0
101
0
11111111
0
10
0
0
0
0
0
11111111
11111110
1
10
11
10
1
11111111
11111111
10
1
11111111
0
11111100
0
11111100
11111101
1
0
1
0
1
1
0
0
0
0
0
0
0
11111111
0
11111111
10
1
11111111
0
101
100
1
10
0
11111010
11111001
11111110
11111110
11111110
0
11111111
1
0
0
0
0
0
1
11111110
11111111
11111101
1
0
11111101
1
11
1
101
11
1
11111011
0
0
11111101
0
0
0
0
0
0
0
0
0
0
11111111
0
0
11111111
11111110
0
11111010
11111001
10
11111101
11111100
0
0
0
11111100
11111110
11111100
0
11111101
0
11111110
11111111
1
0
0
0
0
0
11111111
1
11111111
11111101
0
1
11111011
11111110
0
11111111
1
0
11
0
11
0
11111110
11111111
11111111
0
0
0
0
0
0
0
0
0
0
1
11111101
11111110
0
11111101
0
0
1
11111110
11111111
11111111
11111101
11111010
11
10
11111111
0
11111101
0
0
1
0
11111111
0
0
0
0
0
0
11111101
0
10
0
0
100
0
0
11111100
11111111
0
11111101
0
0
0
0
0
1
10
0
0
0
0
0
0
0
0
0
11111110
11111101
0
11
10
0
11111111
0
1
10
0
0
11111110
1
10
0
1
10
1
11111110
11111111
0
0
0
0
0
0
0
0
0
10
0
0
11111110
0
0
11111110
11111110
0
0
1
11111101
11111010
11111110
11111110
0
0
11111111
11111111
0
0
0
0
0
0
0
0
1
1
10
10
11
100
1
0
11
100
10
10
11111101
11111100
11111111
0
11111110
11111111
11111111
11111111
0
0
0
0
0
0
0
0
0
0
0
0
1
0
0
0
1
1
11111111
11111110
0
0
0
11111111
11111110
0
0
0
0
0
0
0
0
0
0
0
0
0
0
0
0
0
0
0
0
0
0
0
0
0
0
0
0
0
0
0
0
0
0
