0
0
0
0
0
0
0
0
0
0
0
0
0
0
0
0
0
0
0
0
0
0
0
0
0
0
0
0
0
0
0
0
0
0
0
0
0
0
0
0
0
0
0
0
0
0
0
0
0
0
0
0
0
0
0
0
0
0
0
0
0
0
0
0
0
0
1
1
0
0
0
11111111
0
1
0
0
0
0
0
0
0
0
0
0
0
0
0
0
0
0
0
0
0
1
0
10
1
0
0
11111101
0
0
1
10
10
1
0
1
1
0
0
0
0
0
0
0
0
0
0
11111111
0
0
0
0
11111100
11111111
0
11111101
0
11111111
0
10
1
1
10
1
1
0
0
0
0
0
0
0
0
0
0
1
100
10
11
101
11111111
11111110
0
0
11111111
11111011
11111100
11111001
11111110
11111111
0
100
11
0
0
0
0
0
0
0
1
11
101
101
11
11
11
11111111
11111111
0
1
11111110
11111111
11111111
11111101
11111101
11111010
11111101
0
1
10
11111111
0
0
0
0
0
1
10
1
10
111
0
11
11
0
11111101
11111101
11
11111111
0
101
11111101
1
10
11111110
0
0
11111110
11111101
0
0
0
0
0
1
10
11
0
101
0
1
110
10
11111111
11111110
11
1
11111111
1
11111110
11
11
1
1
11111110
11111010
11111110
0
0
0
0
0
0
10
100
11111111
1
0
1
0
0
11
11111011
0
0
10
11111110
0
11111110
11111101
0
11111111
11111001
11111100
11111110
0
1
0
0
0
11111111
11111110
0
0
1
0
1
1
11111110
11111010
11111100
11111110
110
110
1
10
0
11111011
11111100
11111101
11111000
11111110
0
0
0
0
0
0
11111110
11111011
11111010
11111101
11111100
0
11111011
11111000
11110110
11110001
11111001
0
10
11111111
11111111
11111100
11111101
11111110
11111110
11111110
11111011
11111010
11111110
11111101
0
0
0
0
11111110
11111011
11111000
11110011
11110010
11110001
11101001
11101101
11110010
11111001
11111110
11111110
0
11111111
11111001
11111110
11111101
11111110
11111111
11111110
11111101
11111100
0
11111110
0
0
0
0
11111110
11111011
11110111
11110011
11110011
11110010
11110100
11111011
11111111
101
1000
101
11111100
0
11111111
10
11111111
1
11111111
11111110
1
0
11111111
11111111
0
0
0
0
11111111
11111110
11111100
11111110
11111101
11111010
1
111
110
1100
11
101
1
111
0
10
110
11111111
11111111
11111111
10
11
0
0
0
0
0
0
11111111
11111111
0
0
10
0
100
111
111
110
111
1
10
0
0
0
10
11111101
11
101
101
100
0
0
0
0
0
0
0
11111110
0
10
100
0
10
111
110
11
1001
11
0
1
0
11111111
10
1
10
11
10
11
10
0
0
0
0
0
1
0
1
100
1
0
11111111
101
11
1000
11
11
0
11111111
11111110
11111111
11111100
11111100
0
0
0
1
11
1
0
0
0
0
11
10
0
11111111
0
11
1
0
0
101
101
1
0
0
10
1
11111110
11111101
11111111
0
0
10
10
1
0
0
0
0
10
100
0
11111110
11111100
11111100
0
11111111
1000
101
1001
101
0
0
1
100
0
11111101
0
1
0
1
1
0
0
0
0
0
11
0
0
0
11111100
11111101
0
11111111
11111101
0
11
100
11
10
100
11111111
11111101
11111111
11111111
11111100
0
0
0
0
0
0
0
0
0
0
110
10
0
11111110
11111111
11111110
11111010
11111111
11111111
11111111
11111101
0
0
0
0
0
0
11111110
11111111
0
0
0
0
0
0
0
11111111
0
110
10
0
11111110
11111100
0
11111011
11111001
0
1
11111101
0
11111100
11111101
0
0
0
11111110
11111110
11111111
11111111
0
0
0
0
0
0
0
1
10
1
11111010
11111100
11111110
110
1
11111110
11111111
11111101
11111101
11111001
11111011
11111110
0
0
11111111
11111110
0
0
0
0
0
0
0
0
1
1
0
0
1
101
0
10
11111111
0
0
11111111
0
11111111
11111010
11111100
11111111
0
11111110
11111111
0
0
0
0
0
0
0
0
0
0
1
11
0
11111111
11111111
0
1
11111101
11111101
0
0
11111101
11111100
11111100
11111101
11111110
11111111
0
0
0
0
0
0
0
0
0
0
11111111
11111111
1
1
11111111
11111110
11111111
0
0
1
0
0
0
0
0
11111111
11111111
0
0
0
0
0
0
0
0
0
0
0
0
0
0
0
0
0
0
0
0
0
0
0
0
0
0
0
0
0
0
0
0
0
0
