1111111011010111
1111111100110100
111011
10110000
111000
10110
100000
11001110
10101011
1110111
1111111100001110
1111111111011101
1111111110110101
1111111100100001
1111111110110101
1111111111100001
10100001
1111111111111011
1111111111011100
1111111011000111
1111111101100001
1111111111100101
1110001
11111
10100011
1111111
1111111110011110
110110
1111111111001110
1111111101111111
1000
1111111110111000
10110000
1111111
1111111101011011
1111111010100011
111111
1111111101100101
1111111100110010
1111111100101001
1111111100001011
1111111111011101
1111111111011110
1011000
1111111011101110
101000
1111111100011101
1111111101110010
1111111101001001
1111111100011001
1111111111101011
1001011
10010101
10011000
10111101
1111111110010101
1001
11100
1111111100100100
1111111110000010
1111111110010001
1111111110101101
1001111
1111111011011001
1111111001101001
1111111100111011
1111111001010011
1111111001000111
1111110101001010
1111111100010101
1111111110101001
100011100
1111111001001110
1111110111101111
1111110110001110
1111111001001000
1111111101100111
1111111010111001
1111111001100000
1111111110011010
1010100
100100
10110001
1111111101011111
1111111100110111
1111111101110010
1111111111101001
1111111100111000
1111111101100100
1111
1111111010001110
1111110110011111
1111111000111110
1111111000110101
1111110110000011
1111111011010110
1111111111110000
1111111001000101
100010110
1101011
11010110
1001011111
1000101000
101110001
110010101
10100011
10001010
11001101
1111111111001010
10101001
1111111110000100
1100
1111111111000101
11101010
1111111101111101
10010100
1000
10011011
1111111010000110
1111110110000011
1111111110110001
1111111111111001
1111111001110100
1001011111
1101100100
1100111111
1000010011
10011101
1111111110110101
1111110101000110
1011100111
1011001101
1111010010
10000010011
1111010001
1100110101
1110001101
1001110100
1011101
1111111111111001
1111111011110110
1111111110101011
1
1111111110101010
1011011
1000001000
1111111101101100
1111111100000011
1111111100111011
1101100111
11011110
1111111100100000
1111111100111100
1111101111010111
1111110000100001
1111111010011100
110
1111110111101101
1111110001010011
1111110011011100
1111111100010110
101011000
10000100110
1011100000
1000001001
101100100
1111000
100101101
1111101
1111111111111100
100011
100010011
101010110
110110111
1111111100111011
1111111000000111
101011001
10000011100
1001100000
1111111100000110
1111111100011100
1111111101110010
1111101100000101
1111110101101100
1111110110101011
110101010
1001001101
1111000001
1001010000
10010
1011000001
11011011100
1111010000
1110010001
110111101
1100000
111111
1111111101011101
1111110
1001101
11001110
10111101
1111111100011101
1111111000111111
101000010
10000001
1111011
1111110011111100
10110011
1111110011011001
1111101000111101
1111111010011010
1000110
110000110
10101011
1100111111
10000111000
1000010101
10000111111
10001000101
1101000010
1110110110
100011101
1111111101111111
11001
1111111100000001
10000100
10100101
10111010
111011
1110110
1111111101100100
100010111
1010010000
110011100
1001001110
1111111110010111
1111110101011111
1111111100000101
1111111111100111
1111111111101011
101110110
10001011100
1011101010
10110110
1000010001
10110111011
100100101
1111010111
10001110101
101111000
1100010
1010110
1111111110011111
100001
1000101101
1001001111
1111111110010111
100111110
1111111110110100
111001000
1110101
1111111111010101
10100001111
1111101111010010
1111110110110110
1111111101001101
1111111110100000
1111110110111110
1111001101
1010010101
1000100001
110010111
111101111
1101001011
100001001
1111010110
10100101101
100001010
1111111110101000
1111111101110100
1111111101110101
10110010
100110001
1111111111001011
1111111010000101
1001001010
1011110111
100011110
1011
1111111011101100
1111110110011100
1111110110000100
101000000
101000110
10010010
1111100111100001
1111110010110000
1111111010001110
1110011111
1110111101
101010010
100110010
1111111111111001
101000111
10001001110
110001100
1111111111100001
11001
10100000
10001001
1101001
10010100
110011001
1010010010
1010110101
101100000
1111111110000110
1100100
1111111110110111
1110111111
100011010101
11001010000
10001111
1111101010100000
1111101011011011
1111111000011011
1111110011010010
100001110
1111110101100000
1111111010001110
1111111101110000
10110110
1110000000
1100001
10101001
10111
1111111101111011
10000000
1111111111110001
100001011
1101111011
1101001001
1011011110
1111111111011100
1111110110011100
1010000111
101011011
100000011101
110110000111
101110010001
11010011111
1011111100
1111110000101110
1111111100010010
10011111
1111110111101000
1111101110000001
1111110101011111
1111110101000110
1111110101001110
110010111
100100111
1111100
1111111111011000
1111111100110111
1111111110101101
1111111100111000
1001010010
10000001101
10100100110
1001101100
1101001001
1110011010
1101100011
10111110000
100111001010
1111011010
10001001111
11000001101
100001101111
1011101101
1001111101
1010010101
110001110
1111110101100000
1111111001000001
1111110000110010
1111110101010101
1110010
1111111101100011
1101010
1111111100101001
100101
10111101
1000001
1001000000
1111111101100101
101000001
1111111000000001
1111111101110011
10110110
1101101111
1100110000
10100101101
110000101
101111000
10011100111
11000000011
10111001101
111000101
11000010010
1111110111101001
110010
1111111011111001
1111111001000010
1101101
1000100
1111111110000110
101101
1111111111110000
1011010
100001110
10110001
1000011010
1111110010010001
1111111000011000
1111110001101000
1111101100000110
1111110001110001
1111111011010110
10010000
1011110011
1111011100
10000000100
1101001000
1011110100
1110011110
1100110010
1000100110
1111101000010011
1111111111111101
1001101100
10100011
1111110110000001
1111110111001011
1111111111010001
1111111101000011
1111111111110111
1111111111111000
1111111111000100
11111011
10110010
1111101111001001
1111111010101011
1111110001011011
1111110100111111
1111110000110111
1111110110000011
1111111111010010
10001000110
1000101010
1111111110100101
10101000110
111101001
1111000011
1000111110
1111111000000011
1111101101110010
1111110111100111
10101100
1111110011000011
1111110100100010
1111110001110110
1111111100111100
1111111110000111
1111111010100101
10000100
10011100
1110001
1111111101110101
1111110011111000
1111111111010001
11101001
1111111000000010
1111111100010011
1111110101001011
1111110010001101
1111111111011110
1101101
111101001
1100001101
111001100
1010100011
1101110101
1111111110101001
1111110110100111
111001000
10111100
1000010001
110100111
1111110101111111
1111111110101010
1111111011100001
1111111110101100
100011
1111111110010100
1111111010111111
1111111011100011
1111110111111000
1111111010101001
1111110001010101
1111111100000100
1111110010001110
1111110000000111
1111111000001000
1111111110110111
10010111100
110110100
1001000010
1111111110100101
1110110011
110000010
111100010
10010101110
1011111101
1100011001
1001111001
11001
1111111010001101
1111111111001111
11011
110111
110100
1111111011010101
1111111111001101
1111111101101010
1111111000011100
1111110011001010
1111111100111001
1111111111111001
1111111001010101
1111110100111001
1111110110100101
1010011001
100100011
1001011
1100001
1111111110100111
1010100
1000001011
11001110
110101
1111110010101010
1111111110010111
110101100
11110010
1111111101001111
1111111110110111
1011101
100110
1111111101110011
1111111111010001
1111111001110000
1111111001110101
1111101111110101
1111110001110000
1111110110101011
1111111110100101
1111101111011001
1111110000100100
1111101110011010
1111101111100010
1111101110100010
1111110100010001
101000
10110001
111000
1111110100110001
1111111101111000
1111111001001001
1111101000110001
1111110100010100
1111111101111111
1000110100
11
100011
1111111111101001
1111111111011000
1111111111111111
1111111101011000
1111111011010111
1111111101100010
1111111011101101
1111111011101011
10101111
10000011101
1111110110101111
1111110001101110
1111101011100011
1111101110011000
1111100010101100
1111101011101111
1111110111101001
100100001
1111110111100110
1111111010111010
1111111101010111
1111111010001001
1111110011100101
1111111010101001
1111110101001110
1111111111000000
1111111100000110
1111111101011011
1111111111011001
1111111110011101
10110010
1111111110101001
1111111010100000
1111111101011100
1111110101001111
1111111101101011
1111111101010110
1111111110000010
1111110001111010
1111101111100111
1111110111010001
1111110010001110
1111101100011110
1111111111101110
1111110010010011
1111101100111001
1111110111001011
1111111101110010
110101
1111101110000101
1111111101001101
1001010101
100100110
10010011
1100011
1111111101110010
11010100
1111111101001100
1111111100001010
1111111110110010
1111111011100001
1111010
1111111101101001
1111111010101100
10110111
1111110100110000
1111101010011011
1111101110000000
1111110010101100
1111110001100000
1111110110010100
1111110111100011
1111111001001010
1111111111100010
100110
1111111100111111
1111111100000011
1111101101101110
1111111111010100
111000
11101011
11000101
1111111100010110
1011
10000011
1111111110100000
1111111111101000
11101001
10111
111010
1110100
1010001111
10001101011
10000001001
1111111010101010
10101011
1011111011
1101011101
1100111000
1110001111
1111101011
10011110111
10010000011
1010001110
101100010
100110101
1001011110
111011100
111101000
1111111111000001
1111111010011111
1111111100011100
101111
1010
1111111110101111
1111111110011000
10011001
11100010
1000011010
111100101
10001001011
10111011111
100001000101
100000110111
11100011001
11111100110
1101001001
1110100000
10101110010
10101101011
1111110111
1011110110
1100100111
1110101010
101100000
110010101
100100100
11000
1111111110001001
1111111100000000
1111111111101101
1110000
1101111
110111
101000001
1111111110100011
1111111100100111
101001011
101
110011000
1011100110
110110111
101010001
110110010
1001100000
110101010
1000100101
111100101
10100101
1001100000
101101100
101110111
101000111
11001
1111111110010001
1111111110110110
1111111101010111
1011100
10101
1111111111010101
1111111011010000
100111011
100010
10101001
1111111111101111
100000
1111111110011001
1111111111001010
1111111110001000
10011111
10000000
100111011
1111111110000010
1111111111110100
10011
0
1111111100110110
11110010
1010110
1111111111110111
1111111111101011
11011110
1111111111001010
10010010
1111111111100111
1111111111000001
1111
