1110100
1111111111101100
110110
10011010
1011110
0
1111111101011011
1111111110010000
10010111
1111111110101100
1111111111110001
1111111111111001
1111
1111111111000110
10
1111111111100101
1111111101110011
1111111110011011
1000011
1111111111010100
1111111110101101
1001110
101000101
11010001
11100101
10001100
110010
1111111111101100
1111111101011111
1111111110010111
1111111100001100
1111111110101110
100001100
1111111110101100
1010001
1111111111011101
10001
1111111111110100
1001011
1111111111001110
1111111111010001
1111111111001100
10010001
110101100
1111111110010110
10110010
1111111111000010
1111111110111000
110010
1110
1111111111010111
1100
1111111110010010
1111111111111101
1001000
1111111110110010
1000
1110110
101101
1100110
1111111100010011
1001101
100101
110110
11100001
1100111
1111111110000101
101001
1101001
110011011
1100001010
10011101111
111011100
1111111110101010
1111111100011011
1111111110011011
1111111101010110
1111111110010111
1111111110011001
1111111110110101
1101010
1011101
10100
1111111110111010
1111111111010110
1111111111000101
100110
1011000
1111111111111011
1111111011110000
1111111111111101
1111111101001110
1111111101010011
1111111011010100
1111111011101101
1111111001101011
1111111111001100
1111111111010100
1111111111100001
1111111100100111
10010100
1111111100001000
1111110011101011
1111111011111101
1111111100000000
1010
1111111101001111
1111111111011101
1111111111001010
1111111101101111
1111111101101101
1111111111100110
1111111110110100
1111111111000010
1010001
1111111101000011
110000
101100
100011101
1111111101011111
11011110
1111001
1111111110000110
1111111000110111
100100
1111111101010111
10010110
110010111
110000101
1111111110110111
1111110100011000
1011011
11110010
1111111100110110
1110111
1111111101111000
1111110110100110
1111111101100001
1111111110111111
1111111110110111
1111111111000100
1
1111111110101010
1111111110100101
11000
1111111111010111
101000010
111111010
100010110
1111111011110001
1111111000011111
1111101111011111
1111111001000110
110101
11
1111111100
100001110
1111111101000111
1111111011010111
1111110011000101
1111110101011110
111001111
11010101
1111111110110000
11101
1111111101101101
1111111100110111
10100
1111111101010000
1000001
1111111011001001
1111111111100001
1111111110111101
1111111100101010
1111111000110000
1111110100100001
1111110011010000
1111110110011001
1111111000110110
1111111010010100
1111111100101101
101100
101000110
1111111010000111
1111111000111011
1111111000101001
1011101
1111111000000011
1111111111111100
1111111101011010
111111
10110
1111111100101011
1111111111100010
1111111110010100
1111111101110110
1111111111000110
1111111110101011
1111111111001011
1111111110100111
1111111001011001
1111110100100011
1111101111110111
1111110011110100
1111101101000000
1111101100011000
1111110111100111
1110011
101001110
1111110010000110
1111110110011001
1111101101010010
1111110100111000
1111111000011100
1111111111110010
10011
10001111
1111111001001011
1111111101101101
1111110010000000
1111101110101100
1111110110110011
1111111010001001
10011101
1111111111101010
101010
1111111101010100
10011110
1111111001111100
1111111001100011
1111110011000010
1111110000101110
1111101001000101
1111110000001001
1111111101111011
101000101
111101011
1111110110110101
1111110111101001
1111111000011111
1111110100100001
110111100
1111111101000000
11000001
11011
1111111001011001
1111110011111001
1111101010000101
1111101000101001
1111110100010010
1111111010011101
1111111110101101
110111
1111111111001011
1101
1111111101001011
1111111010010111
1111110001011100
1111110010011111
1111110100001100
1111110011010100
1111111011001100
1111111110011110
1111000
110111100
1111111111000001
101000111
1011110100
1000101111
11011
1111110011011011
1111110011100011
1111110100000100
1111110011110110
1111101110000101
1111101000110101
1111101010000010
1111111000010101
1111111110111101
100100110
100100
1111111101010100
1001001
101000
1111110001100111
1111101111101110
1111101111010101
1111110001001101
1111110101001010
1111111101110000
1010110111
110101010
1111111110101011
100010101
11111110
10010000100
1111111101111101
1111111001010010
1111101101100100
1111101100001100
1111101110000110
1111101100110111
1111101001010110
1111101100110111
1111110000001010
1111111000011010
1111111110111110
1110110
10111011
1111111111011111
1111111111110110
1111111111110001
1111111000110001
1111110010100100
1111110000001111
1111110111010000
1111111101000100
10100010
101110100
110010011
1111111100100001
10010000010
10000001001
1010100111
1111111000111110
1111111101110001
1111111101100001
1111101100011101
1111101101001100
1111110000111111
1111110010111011
1111110011001110
1111110101111010
1111111000000001
1111111101111001
1111111111010010
1101101
10000001
1111111111101111
1011000
1111111110010100
1111111110110100
1111111001001100
1111111100011000
1111111111000100
1001001110
1111101110100001
1111110100111011
100000111
1001001001
11110110100
1011001100
1111111011001010
10001
1111101111001101
1111101111011001
1111101110110101
1111110111101000
1111111100011001
1111111100110110
1111111101110011
0
10101110
1111111110100010
1111111110100111
1111111111110011
1111111110010010
1001
100100011
1111111111001010
1111111101001010
1111111100001011
1111111100011001
1111110010000001
1111011110111100
1111100100010100
1000101001
110111010
10011100110
1100011110
1100011001
1111111100111001
1111101000100000
1111101101111011
1111110001110011
1111110110010100
110111
101000111
10110100
11000111
11111100
10000011
1111111111010101
10101111
101010
10110
1111111110000110
1111111111011100
1111111010001001
1111111000110001
1111111011111101
1111110100011000
1111100100110100
1111101100000101
111101101
111110101
10010100000
111000001
1011110110
1111100000001001
1111100000010000
1111110101010111
1111110011011110
1111110011001001
1111111011000011
101110
110000111
101100011
1001010100
1010111
11111
1111111101111111
1111111111111100
1111111110100111
111000
1111110111110010
1111110011010000
1111111011001011
110100111
1111111101110000
1111111001011011
10001001100
1001100
1111010110
10000010010
1111111111110101
1111111111000110
1111011111010011
1111011110010010
1111101000010101
1111110011111111
1111110010001101
1111110001010001
1111111101110101
1111111110000110
1000001111
111010111
1111111110011101
1111001
10000001
1111111110001100
1100001
1111111110001011
1111110110000111
1111110011100110
1111111011001010
1010010110
1011101100
100111000
1000101110
1111101111011110
1111111000000001
11100111
1111111111111001
1111110000001010
1111011001101001
1111100110100110
1111101101001110
1111110100011110
1111110011111001
1111110010110001
1111111001000001
111111
111101100
111011000
1111111110100110
1111010
1010011
1100111
1111111111010011
1111111100111001
1111110110101101
1111110001110100
1111110111101101
11001
100111
100111001
1111110101000110
1111111000001001
1000100
1010110
1111110011010000
1111100011001110
1111010110001000
1111100010010011
1111110000010110
1111111000001100
1111111111010001
1001010
1111111101000011
1111111110100110
11011101
1111111101100010
1111111101101110
1111111111101010
1111111111101100
1111111110101000
1111111101011100
1111111011000010
1111110000010010
1111101000001101
1111110000100110
1111111000101011
11101101
1111111111010000
1111110100000010
1111101000100110
1111111010100101
1111110000011010
1111100101101010
1111100011011001
1111110000010000
1111111010000111
1111111101010010
1000011100
1011111010
1000101000
1101
11111000
100011011
1111111111100111
1111111111111101
1111111110100001
111001
1111111111000001
1000011
1111110110110101
1111101000001000
1111110011111001
1111111000001000
1111111110000100
1000101000
1111111010011110
100111100
1111110010000110
1101011
1111111001011000
1111110000111100
1111111110010101
101000001
111110110
1010011001
10000011111
1001010100
100010000
101110011
1100110
100001010
1
1100011
1011111
1001
1111111111100010
1111111110001000
1111111010101010
1111101110111011
1111111110110010
100101111
10001011100
1111101000
1000000110
1010101000
1010010010
101111101
101100001
1111111011101100
1110000111
10010101110
10010111101
1010011001
1111011111
110001111
10111100
1111111101000101
1111111110110100
11001
1111111110001000
100001
111000
1000010
1111001
1111111110100010
1111111111101001
11
111
10
111111001
101
101101000
1111111000111001
1000111
1111111111001011
1111111011111010
1111111110100001
1111111101001110
1111110100011101
101011110
1010001001
1101010100
1100011111
1001
1111111101100100
1111111110011111
10111000
1111111111101001
10111110
1111111111110000
1111111111001110
1111111110010111
1111111111100100
100110000
1001000100
1111111111000101
11110
1010110110
11011001
1111111111011000
1111110111011111
1111110100010010
1111110111110111
10101100
1111111111010011
101001001
1010111
1110110000
1101010000
10011000100
1111100010
1111111110101001
1111111010110110
1111111101011001
1111111111011101
1100001
1011
1111111110000110
1111111101110001
1111111110111010
1111111101011010
10100110
1001100111
111001110
1001001
1111111100001001
100111101
11110101
111010
110111
1111110110001110
1111110011001000
1111111101011011
101011001
100111111
101111101
1000010001
111100000
1101100
1111111110010001
1111111011100101
1111111101110001
1011111
101111
100111
1111111111000001
1111111100101100
11
111100
1011001
1111111110111001
1111111110111011
1111111000110000
1111110010111100
1111111111011101
1111110100000001
1111110010101101
1111100111111111
1111100111111111
1111110000001111
1111101110111000
1111101111011011
1111110011111101
1111111000111010
1111111010010010
1111111100100101
1111111111111101
1111111100111101
110000
11001
1111111111011000
1111111110010111
1111111110111110
1111111111001010
1111110
1001000
1111111111100111
1111111110010011
1101
1111111111011000
1111111010100101
1111111010110001
1111111111010001
1111110011011101
1111110100111111
1111101111000100
1111101010001010
1111101111111001
1111101011100001
1111101100110000
1111110010011011
1111110110010010
1111110101111010
1111111001101101
10100
10110
1111111111100100
1111111101001101
1000
10100010
1111111100101101
100000010
111110
1111111110101010
1111111101101001
1111111111111111
1111111100001101
1111111101000000
1101100
1111110
1111111110101010
1111111101100101
1111111011110111
1111111001100001
1111111000111111
1111111000110111
1111111010101111
1111111101010010
110001
1111111001101000
1111111100011111
1111111101101101
1000011
111010
1111111101110111
10001000
1111111100100100
1111111101111000
1111111111011111
1100111
1011000
110111
100000
1111111110000101
101001
1111000
1000
1100
1110
11000110
1111111111000110
1111111101100001
1111111101101110
100100010
1111111110100101
1110001
1111111110011000
1111111101110011
1111111101101101
101011
1010110
1111111101110100
101010
1100000
1111111111110100
10110101
1111111111011111
