1111111011100011
1111111111110110
1111111110100010
1111111111111001
1011101
1111111110011101
1011011
1111111110101001
110111
10001110
1111111100001110
1111111110010101
1110101
1001010
10110101
1111111101011101
1111111111000010
1001011
1111111111110000
1111111110110010
100000100
1111111111000110
11000
1101
1111111100100010
1111111111010001
1000101
1000000
1111111111011001
10001
1111111111100011
1000011
1111111111110000
1111111110101110
1000110
10101010
11001100
1001000
10111101
10001100
101100101
100110
1100111
111111
11001001
101
10011
1100
1111111110001010
101101011
1000011
1100011
1111111101111011
110000
110010
1010110
1111111111110001
10000011
1111111110011111
1111111111101111
10001001
1111111110100000
1111111101110010
101011110
11101101
110100000
101111101
101001011
1001010011
1010111011
111000101
101000001
111111100
11110110
100110110
101000000
10000100
111101
110011011
101101011
1111111110000000
1111111110101100
1
1111111100110000
1001101
10001101
1111111111111010
1111111111001011
1111111101111100
10110000
1110100
100100010
1100000110
1110111000
10011011101
1101111101
10001111111
11110001111
11000010110
10101111010
1110101111
1000101110
1010001
1111111100000010
101110
1111111100111101
100111
100000000
1111111111011110
1001101
0
110011
1111111111110100
10101010
11111001
1111111110010111
100001000
1111111111110101
10001
1010110110
1110001100
10011011011
11000010100
10110010111
10111100110
11110110101
100001011110
11110000011
11010011000
10101000001
1111111111001100
1111111010101101
1111110101011000
1111110000011011
1111110010110001
1111110101110100
1111111100000010
1111111110100111
1111
1101001
1111111111011001
1100000
1111111110010111
1111111101001011
11011010
0
10011110
1000101
1000101101
1110000001
10000010100
1101111011
1100100110
10111010000
11001011110
10011000110
11010001001
1111100111
1101010100
1111111111001110
1111110001111100
1111110001110110
1111110101100101
1111110101110101
1111111101000101
1111111110111000
1011101
1011110
1111111111001101
1111111110011001
1100111
1111111111101001
10000101
1111111100000000
1111111001001010
1111111111110110
110011011
101100101
10011000
1110
1111111111110110
10100010
1111110111110001
100111
110010011
1111110010
101000110
101001000
1111111001110111
1111101110101100
1111111000111110
1111111000011111
1011000
0
1100001
1011111
1100111
1101001
1111111111100010
101
100100
11110111
1111110100100000
110100
101000011
100000
101111111
101010
1011
1111111011011011
1111110111000000
1111110110011001
1110111011
1100010111
10010100011
11000110
1111111111110101
101001010
1111110111010010
1111111001100100
1001000101
110001010
1111111110101101
1111111100001000
1111111110010011
1111111110110110
1111111111101001
10111
100010010
10100000
1111110110011101
100001000
1111110010100101
1111111001110000
1111111001101011
1111111000110100
101101
1111111111100011
11001111
1010001111
11000110011
10010100010
1101010010
11001011010
1111111101101101
1111110011110111
1111111011001100
1111111111011110
1011010110
101111111
1111111100101110
100111
11110000
1111111010010100
111
1111111111100101
10000111
1001010
1111110010011110
1111111101110110
1111111101001010
1111111101111001
1111111110001101
1111111010111011
101100000
1100101
10001110
1100000111
10000100010
11111010
1111111100001011
1000000010
1111111110000000
1111111001110111
110111
100100001
1111001001
111110111
1111111110001010
10000010
1111111110010101
10000
111110
11110
1000010000
10000100
1111111011000010
1111100
1010100001
1111110100111000
1111111001111010
100011101
11100
11101100
1101001100
1000110111
1111111010110100
101001111
11
1111110011001100
1111101110111000
1111111010100101
10110000
1110001010
10101011010
110001010
1011001
1111111110110011
1111111111001100
1111111110011111
110101
10001111
101001110
1111110111001110
1111110010110000
1111110101000001
1001001001
100100
1111111010001011
1001111110
1001100
1111111101011110
1100110010
1111111111011101
1111111111011101
11100100
101001111
1111110011010011
1111110011110011
1111001
1111110011101111
1010010110
11110011111
1111110100
101010
111
1111111111001001
1111000
110
1110110
1111111110100111
1111110111001001
1111111001101111
1111110110101111
1111111011101011
1111111000001101
110110110
101010001
1001010010
10110100100
11100101110
1111111101011011
11000101
10011010
1111111001000010
1111110110100010
1111111110000100
1111111000100101
1111110011101001
100011111
1101010101
1011010000
100001
1111111111001100
101
1111111111111001
1111111011110010
1010010
1111110001001000
1111110110111010
110100010
1111110100110010
1111110100110111
1111110111111100
1111111111100110
1111111011101001
101000000
11000110000
110011100
1111110110110001
1111111110010011
1111110010011010
1111110000101111
1111111101100111
1111101111001101
1111110101101001
1111110101011010
10000100000
1000011010
1000000010
100010
1001100
110000
1111111111001111
1111111101010001
1111111111110000
1111111100000100
1100100111
1111111111001110
101001100
1111110001001011
1111111100111101
1111111010011101
1111111000100110
110011001
10101101110
1111101101
1001101100
11100001
100110001
1111110101111000
1111110110001000
1111101110110101
10010000
1111110110110011
101011011
110011100
101010100
10000
1111111111011010
1111111101101010
1101011
110001
101000011
10101001
101110000
1111111010011101
110000110
11001011
100100101
1111111001110110
1111111110101101
1011110011
1111001101
1010100110
1010111000
10010110
1111101100000011
1111111011100100
1111111100110111
1111110001101010
1111111001111100
1111101101000010
110101100
1111011101
1110111100
1110101
1010111
1111111111010010
1101101
1111111111000110
1010100
1111111101110001
100011100
1111111001100100
1111100100111010
1111101111110100
11100110
1111111011100100
1111110111000110
1111111000011100
1111111111011100
1010000000
1001101101
1000101110
1111100111010000
1111101111111110
1111110111011110
1111101010000111
1111101100101010
1111101110011110
1000101011
1001001111
10101001001
111000010
1111111111101110
1001
1111111110100111
1111111110000000
1000011100
11000100
0
1111101111011100
1111100010100000
1111101111011101
100011
10000001
1011001011
1111111100111101
1111001
11011001
11011001
1111111001010101
1111101001001100
1111101010110110
11110011
1111111001110011
1111110111110000
1111110100110000
1100101001
1101110100
1001010001
1000110010
1111111101110111
101010
110000
1111111111100000
1000011100
10010011
1111110111100000
1111110010010111
1111110001011100
1111111110010010
1111111110111001
1110100
1000011000
10101011100
10010100001
1010000011
10100
1111110000111010
1111101011000010
10100011
1110011110
1111111100110000
10101100
1001000011
10011111011
1100010010
10011000
1101011
1011011
10111000
1111111101101000
1111111101101111
110100011
1010110
1000000
1111111100011101
1111111101001100
11011001
10011011
1001010010
110000011
11110101101
11100000110
110001100
1111111010111010
1111110101010000
1111111111001001
111010000
1100111
11010
1011011011
10011101001
100110011
1111111111101110
11010000
100
1110001
110001
10101110
111111
101111001
11010000
1000111
111101111
1001100010
10011000011
11100100111
11101110000
10111010100
100010001010
1110100001
1111111100001100
1111110011101001
1111110110111101
1111111000011110
100110001
1111111111110000
110101
10000101000
111001101
1111111001001111
1111110110101000
1111111110001011
1111111101100011
101001
1111111111001010
1111111111010100
1101000
111011
110110111
1111110
1001100000
10011010011
11000100011
11101101011
10010100011
1101001011
101101101
11010111
1111110010101001
1111110110010101
1111110001111010
1111111101010011
10000010
1111111101011010
1111111010010111
11101101
1011011
1111111001101111
1111110100000001
1001011
11110000
1111111011101110
1111111101110000
100111
1111100
1101100
100010111
110111010
1010011010
10010111100
10010101011
1001010101
10101111
1111111101000110
1111110011111000
1111111111110001
1111101101101001
10001111
1111111001111110
11101001
1000000110
110101001
1111111100101100
11101011
1111111110000011
1111110011100001
1111110101000101
1110
1111111111011111
1111111110110111
1111111111000011
1111
1010110
1011100
1111111111010101
100000
1010100100
1011000101
1100001001
100101001
1111111110011011
101110
1111111101110001
1000101
1111101110010011
1111110000100110
1111111100100011
11100100
1011010
1111111010011100
1111111011110000
1000010
1100101
1111111111010101
1111111010011010
100111
1111111111001000
100
10111
1110100
1111111111100111
111100
11100110
101111
11111001
1000100111
101010100
1111111111110001
1011111
1111111110101001
1001001000
1111111111010010
1111111010011111
1111110101011001
1111111100001010
1111111011000001
1111111010001101
1111111001101111
1111110010100011
1111111101000100
1111111100010001
100000111
110011101
11001100
10001100
1111111110110101
1111111100110001
1111111101001110
1111111110110000
1001011
1110010
1
100101011
1111111110011110
1111111111010100
1111111111110011
111110111
1111111110100001
1111111000000110
10110101
1111110011001110
1111111010000001
1111111010000010
110010
1111111011001001
1111110101111000
1111110101100000
1111111011111101
1111111110101100
100100
1001000
1111111111000000
101001
1111111101101010
1000000
1111111110000111
10100101
1111111111111000
1111111110010011
0
1111111110110110
1111111100000111
1111110111000000
1111111011000000
111111
11100000
100101100
1111111110111010
1111110000011010
1111111010000100
1111111110111101
1111111101010010
1111110110111111
1111111010100001
1111111000000101
1111111010010010
11100
1000001
1111111111110100
1111111110111110
1111111111000010
111011
1111111111000010
1111111110010000
1111111111010101
1000110
10001110
1111111110001011
1111111101101011
1111111110101110
1111111111000100
1111111010010101
1111111100100101
1010
1111111111000100
1111111111011101
1111111110110110
1111111111011100
11001
1001110
1111111100011010
101011
100110
1111111111000000
1111111111011111
1111111101101000
1111
1001100
10111
1110000
