1111111111110111
1011000
100110
1111111111000101
1111111101111011
1001111
100001
1111111111000110
11110000
10011101
110000
1111111011011011
1111111111101000
11011
111001
1111111101110000
110100
1111111111011011
1111111111000111
11001001
11000
1111111110001010
10100110
1111111111111100
11100
1101111
1111111110111101
110
10001101
1011111
100000
1111111111001010
10000001
110000
10010100
100001110
1101001
1111111110110111
10000101
1111111110110100
1111111110011100
1111111110100110
100110
101101
11110001
1111111101111100
110000011
1001001
1100001
1110010
11000001
1111111100110001
1000101
1111111111100111
1111111111011001
10110000
1111111110111000
10011010
1111011
1111111111000010
1111111111011000
1111111111110100
1111111110101001
1100001
100011010
10011000
100100111
101101000
111111100
1000001010
1001110111
1010001000
1001001010
101110011
1101111
11001111
10000001
10111111
1101000
10000010
110110
1111111100011111
1111111110000100
1111111111000011
11111100
1111111101010101
1100
1111111110111010
1010111
10001010
11100011
11101110
1011
1000000011
1001111101
10111111
1111111101011111
110010010
1001101101
1001000010
101101001
1111111111000100
11101
1010011110
101010000
1100110
1111111011101000
1111111110000110
10100110
1111111001111100
1111111011011011
1111111111100111
100001
11100
1010110
1111111101100010
1111111111000101
11000101
1111111111100010
101100
1111111101100111
1111111101001110
1010110
1111111000000000
1111110110001100
1111111110010011
1111110100110001
1111101110101001
1111110000101100
1111101110111011
1111101101100000
1111111111100100
1111100
10011111
1001001
1111111000001101
1111110101100100
1111111010110110
1111111110100011
1100
1111111100101010
1111111111011000
11111
10000001
1111111111001100
10001110
101010
1101101
1001111
1111110110010001
1111111110011000
1111110001110101
1111111000111101
1110111
1111110010101100
110000101
1111111001011110
1111110000110101
1111111000111000
10100
1111111010111101
1111101
10111111
10000000
1111111101110101
1111111101011000
1001010
10100100
1111111110100100
1101001
100001
1111111101110111
10010101
100001
101100
100101010
1111111100000001
1111111010101000
1111111111111011
1111111000011000
100010
1111111111001011
1111111011111000
1111111011111110
1111111011001111
1111100101111100
1111110111111000
1111111101011010
1111111011101000
1111110111111110
1111111001011000
1111110111000110
1111110111000101
1111110111110111
1111111101111000
1111111110110001
10001010
1111111110110101
1101101
1111111110001001
1111111100110101
1111111100001011
1111111011110011
1111111110110000
1111110110101110
1111110101101101
1111111000100111
100010010
1111110010111110
1111101001100100
11100011
1111011
10101111
100001110
1111111110001001
1111111001011001
1111110101001011
1111100100100001
1111111001010111
1111101001100000
1111110010000001
1111110111111110
1111111110100110
10010000
1111111111010100
11111
1111111111111111
1111111101000111
1111111100000010
1111111101001001
1111111101011101
1111111000001001
1111110011011001
1111110000101110
1111110110010001
1111101110010100
1111110001010110
1111110100000101
1111111110001110
111011001
1111111000101111
1111000110
1111101000100111
1111101011000011
1111101011100100
1111100011000000
1111100011100010
1111011111010000
1111100110011110
1111110110111101
1111111101101100
1000000
1111111111111010
1001101
1111111111000100
1111111010101010
1111111110011000
1111111001000001
1111110101110010
1111111000100110
1111111010011100
1111111010011010
1111110011111011
1111101001001010
1111111011000010
1111110010011010
1111110111000001
1100111000
1010110010
1111110111011001
1111100110000010
1111100101100010
1111100011111011
1111101000100011
1111100010101010
1111100011000110
1111100110110110
1111110011010111
1111111010101100
10110000
1111111110111110
101000
10111
1111111011100011
1111111000011000
1111111100001000
1111110110111101
1111111011001110
1111110100011000
1111111010000000
1111101111111010
1111110001010001
1111111010010000
1010011
100110110
1111010100
101001010
1111111011000000
1111111110001110
1111101101111100
1111101010011101
1111100100100110
1111100111101111
1111100011000010
1111101000111000
1111110011110011
1111111110001100
100
1101
1111111110100101
111111
1111111001111101
1111110011110001
1111110110001000
1111110010111011
1111110101101001
1111110101000101
1111101110101000
1111101111001100
1111110100000100
1111111000001100
1010100100
10000110011
10001110110
1010110110
1111110110001101
1111110100101110
1111110000011110
1111110011001000
1111111011011101
1111111000000111
1111101100100101
1111100111010110
1111101111010101
1111111011111110
1011010
1111111111100000
100101
1111111110101001
1111111010100000
1111110110000100
1111110100101111
1111101000101101
1111101101100000
1111101111111100
1111100010001010
1111110101111110
1011110101
1001011000
1000101011
1011101000
1001010110
1111111100001010
1111110000110010
1111111010110011
1111111000000010
1111111
1111010001
1000100101
1111111001010000
1111110101001100
1111111011001101
1111111100000100
1111111100100101
101100
1111111100111100
1111111111100110
1111111011011101
1111111011010110
1111110101101001
1111110001110101
1111110000011000
1111101110111110
1111111001010011
1101011111
1101110000
101001110
10001100111
10011100101
1111111001110110
11010111
1001011
10100011
101111
1101011000
10001000101
1000110011
1011010001
1111111101000010
1111001
10010
1000101
1011110
1111111111101101
10000111
1111111101010101
1010111
1111110010100101
1111111100101100
1111111001001010
1000100110
10000110011
11010100100
110101000
1011101101
1100000
10011011110
111111111
1010111101
111010
11011100
111000001
1111010111
10101000001
10001100100
1101010010
1101011
1001100001
1111111101110000
101100
11111
1011010
1111111100011011
10111111
1111111110011111
1111111010100001
1111111100001010
1111111101111111
1110011100
11010010111
10100001010
1001001111
1000111111
10111011101
1001111000
1111111011111101
1000111011
1011000
1111111100100101
100101011
1000100000
1010111110
1101100110
100100011
1100000010
111101101
1111111101001111
1111111111011010
1111111100110010
10001110
110000
1011101
1111111100011100
1111111101010010
1111111100010111
1011100110
10100000011
11101110001
10010110001
100101000
1111111111000001
1001100001
1000111111
110101001
10
1111111100110010
1111110101011110
100111110
100010011
110011111
1100101100
1000010001
111011100
1010011010
1111111110000000
1111111110011111
1111111110101010
10000
11001
11000011
1111111110101011
1111110110000110
1111110110101001
1111110111011111
1111111111101111
1001011010
10001011010
11011010
11010010
110110000
1101100110
111001110
1111110111000011
1111110000011100
1111111100100000
1111111101110000
1111111011000010
111110110
111010010
1111111101011110
1111111110100111
110011001
10110011
1111111111101100
10110
11110
1111111110011110
100011110
1110110
1111101011000010
1111101001110110
1111101010110001
1111111110001101
1111111110111011
1111111011010011
1111110101000110
100011001
10110111
10000000
1111111010
11110011
1101100
10001110011
10001111
1111111111010110
101111101
1111111101011110
1111010
101111101
10110
11101110
10010010
11001010
1111111111100100
1111111110000000
10010110
111111
1111101011111100
1111101000011110
1111101100000010
1111101110100010
1111111100101100
1011101
10100001100
1010101111
1111111110010110
1111111011111111
11000000110
10000101011
11010011
1111001000
111000110
1000001000
111101111
1111110111011001
1000110110
11001000
10100000
1110
1111111100111001
10111111
1111111110111010
1111111101011101
1111111100110011
1111111010101000
1111110111010101
1111101000101001
1111101011000001
1111101000100111
1111110101011001
1111111110100101
10001100101
1011111110
1111111000011110
10000011011
10001101010
1100010010
1100011011
1100101010
1111111000100100
1111111110001010
100011
1111110011111011
1111111010011010
1111111111100110
1111111110100101
1010100
111000
1111111111100010
100001000
1111111100100001
1101010
1111111001101100
1011110
1111111011001100
1111111000100100
1111111100100001
1111111011010010
110001000
1111111110101101
100001101
1111110100100000
1111110001011001
1111101010011100
1111110111110111
1111101110110100
1111111110111100
1111110101110111
1111111001001001
111001
1111111101111110
100011011
10101110
100001011
1110110
1111111101101010
1111111111101000
1111111011011111
1111111111010001
10011
1111111101011111
1111111111001001
1111111001101000
1111111000111100
1010011010
111011000
10000000000
11010
1111110001110101
1111111010000001
1111110001010111
1111110111010100
1111111001101001
1111101111010101
11010000
1111110100011010
1111111101011001
1
1111111010100101
1111111011100001
101110
11110110
11110110
1111111111111000
1111111111100011
1111111101111010
1010
1111111101011111
1111111111101001
11000110
1111111111100000
1111111010111110
1111111100111100
1001001100
1100011101
1010111100
101011101
1111111010010110
1111110110100010
1111110101101000
1111110101101000
1111110110111110
1111110101000011
1111110000011001
1111111101010000
1111111111000100
1111111100000110
1111111100100000
101111
1110
11110
1111111111101000
1100000
1010
1111111110000111
1111111100011111
1110
1111111111001101
1111111110110011
1111110111110110
1111111111000001
1010011100
1111111111000011
1111111000110101
1111110000101000
1111101010100001
1111110100011010
1111110010000010
1111111100001110
1111110100100101
1111110100011101
1111111011011000
1111110111011001
1001010
1111111010111010
1111111100001011
100101000
100101100
1111111111101111
1110101
10101101
1110011
111101
1111111110100101
1111111111010101
1111111110111110
1111111110101011
1111111000010010
1111110111001110
1111111001111010
1111110110000001
1111110101010011
1111110010010101
1111101100101010
1111101000101111
1111101100000111
1111101000111111
1111101111111110
1111110000101011
1111110001010001
1111110011011110
1111111011011101
1111111101001110
1100011
111110
10001111
10011001
10011110
1001101
11001011
1111111111011111
1111111100011110
1111111111001010
1111111101100011
1111111111000000
1111111110001111
1000001
1111111011011111
1111111111010100
1111111100110101
1111111001001000
1111110010000010
1111110100010110
1111111010101101
1111111010100001
1111111010000001
1111110111110111
1111111000010110
1111111000100101
1111111110000100
1111111111100011
1111111101101001
1111110
1111111111101010
1111111110101010
1111111101011101
1111111101001010
1111111100110110
1111111110111110
1111111111001010
1111111111011011
100010
1111001
1111111100011001
1111111101010101
11010101
1111111101010100
11010
111111
1111111110111110
1111111101010001
1111111100101000
11111001
1111111110010010
1111111110100000
1111111110010000
1111111111001010
1011001
10000
1111111111000001
10001
110110
1111111111001010
1111100
