1110110001011100
1101010100001
1000101011001
1111110001000010
1111110111110111
1111011111111010
1111010100111000
101001001010
1000110101010
1111010001010011
11110101100
10001100111
1111111010000001
1111011100010011
1111011011101000
1010100011110
101100111101
101010101101
111100110011
1111001000100001
1111111110110101
10111010111
1110101011000000
100001010000
1111000000100000
1111011000001001
1000000000111
1111001010000101
1111100100011110
1111100110110110
