1110111010110111
1110110110010001
1111100111110011
1110100110001011
1000000110001
111100100000
1001011011101
1110111101110111
1100011100011
1111000000111000
101011110000
1110010000101100
1111010100001010
1111010100110101
1111000001001
1110100110001110
1111001100001100
1011101010100
1111011110100110
1110110010111
1101100111000100
1111101010001100
11110100101
10000110011110
1111000110111000
1101100110001101
1111011111110001
10000111101001
1010011111101
1110111011100110
