11110010
10010100111100
1010000001110
1110011010000001
1111011110101010
1110110001110001
1111001110110001
1100010101
1110100110110001
1111000110001010
1111001111011010
111110011110
1110110101000010
111010100111
1011001010
1111000001000101
10011010100011
10001101110
1111011010001110
10100101110
10010110001000
1111010001001001
1110011001101011
101011100010
100100010
1001001000011
1110000110000
1110100000110111
1110111100100100
1001101000110
