1111111111100110
1111111110101001
1111111101110000
100001
1111111110101101
1111111110111001
1110010
1111111101101111
1111111110110101
1111111011110110
1111111111001000
1111111111011010
1111010
1111111101111000
1110000
1100
1101101
1110011
1011110
1111111111100111
1111111100111110
1111111110101101
1111111100001011
10011100
10011011
1111111100000001
1111111111001001
1111111110011101
1111111111110100
1111111101111010
11010100
1111111110101000
1111111110001111
1111111101110111
11010
1111111011111101
1111111110110101
101101
1111111101101010
1111111111101001
1111111100101111
1101101
1111111111101000
1111111111101111
1111111110101100
1111111010110100
1111111101111101
1111111101011110
10111000
1111111110110101
1111111110110101
1111111111110000
1111111111000011
1111111111001011
1111111111101111
101100
11011110
1100
1111111101010110
1010101
10100100
1100100
1111111111010110
1111111111101010
1101
11001111
100
1111111110100010
1111111111000011
1111111100011011
1111111101111000
1000110
100000001
1111111111001110
1111111110010000
1111111110101010
1111111110001010
1111111111100111
1111111001010010
10010
1111111111010100
1111111111110011
1111111110110101
1111111111110010
1111
1000001
101001
10110101
1111111110011111
1111111101100111
1111111100010010
100010100
111100000
10110110
1111111110111010
1111111101011110
1111110110110011
1111110001100001
1111101110110110
1111111000101101
1111111011011110
1111110111101010
1111111010100010
1111110100001101
1111110110110000
1111111001010000
1111111011011110
1111111010100011
1111111100101001
1111111111011110
10
1111111100101011
1111111100110100
111101
1111111110100101
1100100
11001010
10010001
1111111111010011
1111111101110001
10001000
10010000
1000101
1111111001110001
1111110100110000
1111101001000011
1111101110110011
1111110000110001
1111110011001010
1111110011110110
1111111100100001
1111111010000100
1111111011001010
1111111010100010
1111110111111110
1111110100001100
1111110110000010
1111111011110001
1111111101110111
1111111111000010
1111111101101101
1111011
1111111110001101
11000
1111111110001011
10010001
1001
1000110010
111001010
1111111011010101
1111111011100110
100001010
1111111101001110
1111110110001000
1111110011110001
1111110100101110
1111111101010000
10001001
1111111011100110
1111111111010000
1111111110110001
101111110
1111111110101110
1111111011010100
1111110101110010
1111111111011000
1100101
1111111111011001
1111111111011110
1111111111101100
11111100
1111111111011101
1111111110100010
1111111111000001
11101101
101010101
1011110000
1110110111
10010110101
100111111
1111111101100101
1111110001101100
1111110000100111
100000111
11011000
1001011
1111110110000000
1111111100111001
1000100
10001010
11101100
1111110101001101
1111110101010001
1111111001100001
1001100
1111111110000011
1101011
11111
1111111111101010
111100
1111111111101110
1111111101101111
111110001
1011100011
111101110
1101011000
1001011110
1010000011
100001
100001110
1111111110101111
1111101110111110
1111110010110011
1111111011110001
1111111010101101
1111111100100111
1000011101
1010011011
101011011
1111111001101111
1111110001101111
1111110101011010
1111111101100000
1111111110010011
1111111101110101
1111111111010111
10001100
1
1111111100001010
1111111001111100
1111111101111011
1100001111
10001111111
101000000
10010000011
1010111011
111101001
1011011001
10001101010
1111110111011011
1111110111101100
1111111001101110
1111111111001101
1111111110001111
110010
1111111101010010
100001110
1111110001110010
1111101000000111
1111110011000111
1111111101100011
1011011
1111111111111011
10110
10011010
1010101
1111100
111100100
1110111
110110000
10101
110001011
10110001011
1100011101
11101001100
100000110101
101100110
1111111110110000
101010100
100001101
1111111110100110
1111111101000111
1111111100110100
1111111100010000
110010
1111110101000110
1111101100001001
1111110110101000
1000000
1110111
1111111101001100
1111110
1111111110101000
1111111011000100
1111111100101111
1001111001
1110010100
1001001110
1101110101
1101110110
10110110010
10011001010
10100111111
1011000011
1111111100101100
1111110001111001
1111111000101100
110110001
1111110110
1111111100101000
1111110110011101
1111111110011010
1111111111111010
1111110110010110
1111110110100011
1111111001101000
1111111101001100
1111111100101001
1111111110111110
1111111100111001
1111111111011011
1111111000001100
1111111000010101
1001111110
101000111
1111111110011111
1011000001
1001000001
1111111000001001
1111111011001110
1111101100110111
1111100100100001
1111100101001110
1111100101101010
1111110001111010
10011100
100001110
1111111110011110
1111111111111100
1111111111010000
1111111101100011
1111111001001000
1111110101010111
1111111101101111
1111111100001100
1100010
1111111111010010
1010
1111111101111011
1111110111101011
1111110000100000
1111110011011000
1111100110000100
1111101000000100
1111110011110001
1111100001110100
1111001111111111
1111010101000011
1111010001001111
1111010000111110
1111011110100101
1111101101101001
1111110011101111
1111110111011100
1111111011110101
1111110111100010
1111111100001100
1111111101010000
1111110100110010
1111101101001111
1111111100110110
1010001111
101010
1111111111001101
1111111110010010
1001110
101011
1111111000011010
1111101000101010
1111100100011010
1111011000011110
1111001111011001
1111001110000001
1111001011110000
1111000010011011
1111010000001101
1111100101001011
1111110000100110
1111110000101111
1111110110100001
1111110110110011
101001111
1111110000100110
1111110000110000
1111110110101011
1111110111101101
1111110000010011
1111110010000001
111010
1011001000
11111001
100011101
1111111100010011
1111111111111100
11011
1111110100011110
1111101100110010
1111011011101001
1111010011001000
1111010010000000
1111010010111100
1111011110010001
1111101100101111
1111111010000100
1111001
1111111101111101
1111110111010100
11
1111111100110100
1001000100
1111111101110101
10101001
1111110000101010
1111110100000110
1111110110101010
1111110111101010
100000000
111110101
100101010
10111111
10001
1111111101101111
1010000
1111111111110100
1111110010101011
1111100101101100
1111100000010001
1111100110001100
1111110110011101
10100000
110110100
11010111
1010011001
1010110110
100100101
1010101100
1011
1001000001
1111111110000101
1111110100101111
1111111111100000
11010101
1111111011101011
1111111111000101
1110010100
1110011100
100010110
10010111
1111111111101011
1111111101101100
1111111111111000
1101
11110110
1111110010000101
1111111010100101
1111111111111001
100100010
1110001101
1101011010
1111111101100111
10101111
10000001100
1110001111
100001100
101001100
1001101011
110010101
1010100111
101111110
1011001110
1001001011
1111001001
10000000011
10001111111
111100101
100110
101001
1111111111011110
1111111101001011
1011111
1010110110
111110000
1100001
1111111101000111
1000111001
110110
1111111110000101
1111111101000100
10010010
1101101
1111111111001011
1001111000
1111111111101000
110110111
110110
11111111
1111111101011011
101001011
10000010000
1001010000
1100001010
1101011100
11110010
10001101
11010001
10011
10111
101010101
1111101110
1110000000
1111111101110111
1101111000
1111111100000001
1111101110011100
1111111000001111
1111111110101011
111010001
101100010
1101001101
1000101000
1111111110011110
1111111111000110
100011001
1111111111100100
1111110101011001
1111111101110111
1000001100
1011110010
10100010011
10000100100
110010100
10110000
1101110
110101
1111111111001110
101101111
11001110100
1011110011
1011100101
1101110100
110010010
1010100100
1111111111101011
1010111001
1111110
110101110
1010001
111010100
1000110100
11011110
1111110011101101
1111111100100011
1111111011011110
1111111011001011
1010111101
1001110010
1011010100
1010001110
11000100
1111111111111101
1111111110011110
1011100
10011101
101111111
10100011001
110011101
10000101100
11001001100
10101100111
1111111110110010
1111111111101011
10000000101
10000
101010
110011001
101101101
1000101
1111111101000101
1111110110011011
1111110111111001
1111111011000100
1111111111101101
1000000101
1001101001
10010010
10010111
1111011
11001110
1111111111101010
1111111101111100
1111100
111011111
1011001100
1001011011
1011101
1111111100001010
1111111110110010
1100010
101011110
100010011
1111111100011110
1111111111000000
111000
1111111111001011
1011111
10100110
1111110111111011
100111
1101010
1000111000
1111000010
1101100011
1010011110
101111110
1111111110110100
110110
1111111110101101
1111111110001100
11
100101001
10110101
1011101110
1111111010011101
1111111100101100
100100001
10011100
1111111011110000
1111111111101110
111110
1111110101011000
1111111011011010
1111111010010110
1111110111000001
1000000011
1010100100
1000010111
1010100100
1110100110
1010110000
110101000
101000000
100001110
1111111110011111
10000101
110
1000110
1111111111010110
1111111011000001
1111111001100100
1101
10111111
1000110000
1111111100110111
111101111
111100111
10111100
1111111001111100
1111111000001010
1111111011001110
1111111101010110
1101000
1001011110
110010010
10011100
1111111101101000
1111111110101001
1111111110101011
1111111111101100
11110001
101110111
1110
1111111100010111
1111111111011101
1111111110111110
1111111111001001
1111111101001101
1111111100100110
1111111111011000
1111111110000110
1111111111011101
10011111
1111111100000011
1111111001100100
1111110111010111
1111101100010000
1111110100011000
1111110111100111
1111111101011011
1111111111000101
11001000
1111111001011011
1111111100110100
1111111101011010
1111111111001011
1111111110101100
1111111110000100
1100110
11101000
1111111111010001
1111111110110010
10101010
1111111101110010
10001
1001
1011111
101
10110
1000101
1010001111
1110100
1111111011000110
1111111000100010
1111111110010110
1111110111111100
11011101
10000111000
1001110111
1111111111111000
1111111111000111
1111110111001111
1111111100010100
1111111011101111
1111111001000001
1111111101111101
1111101
10101000
110011
1111111
1010001
10101101
1111111110101001
10111001
10011
1111111111010111
1111111110100101
1111111110100100
1111111110101111
1111111110010101
1111111001110010
1111111011010000
1111111110101010
1111111001110100
1111111011111011
1111111101110010
11011
1111111110101010
1111111110011011
1111111110110100
1111111011000100
1111111000011111
1111111101101100
1110111
1100000
11100001
10100001
1111111110011011
1001001
1111111111011101
10000001
100110
10110011
1111111111011111
1111111110011010
1111111110100001
10011100
10111111
11001001
110
1111111100111110
10001001
10110001
11000110
101001
1111111100010100
1111111101100101
100001
1111111011101111
10011
1111111100000001
1111111110101101
1111111101000111
1111111101000111
1011110
10001
