1111100
1001101000
1111011110110001
11000000111
111110001111
1111010010110011
110110110
110110010
1110111001011000
11101101101
1111001011100111
1110011101111011
11111000011
100110011100
1111111010111011
1111011111110100
111000111110
110011010110
1111100110100001
1111110001111111
1110010101100110
100001111100
1111111110010110
11111011001
1111011001000000
1111100010110010
1111001110010010
1111001001110011
1010110011011
11111000
