100101010
110011011001
1000010001000
1111011011111110
1111001110101010
1111111011011101
1111101111111001
100001100101
111010100001
1111111100101010
1111001011101010
1100010000
11000001110
1111111010001010
1110111001010111
110111101
1111001100111000
1111101010111010
1000011111001
1001110101
101001011010
1111000000
1110011001100001
1111101011101001
1111101111011011
11001010111
1111101100
1110111100110101
1111111011101000
1111100001000111
