11011101001
11100000100
1111100001000001
1111101001010001
1111101111010100
1111101110010001
10010001010
1111010101010011
1111101000100110
1111111010110001
1111000010101100
1111111000111111
100011001000
1111111001100110
1111011110111101
1111011111111100
1111100110000111
1111110100110100
11100011
1110110100
1111111000010101
1111101100101010
1111011000111001
1111011110101101
100100100110
1111110100101000
1111011011110010
1110111100111000
1101010010
1111111010011011
