11011111101
1111010010001101
1111010101100001
1111101101000110
10000111000
1111100100000111
10110101001
1111011111010001
1111001010000010
10100010011
1001011011
1111110101001001
1111101001001000
1110011101
10000101110
1111001110011000
1111111001101001
101110101100
1111100011100111
10100110010
1111100001010011
1111101100000000
1001000001110
1111110001000111
1111111001011011
1111111011111101
1010010
111110000011
1111100111101000
100000010100
