101010010010
1111110001110111
1111011101000111
1111000111111010
1111101010010100
10000000
110011100100
1111101110100100
1111101001111100
1111000111
1111011101000000
1111001110101100
111111010101
1001111010
1111011101111001
1111111100110110
1111010101101011
1111011001010101
1111110000100011
11100101101
1111111111001110
1110111111111111
1111101111000011
1111011110010100
1111101101001101
1111110101001110
11010111110
1111100111000001
1111100100101101
11010110010
