1111100100010110
1111011100011110
1111010011100011
1010100100
1011110101101
1111010011101101
1111100100000010
1111101110111011
1110111111101001
101010111011
110101101
1110100001100001
1111110001010100
101101100001
110010111011
1111010100111001
1100111111111
1001000011101
1101000010
1111011111100100
1111000010111100
11111101001
111000010011
11000011011
1111011111001101
1110111000011000
1111111101001100
110101000
110011001111
111001001111
