100000011000
1111100010000111
1111111011001001
1011010110
1111111001110101
1111100101011000
10110111100
1110111011101001
1111101001101011
101101100
1110111110011000
11
1111011000
1010101
11010110010
10100111111
1111111100010010
100010001
1101101101
110000000101
1001101000100
1111101101100100
10100111011
1110110100000110
11110111011
1111110001010010
1111111111111010
1111011110101100
1110111000001101
1000010101010
