1111111100000000
1111111010000000
1111011000110001
1101110111111011
10110101100
100011100011
10001101001
1111101011001101
11101000000
110100000011
1110010001011001
1111100000001000
1111101001110100
1111110100110011
1011100011
1111010100000010
1101100010100
1111001010101111
11010100111
10001001110111
1111110011100010
1011010110101
1111101111010100
1111101001101111
1111101010100010
1110110110011000
110001010100
1111010011010011
1111101010111011
1011001100110
