1
10011010
1111111111010001
1111111110011000
1111111110111010
10101000
100010
1111111101111000
1111111101101000
1111111110110101
1111111110000101
100001110
1111111110100111
1011
10010111
1111111111111100
1111111100011101
100001
100101
100100
10110000
1111111111011100
1111111111001011
1111111110101110
111101
1011111
1111111110110010
1111111111011001
1000010
1000001
100111
1011011
110000
1001001
1101111
1001010
101110
1111111111010010
11010001
11100110
1001010
1101001
1111111111000001
1111111110101101
10111010
100110100
1111110
100101000
100110
1100010
1001100
101110
1111111100101000
1011111
11111100
1111111101111100
111010
1111111111101110
101111
1111110
111111
1111111111101011
110100
101000101
101101001
10100010
1111111111111111
110010010
1011001010
1001011110
111000011
11110101
100111001
10110000
101000110
111101010
10111000
10101001
101010111
10010011
100011010
100100
100010001
1111111110100111
1111111111010000
1111111101110100
1111111111001011
11101010
1111111110011101
1101100
100101100
111011100
1000000010
1100111100
110110100
1010111100
1100111011
10000111110
1011111100
110110111
101100100
1010111
1111111010111000
1111111100000010
1111111111100000
100011110
1110111
11000010
1111111111110111
1111111011101000
1111111101110100
1111111110100111
1010000
1111111111100110
1111111100101110
1111111111111100
1111111110101101
101000
10000010
111100011
1010011100
10000001111
1111111110
10000000101
1011010000
1101010001
1001101100
10010010000
1011010000
1000101001
1111111100101011
1100
1111111110100100
1111111000100011
1111111001110111
1111110111101001
1111111011100011
1111111111000100
1111111111111101
1111
1111111111000001
1101110
1111111111101111
1111111
1111111101111101
1111111111111100
101011101
1000100100
1000010111
100111101
110110111
1010000100
1000011110
1010111111
111000011
1001011101
11010010111
1101000100
1111111110110010
1111111111101000
1111111100011011
1111111111100001
1111111011110000
1111110101110101
1111111111101011
100001100
1111111110111100
1111111101100001
1110111
10101100
1111111111011000
101110
1111111111000000
1111111111100110
1001010
110011101
100010100
1010000
100100011
100111000
1111111111010110
1001101010
10000011011
1000000011
1000010111
1111111100011111
1111101110101111
1111110010110011
1111110010100000
1111110011100110
1111111000000101
1111111111100010
1010011
1111111111100110
1111111111001011
100101010
1111111111111110
1111111110010101
10001111
1111111110001010
1010101
1011100101
1111111111110111
1001000010
11001110
1011011101
11
1110100011
1111111111010100
1001010100
111100000
1110000
1111101100010111
1111101111001011
1111110000000110
1111110001111001
1111111001001000
1000101111
101001000
110000
1100110001
11010000
1111111101011011
1010101
101001
10010000
1111111101011001
1111111100100011
100101011
100001100
1100010
1011011110
1111111101110011
1111111010011101
1101110001
1111111100110100
1111111011001001
111100
1111111100101011
11000010
1111111100010001
1111111111001010
1111110110111100
100010010
1111111110101001
1111111110001111
100101011
1000000101
11110001
10010010
1111111101110000
1111111110011100
1111111101110110
1111111111100010
10011
1111111011110100
1111111011000111
110010111
1111111110000010
10000101101
1101100
11100100
1000010100
1111111111100011
1010000111
1011101
1001100110
1110000011
10010
1111110011011101
1111110111000111
1111110110111010
1111110010100010
1111111010111111
1111111111110110
10000001001
1000100110
10011110
1111111101110001
11100100
1111111101111111
1111111111011000
1111111110011001
1111111101010010
101101
110111010
1100
10100000011
10101111010
111101100
111001001
10001011101
1000000111
1111111110001110
10010110011
100100101
1111110010000000
1111110101111010
1111110011100011
1111110000011110
1111110100101011
1111111010011110
11010011
1110100000
1001010111
1111111101111110
11001001
111000
1111111101110101
1111111110110000
100001
1111111011001100
1111111010000001
101101000
1000001100
1011111111
1001111101
1001001011
1010100
1100110100
10000011010
10001110
11110010
1111110111101100
1111110111001011
1111111001010011
1111111010000000
100000111
1111110111111101
1111111011001010
1010010
11101000
1010111010
1111111110000010
1111111111110111
111111
1111111111000100
1111111111101110
1111111110011001
1111111100101101
1111110111011011
111101
1000000111
100100001
10111100
1101111001
110001101
1101001000
10001000010
1101110111
1011001100
1111110101011100
1111111010010010
1111111001101101
1111111011100011
1011000011
1011101001
101000101
1000000101
1001001
1000001011
11011010
1111111111000001
1111111110100111
1111111111100000
10100001
1111111110000001
1111111111000011
1111101111111001
1111111001000100
11100110
1001000110
1001001001
1011000011
1011100101
11011001111
100010000010
11001101101
1111111101001111
1111111111011001
1101011
1111110111101111
1111111000100010
101001001
1000111110
1000101011
10110000
100011100
110100101
110011001
11111111
1111111110001000
1000001
1111111110100000
10000101
1010010
1111110000111000
1111111111100000
1111111010111001
10110111
111110010
1100101101
10000010100
11101100111
100010001011
1001101100
1111111110010000
10111111
11110010
1111110111100111
1111111000010111
1111111000110101
1101110010
1111011011
100000111
1001101011
1100001110
101001110
1100101
1111111101110111
1111111110001011
1111
1111111101100100
1001110
1111111011110111
1111111001010110
1111101001011001
1111101110011101
1111110011011011
11001
1101010011
11001000010
10110101011
110111001
1111111110111101
1010001000
100011000
1111101101010110
1111110010001111
1111110110011111
110010000
1111111101110110
1111111110101110
1010010110
10100100010
10000010110
11011011
1111111101101000
1111111111010001
1111111101111001
1101111
110111100
1111111111101100
1111110011011001
1111101011011000
1111101000011101
1111010111100111
1111100000110100
1111110010100011
1011100010
11010110
1111111010010100
101001101
1101000010
1101111
1111111101010011
1111110110000001
1111110101111100
1111111111001111
1111110101100100
1111110111100110
1110111101
1110101101
1110110111
1111111111101010
1111111101101001
1111111101011010
100110
1010110
111100100
101110001
1111110101011110
1111111010011011
1111101101000010
1111011100000001
1111011011101011
1111011110011001
1111101101001110
1111110001010010
1111110101011100
1111110101001000
11111110
111010001
110010001
1111110101110101
1111111110100011
1111111110001101
10001000
1111111111100100
1100001011
10000011100
1100001101
101001000
1100
1111111101001110
11100
1111111111101111
11011101
110001111
1111111011001001
1000000001
1111111010101111
1111110010010001
1111110110101001
1111101100111100
1111101000110010
1111101110000010
1111100101001010
1111111000100100
1001011
1100001
1111110110001001
1111111000100100
1111111011011011
1111111011101011
1101111000
10000011111
10011100110
10100100010
110110000
11001010
10011111
101000
1111111111101101
1011000
11110011
11011100
1001001100
10101101101
10010111
1001101
1100110111
1100001011
111100010
10000010
1111111100110010
1111111001111000
11000101
1101010101
1000101101
1111111110010110
1111110111111001
1111111110000110
1000111000
1110110001
10001001011
1101001001
101001111
1111111110100110
1111111111000111
10000101
1000010
11010
110111101
1001000110
1010000111
10001011010
10011000011
10000010000
10000011011
11101101000
1101111000
10000100110
111101101
1111111011101010
1111111111111100
10000111
1110100001
1011110010
1111111001001010
1110011
1011011110
1110001100
1100111011
11110000
1111111111001100
1011111
1111111111001000
101110
101001
10110111
101101110
1100101011
1100011110
10000010010
10000011010
10000111001
10100001010
110000010
1001010101
1000111
1001111
1001010
110001010
1101000
1000111101
1000111
1111111011001111
1111111011010110
1001111010
11111011
1001111011
1111111111011111
1111111111000000
10100101
1111111110101110
1100
1111111110011110
100000
11101
110111010
111101110
11010011
110100101
10010100
1111111111100101
11100001
110100000
1111111111001001
100111111
10011100
10101110
100000001
10001
1001011100
1111111110101110
101011
11101001
111001
10000010
1111111111100100
101
0
11010000
110010
1111111110000101
100001
10110010
1111111111111001
1111111111011011
1111111111101010
1111111110010011
11000011
11101011
1010100
10001000000
10110010101
1101100011
11111111
1111111001110100
1111111100111111
1101111
111111000
100010
1001
1111111111110000
1111111111011110
1111111011111101
101101
10010010
1111111010100010
10111
1110011
1111111101010110
1111111101110101
111110
1111111100001001
1111111001110000
1111111001100000
1111110111010011
1111110101010101
1111111100101000
11101
10100010
101010000
1111111101100101
1010011101
110101
1001000100
11011111
111001011
111101001
1111111100101111
1000011
1111111010010010
11011110
10111000
1001100
1111011
1011100
1111111110100011
1000000
1111111111110100
1111111110001001
1111111011100111
1111111001001000
1111111000001100
1111111000001001
1111111110000100
11010011
101111011
1111111010001011
1111111000100000
1111111111101001
1111111010001100
101000
111011
1000011000
1111111110010011
1111111010110000
1111110110010010
1111110011000001
1111111010110101
1111111101110001
1000
1111111110100001
1111111111010111
1001
100010101
10011101
1000001
110011
101
1111111111010010
1111111011101000
1111111001000110
1111111001001001
1111111101001101
1111111010011101
1111111010011011
110110
1111110110001110
1111110101011110
1111111100001110
1111111110000010
1111111001010101
1111111011110111
1111111011010001
1111110110110111
1111111011000000
1111111110011100
1111111110011010
1111111110000001
1111111111001010
100010110
1111111111110111
110001
1000011
1111000
101000100
101110
1101101
1000010
1011
1111111101110111
11
1111111101010001
1111111110001111
1111111111001010
11001101
10100
1111111111101100
1111111111110111
1111111100010001
1111111111000111
1111111110110110
1100010
1000111
1111111111001000
0
101111
1111111111110110
1111111111000101
1111111111000110
