1111111110010000
111100
110
1111111111000110
1111
10001100
10101
1111111111111001
1111111110011111
1111111111100000
101100
1111111111010100
1101110
1111111011110011
1001111
1111111111100111
10110110
1001010
1111111101010110
1110010
1000101
1111111111011001
1111111101011101
1111111110011100
10001010
1111111100010111
1111
1111111110101100
101111
1111111100111010
1111001
1000100
101
1011000
1111111111101001
10100101
1111111111001010
110100
1111111111111000
10100110
11110
11101110
10110000
1011011
10011000
1110011
1111111111111110
10100000
10001000
1101
111011
1000100
1011
1111111101001011
1001000
111100
10101010
10101010
1111111111110100
1111111110110000
1111111111100110
1011001
1111111101001111
100100000
10100011
10010100
111101010
110000101
100111101
100011001
101011111
100111110
1011000011
111000000
101010001
111100010
101100
10010001
10101010
1011100
11000000
100
1010111
1110
1111111101010011
10111101
1111111101101110
1111111111010111
10000111
10000
111010
11010011
100010110
100111110
11100010
10101011
1000001101
100111010
1010111111
1011000111
1001001101
100001001
11111100
10001110111
1010110110
1100000
1111111101010010
1111111011010110
1111111
1111111100111101
1111111111000010
1111111111000110
100011
1111111111100111
1111111110000111
110001
1100001
1111111111100110
11101
1110110
1001001
11101000
1111111011111101
101100
1111111110100110
1111111111101101
1111111101000011
11010100
1111111010110100
1111110101000000
1111110011101000
110101010
1111111110001101
1001011
110011001
1000101
1111111000100101
1111111011111001
1111111110100001
101110
1111
1111111011100000
1111111111100101
1111111010101011
1010110
1111111111000110
1111111111101000
1111111101000011
10110001
11000110
11111110
1111101011010110
1111110011000100
1111111101000001
1111111000111110
110101
1111111010000001
1111111010110011
110110011
1111111101001101
1111110011101111
1111111101001101
10000101
111100
1111111100010110
1111111100010010
1111111100111101
1111111100111010
110001
100001
10000100
11011
1011
10110100
100101010
1011001
11010
1111111101110000
1111110101100001
1111110011011010
10011
1111111000110101
10011010
1111110110100011
1111110010011001
1111110000001110
1111110011011000
1111101001101110
1111110100010101
11110001
10111111
1111110111011011
1111110101110101
1111111010101010
1111111011011000
1111111100000111
1111111100100011
10000101
1111111111111011
1101001
11010111
110001110
1111111110110001
1010011
1111110011110110
1111111001011110
1111101000110001
100101100
1111111011000101
1111111111110010
100100111
1111111010000011
1111101111101011
1111101101010000
1111111001111010
1111101111110110
1111101101101101
1111110100101000
10001001
1111111100101010
1111110111100001
1111111000001110
1111111101100111
111001
10101101
1111111101100011
1111111111011010
1111111111101111
10001011
1111101
1111111010010110
1111111010000101
1111111001101010
1111101101110000
1111101111101001
1111100110101011
1111111101101010
1111111010010001
1000110
1111111110111011
1111101111001010
1111110110111101
1111100110101100
1111101010111101
1111110101011010
1111110000111010
1111111101000010
111000
1111110111101010
1111110111100101
1111111011010010
1111111100010110
1111111110011011
1111111111111110
1111111101101001
1111111110010110
110010100
10001111
1111111000011011
1111111100100001
100000000
1111111000111010
1111110101110010
1111101110110110
11000001
110000010
10000011111
1111111101001000
1111110110101111
1111101010000001
1111111001011101
1111111011011101
1111110111011001
1111111001010001
1111111101110010
1111111111100110
1111111100110000
1111111001000101
1111111101110001
11000101
1111111100100111
10000010
1111111110100000
1111111111010110
11111001
1011010111
10100010
11100100
101110001
1111111111010100
101101
11000001
1000101000
100000111001
10111111110
1000001011
1111110110011011
110110100
1011000011
1111111010111101
1111111111111001
1111011
10100010
1111111111101010
100101
1001100
1111111110000001
1111111110110011
11101
1111111011001010
1111111110101110
100001111
11011100
1000101110
101011001
1101010101
10010110
1110011
1101001100
10100010100
10000101011
100000000000
1011000101
1111101111111001
1111101000110001
1111110111010110
10000000
110100000
1111111111000111
1001010001
1111111011010100
1111111011001100
1111111000111010
1111110111000100
1111111011011101
1010
10110
1111111110010000
11110000
11010111
1111111100110100
100100101
11100100
10101111110
11101110101
10001110111
10001111110
11010000101
11000010101
1110011111
1111111111101110
1111101100001100
110111
1111111111011111
101001101
1111111100100010
1000010
1111111110001110
1111111101010111
1111111111010110
1110011
1111111000110101
1111111010011101
10000111
100001100
100
11111101
11001
10100
1110111000
10001010111
1011011010
1110011111
1000101110
1101100100
100000000
1011
1111111110110101
1111110100010001
1111110000110000
1111111000000001
10101010
1111111010101000
1111110101010010
1111110000111001
1111111111101101
1010100010
1100100110
101010011
1111111010101110
10001
10001010
1111111110110000
11
11101000
1110011
1111111001101110
10100010010
1110011101
11010
11010000
111111
111101101
100001100
1111111000100001
1111101100111010
1111111000100100
1000100
1111111001010110
1111111100111000
1111111100000111
10101011
11011110
1011111101
10001011101
10111101000
111100000
100011010
1111111111110011
111110
1111111111111111
10110
100001111
1111111101011110
1111111000100110
101001011
1000010111
10011000
1111111001111000
1111111101000001
1001010
1111111001001011
1111110100000010
1111110001110100
1111110100000110
1111110111010011
1111110110111001
100110001
100101100
1101011
10001100000
1110101100
10011010000
1110000111
10101001
10011101
1111111111010100
10100010
1111111110101011
1111111111001100
100100010
101101
1111111000011101
1111111101100000
1111111000011110
1111111100101100
1111111011011111
1111111110111111
1111111010010001
1111111001100110
1111101001001000
1111101111101100
1111110111101100
1111101110000011
1111111110101100
110101100
10110
1101000010
101110001
1010000111
1110010000
110011110
10110100
1011100
101100
11100010
1011101
1111111110111111
100011
100111000
1111111110001111
1111110110110101
1111110001011110
1111110101010101
1111110001100011
1111110000110011
100010110
1000100
1111111010110000
1111111000101101
1111111110010011
1111111111001101
1111111101111000
110011110
100110101
1111110111001001
1111111001110111
1011110100
1110100110
1111111110010100
1111111010110010
1111111111101110
1111111110001001
10111010
11001110
1111111110001100
10110100
1111111111101111
1111111110111101
1111111010001110
1111110110100110
1111110100010000
1111111100101010
1111101000101010
1111110100011001
1111110111110101
1101000
1011
111010111
10110111010
10001000010
1110001101
10010101101
1111110101011010
1111110100001110
101001110
1111111111001011
1111110111101110
1111111010011101
1111111101100110
110011
1111111101011110
1111111110101101
1111011
1111111110101100
1111111101100011
10001100
1111111100000011
1111111001100001
1111110111101011
1111111100100100
1111110010100100
1111110010000010
100100
1100001
101111011
1111101110
100101111011
1110011100
1001111101
10010111010
1101101010
101111010
1000101101
1000
1111110101001100
1111110111010000
1111111011110101
11111000
1111111110110100
1111111111111111
1111111111110010
1111111111101111
1111111000100000
1111111111111100
11001100
1111111101101100
11110110
111100111
10001000010
101010000
100111000
1110010001
1100010111
11011001011
10000001000
110111111
1100001110
10110101111
101011011
1111111110110111
100011100
1111111011100111
1111111001010000
1111111010001101
1111111011001110
11101
1111010
1111110
1111111101111000
10111101
10001
10111000
1011000
11010000
111011001
10100001110
10010000010
10010101101
111010111
1001011101
1000100000
100011111
110111110
1110101011
111000111
1100110111
1111111010010111
1111110100010010
1111110111110000
1111111011000111
1111111011101100
1111111010100000
1111111111110001
10001100
11010
1111111110100110
1111111101010100
10000111
10100001
100111110
100101111
111001011
100110101
110110111
1110100110
101110000
1111111011011001
100101101
1111111100110010
1111111001101101
1000111100
1011101010
1111111100000111
1111110110001101
1111101101001100
1111101101111101
1111110110010010
1111110010111110
1111111011010010
1111111011010110
10011010
110
10111101
110010
1000101
1000111
1111111001110110
11101110
100000001
101001001
1111111111000110
1111111111101111
10001110100
1010100001
11101011
1111111111001001
10111010
1010011100
100001
1111111100110101
1111111110011001
1111110101100101
1111101001001101
1111110010011110
1111110101010110
1111110000110010
1111111010000100
1001110
110001
1
1111111110110101
1111111111010010
1111111111011011
1011011
1111111111110011
1111111111100010
1111111100010101
1010
1111111101110110
1111111111000010
101010111
1111110011110111
1111110111100000
1111110111100111
1111110111011001
1111111100011110
1111110111011110
1111110010011011
1111111001000011
1111111000110000
1111111011011011
1111110111110001
1111111101010100
1111111110111110
1111111100110111
11010011
1110100
1111111110101101
1111111101110110
1111111110101111
1111111101011110
1101101
11010
11
1111111111000111
1111111011001101
1111110110000000
1111110010000000
1111110101110010
1111101110010000
1111110100100010
1111111100101000
1111110011011001
1111101111001100
1111110111010110
1111110101011100
1111110111010101
1111111110111011
1111111101001001
1111110111011010
1111111101110010
101101
1111111100101110
1111111111100001
1111111101110010
1111111111000010
1111111100111001
1100
1110
1000010
10110
1111111100110011
10111
1111111101000011
1111111101010001
1111111001110111
1111111001110111
1111111101011111
1111111110010010
1111110101001001
1111110111010000
1111101011110001
1111111010101100
1111111100011001
1111111001011110
1111111001110111
1111111111010011
1111111011010011
1010100
101101
1111111110111000
1111111111010011
1111111101101010
101011
1111111101110111
1111111101001101
1111111
1111111110110000
1111111110100001
1111111111001101
1111111111111011
1111111111100110
1111111011101100
11110100
1111111011111011
1111111101000000
1111111111111100
1111111111011011
1111111100100110
1111111101000111
1111111101010010
10100011
1111111111010011
1111111101100110
101011
1111111111000011
1010011
10100111
1111111110100111
1110101
1111111101010101
1111111111101000
10010001
