110010
11101
1100010
1100010
1111111110001100
1111111101000001
10000101
10000
1111111110111111
101001
111000
1110010
1101001
1000010
1111111111101010
1111111110100010
1111111101001100
1111111100010111
1000111
1111111110111110
1000000
10000110
1111111110100010
1111111110100100
1111111110011010
1001010
1111111110110001
1111111111110001
111010
1111111111100001
1111111110101101
1111111111101000
1111111110110111
0
11000
10100010
1111011
1000000
111101
1111111111101011
10111101
101011110
1111111111101111
1111111100100111
1101
1111111111100001
10011010
1111111111110101
1111111110101001
1111111111011000
1111111110101010
1110110
1111111111011110
1000001
101001
1101111
10100010
1111111111110000
1111111111010110
1011011
110000
1111111101111011
11010011
1111100
1111111101011110
11100011
110010
1111111101111010
111110
11110001
111000
1101111
111000010
100010010
10001101
1001110
1111111100100110
1111111111110001
1111111110011001
1101111
110110
11100
1111111101111101
1111111111001101
0
100000100
1111111111011000
1111111111000110
1111111111100010
1111111111000110
1111111110010101
1111111101010110
1111111100010110
1011011
1000110
1000
111101111
1100100011
10001001000
10000101110
1100101100
100110110
10101
11101101
1010111
1111111111010000
1111111100100111
100
1111111101100011
1111111111001100
1111111101010001
11001001
1111111111110001
10111110
10001111
1001
110111
1111111011110110
1111111010110010
1001101
10
11111010
1011101
10100111
1111111111110011
11000101
1000101000
1100100100
1001100101
110001000
1010010001
101000101
110100010
1001111010
101110111
1111111111111100
1111111110110010
1111
1111111110110111
1111111011110010
1000110
10111
10001111
1000000
1111111010111111
1111111100101000
1111111111100001
1111111111111000
1000110011
1110101001
1101011101
1101101001
11001000
1111111110011111
1111110001010100
1111110110010011
10
1111111101011100
11000100
1111111110110011
1111111100100100
111000100
1011111001
10011000
1111111011011010
1111111111010000
1001101
1111111101010100
1110110
10111110
10110100
10110001
1111111110111111
111010
11011100
1110011100
10000100101
1010000010
10110100111
10000110110
10000111001
10100
1111110100001011
1111110110000110
1111111001111100
1111111010110111
11000110
100111000
1111111011110110
100010010
1001101000
100100111
101010101
1010100
10011110
1100
1110111
1111010
1111111101010010
1111111101101110
1111111010110000
1111111110111111
111101
1110110
100111001
1001010100
10001000110
100000101010
10010001111
1000101
1111111011000111
1111110101110011
101100010
1101101
111111101
10000000110
10010101010
101010100
101011100
11010110
100010100
101100000
1111111101000111
1111111111011000
1111111110111000
1000010
1111111111111111
101111
1111110111010000
1111110010011011
1111111100101010
1111111010111010
1111111100100111
1011
1001010000
10111101001
100001111100
101111010
1111110001101011
1111110101111100
1111111010101000
1111110100101100
1111111011101101
110011110
1110111
0
1111111001000010
1111111110010000
1000111001
101101111
10001000
1010101
110001
1000011
1111111100101100
1111111110000001
1111110010011011
1111110011000100
1111111011011101
1111111010010111
10000011
11000011
10110101100
110010101110
100100101001
1111110101111110
1111011001111000
1111101011001000
1111101111001000
1111100110011010
1111101011000100
1111101010100101
1111110000111001
1111110001001111
1111101111100001
1111110100011000
111100
11001100
1111111110101011
1000100
1011111
0
1111111011010101
1111111100110001
1111111011111011
1111111101110010
111
1111111100001111
1111111111010001
1011111000
11101011100
100111000010
1111011101
1111100000111110
1111011011000100
1111100111111001
1111101101111001
1111100111110001
1111101101001110
1111101001000111
1111101011100101
1111110100011110
1111101101001000
1111101100111001
1111111100110100
1000000
1011001
1111111111101000
10000000
110110
1111111111111000
1111111101101110
1111111101100101
1111111100000011
1111111111100111
1111111000101111
11100000
10100111
1101000001
1110111110
1111111011111110
1111100110011101
1111100000010100
1111101100011111
1111110100001000
1111110100001011
1111111001110011
1111111000011110
1111110010101001
1111111001101101
1111101000000000
1111110000001100
1111111001001010
1111111110100101
1111111011111110
111110
1111111100010110
1111111111101001
1111111111111000
110111
10010101
1000011
100111101
100110010
1011011000
10111010110
10010111111
1000110010
1111111011111000
1111101101000001
1111100110111010
1111101001011001
1111101111000001
1111110011001110
1111111100001001
1111110010011010
1111111010011010
1111111101110110
1111110110100011
1111111001011110
1111111010110011
1111111101011100
1111111111010110
10011
1111111111000110
1111111110100110
10011110
1111111101011010
111110001
110100010
101110011
1100010010
1101000111
10000010100
1101011100
110001010
1111110001110111
1111101101001110
1111101011101010
1111101111001010
1111100110000110
1111100101100001
1111110001001001
1111110110101001
1111110001011100
1111111111011000
101101
111
1111111111001100
101110
1111111110101010
1111111101100111
110
1111111011101111
1111111110011010
1111111111100111
1000010000
1001101110
1111111111100101
100000010
100011000
1000100010
1110100110
1111110111111101
1111110000101111
1111101011011101
1111110000110100
1111110101000101
1111110001010001
1111110111000111
1111110111001101
1111110100101110
1111111110110100
1111111101111001
1011111
1011000111
100010101
1111111100010011
1111111111110110
1111111110011100
1000100
1111111111100111
10100111
10110001
101011000
10111000
1111111101000011
10010
1111111011110101
1111111101000111
1111111110110010
1111110100111001
1111110001101110
1111101111100010
1111101100101110
1111101011010001
1111101100100001
1111110010111000
110000
101011
110110
1101010011
1111111110001000
1010111100
11010011
1111111101111110
1111111110110011
111001
1111111100100000
1000000
1111111111110100
1111111111100000
1111111101011011
1011010
1111111111010111
1100011
1111111111110001
1111110110110000
1111110010001100
1111101111010101
1111101001010001
1111101010010100
1111101110100011
1111101001010100
1111101110010100
1111110101010010
1111110110011011
101011101
1111111100011001
1011111001
101100011
111111100
10111010
1111111011110000
11000011
1111111111100000
10010010
1111111101110101
11100000
1111111111111101
1111111110000011
1111111010010010
1111111100101000
111001
101100
1111111111100100
1111111111100001
1111111001110110
1111110110010100
1111100101011000
1111100100110011
1111011111101111
1111101110110011
101000100
111111010
111101101
101001001
1001111110
10111110
110100001
101100010
1111111101101010
1111111100110110
1111111111010110
110001
1111111101101111
1111111111111000
1111111111101001
10101110
1111111001011100
1111111100011110
1111111101010100
1111110110100110
10010111
111010
1111111011010101
1111111010110101
1111110011101000
1111101000011010
1111101100001010
1111110111111010
1101010000
110101101
101010001
100010101
110011110
10001111
1010001
1111111101011000
1111111011100111
1111111001111000
1111111110101001
11101111
1111111110100010
10000101
10000111
11011111
1111111011110101
1111111111000011
1111111011110000
1111111000100110
1111110110101000
1111111001110001
1111111101110001
1111110101100101
1111101111110110
1111110111100001
1111111010100110
1111111100001010
1010011110
1111111111100001
1111111100011011
110000011
101001000
1001111111
101111
111110
1111111101100111
1111111111001011
10101011
1111111110001111
1101100
100
1111111110110100
111000100
11111001
1111110010100011
1111111010011100
1111111100000101
1111111111110111
1111111000101110
100110011
101111100
100000011
1000111011
1011100101
110001110
1011000
111001110
1
1111111101111000
11000101
1100100110
111100011
11000000
1001010
1111111111100001
1110
11000011
1111111110111001
1111111110010000
1111111111001001
100101111
100110011
1111111001110111
1111111111010110
11001010
1100011
110100111
100011111
1111111110101010
111011010
10000101001
1111010111
1101110
1111111111011010
1010110000
100011
1111111010
1111100111
111000110
10100001
1111001
1111111100110111
1110001
1001
10011100
1111111101000100
10001010
1111111110101110
1111111111111101
11010000
1111111110010010
1111110110010100
1111111010011110
1111111011110001
1111111010000010
1011100
1011110
1010001001
10011011011
10011000001
1101011101
110001010
110000010
11111000
1000010101
101111010
1111111111000100
1111111111101000
1111111011100011
1111111100001010
1111111100100101
1111111110000110
1011110
1111111100111111
11000100
1111111111000101
1111111101101011
10010
110010011
1111111001111110
1111110011111011
1111110110101001
1111111110111001
10010100
111100001
10100101100
11010111111
111101011
1111000001
1001001100
1111111101001110
100110
11111101
1010110
10001
10111
1111111101101011
1111111101010111
1010110
1010101
1000111
1111111110110110
1001101
1111111110101101
1101010
1111110
1111111101001000
10011
10011000
1111111000101001
1111111001010100
10101000
1001100110
111101010
1110011000
1101110001
101111000
1100111101
110110001
1111111110001100
1111111111101101
11111
1111111111110011
1111111110000000
11111000
1111111110111111
1111011
10
1111111101011000
11011011
1111111111001001
1111111110101100
1111010
10001100
1111111011101001
111000
1111111111101110
1111111111111001
10101110
11101010
1111100
101100101
110001011
10000011010
1000100111
1100111001
110111110
100110100
1011111
11000110
11010101
1111111110010101
1111111111101110
10100011
1100
1111111111111000
1100010
1111111111110001
10110
1101110
1111111100111110
11001010
1111111111100000
1111111011001000
1111111100110001
1111111110111001
1111111100010110
1111111111111100
100111100
100001000
100111000
100111001
110011000
1111111110110110
10000000
100110000
11010100
1111111101111001
10101010
11110010
1101001
1111111100101110
1111111111101101
1111111110011000
1101101
1111111101011110
101
10000110
1000111
101010
1111111110111100
11110
1111111111010000
1111111110110101
1111111111001100
1101001
1111111101110110
1111111101110000
10110
1101000
110101
1111111110111101
1110000
1011111
1001101
100011
1111111101000000
1111111110101101
1111011
111110
1001010
1111111101001000
