1100000
1111111111010101
10111
1010110
1111111111111110
0
1010101
1000010
1001111
1111111110111111
1111111111101101
1111111110000100
101011
1011011
101110
1100000
1111111110111100
101111
1111111110111000
1111111101101010
100100
1111111101100100
1111111101001001
1111111111011101
10001001
1011110
110110
10000111
11101
1111111101110010
1111111111001110
1111111111100110
10101110
11010110
1111111111101100
1111111110101010
11101
1111111111000111
1111111111101100
100100
1111111111111001
10010
11000000
110100100
10111011
110100
1111111101010110
1111111100000000
1111111100001000
1111111111000101
1111111110010101
1100010
1111111110101000
1111111110010000
10010
1001010
10000011
1010101
1111111110011100
10001110
1111111110000110
10000010
1111111101110010
101111
1101110
110110
1111111111101100
101100100
111000000
1010001101
10000000011
1100111100
100101110
101100001
1110001
1111111111101011
10010111
1111111111111001
10
1111111100011101
10
1111111111010110
10000100
0
11
11011
1111111101101101
1111111110110101
10011
110000
1111111111110111
10001110
1000000010
111100011
111010011
110110100
10110010000
10100110001
10001110101
10100001001
10001111010
1100010010
1000010000
1111111101111011
1111111110111001
1111111100110101
1111111011000100
1111111001101010
1111111011101010
1111111111010011
1111111111111000
10001010
1111111111011100
10101
1000100
101111
1110100
1011111
1110001
11110001
1111111110111011
1111111011111110
1111111001100101
1111111110011001
11110110
11101110
111110111
10001001110
1110101101
1100110011
1000101110
1111111011011111
1111111010111111
1111110000010000
1111110000100101
1111110010011110
1111110101110000
1111111100001011
1111111110110100
1111111111001010
11100100
1111111111001000
1100101
1001010
1111111100010100
1111111110011011
1111111101110001
1111111010100100
1111110110010001
1111111000001011
1111111000100011
1111110101011101
1111111100111011
1111101101
11100000110
11111111011
10001010000
10101000011
1011110010
11101010
1111111111010001
1111111101111101
1111110111000010
1111110111100010
1111110111000000
1111111111100110
1111111100100011
1111111101000010
100
10110101
1111111111000110
1001101
1111111110010010
1100011
1111111110101010
1111110001111100
1111110101001111
100010
1111111101001001
1111111000010011
110011110
10010010000
10100010111
101010101010
11011011111
10100000000
10010111010
1111111011001101
1111111110111111
1011110
1111111001111000
1111101000000000
1111101001101001
1111111000011001
1111111110000001
1101
10000000
111111
1111111111100110
100011001
111001
1111111101001101
11
1111110010111001
1111110111100011
1111110101111101
1111111111000010
100001100
10100101110
1001110011
10111111011
100010110101
100000010100
1001101011
10110101
1010100
1111111110010010
1111111110010100
1010100001
1111110011001101
1111101001111110
1111111010000000
100101111
10100001
1111111101110000
1000011
1111111110000100
100011
1111111111100010
1111111000110100
1111111000000010
110110
1011011100
110101110
1111001
1110100101
100001
1111111010111111
10101110110
11100111111
11110011111
11100011001
10101010010
10001111101
1001110111
1111000001
10011011001
1111110111101110
1111100000010011
1111110011110000
1111111110010000
100010110
101100
1101000
1111111110010000
1111111011110111
101
1111110101011101
1111110111000000
101101100
1111111101010111
1111111101110010
1111111111101000
1111111000100000
1111110010001110
1111010010110111
1111100111000111
10001000000
1111110010
1010110011
10100001001
10001100000
10110001011
1101110010
10010001100
1101010
1111100110000111
1111110101110010
1111111110010001
1111111110110101
1111111111000100
1111111110000011
1111001
1111111011101110
1111110100010111
1111110100110010
1111110100010001
1111110100100100
1111110001101000
1111100100110111
1111100101100110
1111100101000101
1111010010101111
1110111111000001
1111100111101001
1100010100
1110101000
1001111100
1000011101
11011110
10100111110
11000010001
10011111111
1111111001000100
1111101000011011
1111110101000100
1111111011100000
1111111110111010
1100
1111111110010110
1111111101000100
1111111001011111
1111110011001000
1111111100001011
1111110001011110
1111101110001111
1111100111010100
1111101010100010
1111101000101110
1111100110111000
1111011111111000
1111010110001110
1111011010001001
1111111110100000
1111111011110101
101110110
1011000011
1000010100
11011101000
11000010100
1010010101
10001111
1111110011101111
1111111111111101
10001110
111
1111111111010110
1001011
101001
1111111010000001
1111110011101010
1111101110101011
1111101100100101
1111110000001100
1111110100110000
1111111000010110
1111111010100101
1111110100001100
1111110001110010
1111011110111010
1111101100111110
1111111111011100
1111111101010010
1111111100101111
100001010
10111110110
111011001
110010001
1111111101000101
1111111111010001
1111110110000010
101010110
1101111
10011
110111
1111111101111010
100010
1111111101001010
1111110001001101
1111101000100010
1111110001101100
1111110100010111
1111111111000011
1000011101
100101100
1110011100
11100011
1111101111001000
1111111010101000
1111110001101011
101100
1111111000
110010111
111110111
111100010
1111111110001100
1111110100100101
1111110111011100
1111110011011011
1111111111000101
1111111101111110
10000100
1001010
1111111111011010
1111111110001001
1000110
1111111001001101
1111110100001110
1010010111
110111111
1111110100100001
1111110000010010
1111111100100110
1111111111000101
1111110110111100
1111101001110110
1111111100110011
100001100
101010101
1111110011111110
1111111100011010
1111111101010101
101110
111100001
111010
1111110100100101
1111110101110100
10011110
100001111
1101110
1101100
1111111101011110
111100
101110110
1010110101
100001110
10100111
1111111100000001
1111111011010010
1111111110010100
100000100
101001111
1111110010011101
1111110010001100
1111110100011111
10010011011
101100111
1111111010110101
1111011
1111111111001010
1111110001010110
10001001
100001101
1111101111101000
1111110101011101
100110010
111000
110001
1111111101110010
1111111110001110
111111
10011100
10001001010
110101011
1111110111000001
1111111010101000
1111101110000111
1111111100111000
1000111
1111111011101110
111101000
1111111100111001
1111110001111011
11101001
100001111
110001101
1111111101010000
1111110001100111
1111110000000001
111101101
1111111000111100
1111110010111101
1111111110011001
1100110010
1111111111110111
1000011
1111111111011011
1001011
110111
10011001
10000011011
1111111110111111
1111111101111101
1111110110010001
1111111111111111
1111111100010101
1111111001011111
1111101110011000
1111110101111101
1111111011001110
1111110011100011
111110
1000110000
1111111001000001
1111101100110000
1111110000011000
1111110111100010
1111111101110101
1111111010000111
1111110110011010
100011100
1110101000
1001111
1100
110001
1111111111001010
1101010
1111111111011110
1101000111
110010101
1111111001110110
1001100
1111111110101110
1111110100111000
1111111001111111
1111110100100101
11000111
1101101
1111111000111001
1111111111011001
1111111101111001
1111000
10010011
1111111000000110
11110011
1101
100011010
10111011
10010010010
1101110000
11011111
1000100
10010
1111111111101010
1111111101000111
110011
110010000
1111111110001010
1111111110011110
1110001101
100111100
1011101101
1111000
1111111110011010
111100111
100
1111110011101110
1111110010011010
1111111110011010
1111111111010001
1111111011010000
11001000
1111111111110011
101001
101011010
1111011011
1010000001
100100011
1101011
1111111100110100
1111111101111111
111
1111111110101100
100100111
10000101011
1011110
1001111101
10110001101
10001000011
1111111100111001
10011010
1111111010000001
1111111111101110
1111111000111100
1111111010011110
1111111101111011
100010010
1111111111100000
110011101
1001101011
100100011
1001011111
1000001000
1010100001
100001000
10010101
10100010
1111111111011001
1111111101110001
1111111101111101
10011110
100010111
110101000
1100001
100110010
1111111100110001
1111110110000011
1111111010010010
1001000000
1111111011100000
11000101
1001011110
0
1111110111110011
1111111010100000
1000001110
11100011
100010010
1111111011001111
111100001
1100000100
1000100000
110111000
10011000
10111
1111111111101111
1111111110110001
10110
1111111110001011
10001010
110011100
1010100110
1100101101
1111111110
100001011
1000100111
10010000010
1111111011111010
1111111111100100
1111111011001010
1111111100111000
1111110101111000
1111111001000011
1111110101101100
1111111000011001
1111111010100101
1111110101110010
1111111110110001
100101010
101110101
1000000011
110011
10010101
1111111110010000
11
1111111100110011
1111111110001000
1111111100011001
1111111111010001
11000110
10011100
1100001001
1111111010110101
100100001
111110100
1011010100
1101110011
1001011111
101101
100
1111110110111001
1111110001111110
1111111000001000
1111110010001111
1111101100100101
1111110101010100
1111111111000110
10011
1111111100111111
1111111110001110
1100000
1111111101000111
1111111101100111
1100111
110001
1111111111111011
1001101
1001001
10110100
10101110
110100
11101100
111001000
1001101100
1011001100
1101000100
111011011
11010100010
1101000111
1001011000
1111111110000000
1111111011010110
1111111001110101
1111111000110011
1111111111100011
1111111110000011
1110010
1111111111011101
1101011
1111111110111110
1111111111101010
1111111111011111
1100011
1111111111110011
1010101
1111111110101010
110110
1111110110110001
1111111001101101
1111110111100001
1111111001000001
10110011
1010010100
1111111110110111
1111111110100111
100
1111111100011001
1111111001010011
1111111101001011
1111111001001001
1111111011010010
1111111011110001
1111111111110000
11011
1010100
1111111101001100
1111111110000110
1110101
100000100
1111111111101001
1011110
1111111111010110
1111111110000111
11110
1111111101101000
1111111110110111
101001011
111110
1001011000
1101110
1111110110011001
1111110101000000
1111111010100100
1111111110001010
1000001
100100111
10000111
110110
1111111101010100
10000100
1111111111010010
110110
1111111111110001
1011001
100101
11011001
1111111101101101
10010001
1000001
1000111
1111111100110010
10011
1111111111011111
1111111100110001
1111111100100000
1101011
1001
1111111111110111
1111111111010100
1111111111111000
10010000
1111111100101100
10000
1100110
1111111101010011
1001
1111111110001101
1111111111101000
1111111110100111
10101
10100
111
1110
1111111111001001
