1111111110101001
1111111110100110
1111111110101001
10111111
1111111111000110
1111111101101101
1111111100001111
11111
1111111111100001
1111111101110111
1111111111111010
111110
1111111101011010
1111111110011100
101011
10101100
1001001
1001100
1111111101110101
1110110
11100
110010
1111111100011011
1111111101110101
1111111110110000
10110
1010110
1111111111101000
1111111111100101
10010000
1111111111110100
101111
10001
1111111111011111
1111111111110010
11
10010011
1011010
1111111110101000
1111111110110000
1000101
1111111111111100
1111111110011110
1010110
1111111110000001
1111111111010111
1111111110001010
1111111011101001
1111111110101100
11111
1111111111101101
1111111111011011
1111111110101000
111100
1111111110011100
1111111111111110
11100000
10101100
1111111101001101
1111111110001000
100100101
1111111100010000
1111111110111001
1111111111010101
1111111100001011
1111111111110000
11010111
1100101
1111111111010101
10111111
100101011
110000011
1101101
1111111100111111
1111111010000111
1111111101111101
1111111110000111
1111111101111101
1111111111001100
1111111111111000
101110
1110111
1111111101101000
1111111011101110
1111111111010100
10000001
1101001
1111111111001100
100011
101001001
1111111111100001
10110010
111111011
1011001
110101110
1011111001
11001110110
10011000110
1101101100
1110000000
11011010110
10011000111
1111111110
1111111011110101
1111111100111101
1111111001110110
1111111000000110
1111111010100100
1111111100111010
100000010
1111111110110001
1111111111011101
11011011
1111111111011001
1111111100010100
1111011
1111111111000111
10010111
1111110
1001101010
10010111101
10011001111
10100010110
10100110111
100010000000
11011111100
11001001001
10010000010
10101100101
1001000010
10010010001
10011011
10001
1111111100010011
1111111001100010
1111110110000010
1111111110100011
1111111101100111
10010010
1111111110000000
100010011
10
111001
11100101
111100000
1111010110
1001001010
11001010000
10001101110
1010111001
1111011110
1011111011
1001000000
1000100011
100100100
1100011111
1011011100
1111111000101010
1000100000
100101011
1111111111101111
1111111110001001
1111111001101101
1111111001100000
1111111101001101
1111111011100110
1111111111101011
1111111110110111
1111111110111110
110
10101111
100000111
111101000
101000010
1111000010
10001110110
10001011010
1110011001
1110111101
10000110101
1111111110111010
11110110
1111110001100000
1111110001100110
1111111000111011
1111111011010010
110110
1111111000110101
1000100
1111111110010011
1010111
1111111010000001
1111110111000001
1111111110001100
1001001
10110
1111111110100011
100011
10001001
11001010
1010100101
1111111110111100
10100011100
10001000010
1101001011
101001010
1110011
1111110011010110
1111110111001101
1111110101010101
1111111111011011
1111111000010011
1111110110100111
1111110001011111
1111111000010000
1111111111000110
1111110111111111
1111110111001001
10101100
1111111000001111
1111110001010011
1111111010111010
1111111111011000
1111111111111010
1111111100010011
101111
1111111100001001
11111111
1001111111
11011110
1000101101
110111000
1111111010111001
1111111001111111
1111110111010110
1111110001101001
1111110010111000
101010100
1111111101110101
1111111101001010
1111110111111101
1111111100011101
1010010
1111111100111001
1111110011000011
11011101
1010111
1111101110000101
1111101011001011
1111110111111011
111000
1111111111110010
1111111110110000
1111111101111011
1111111110011101
10010100
1011110100
1111111111100011
1111111111111110
1111110111110011
1111011111111011
1111100011011000
1111101001101110
1111100111111111
1011000
1111111101101110
1001000
1100001100
10000111101
1101110000
1101101110
101001011
1111111100011100
1111111011001010
1111111100000101
1111101101111111
1111110001000101
1111111110111000
1000111
1111111010111111
111000
1110010
100100100
1001100
1111111101111000
1111101111010111
1111111010001100
1111100011100101
1111001110011110
1111011011111100
1111101011101011
1111101111011011
1111111000111000
10010100
10111101
101111101
1111001000
1010011011
1001011011
1010001101
1100000010
1111110110010000
1111110010001000
1111110011101001
1111110101100001
1111111110110110
11011101
1111111111001011
1111111100111000
110100
100000
1111111110110111
1111110100110100
1111101100011001
1111101110111100
1111100111100100
1111101000010010
1111101111110010
111000
10011001011
1110001001
1111110111010010
11010
110111110
1111111100010111
10111101011
1011001000
110000111
111001111
1111101110110001
1111101101000100
1111110011110011
1111111110010100
10000110
1111111111011101
1111111110001101
1111111101001011
1000001
1111111101111111
1111111110100000
1111110000101100
1111101010111000
1111101110011000
1111111111101000
1001010011
1100011111
10100101100
10111101111
101101100
10001000
10010010011
10011001
11010111
11110110
1111110101001111
1111110010100010
1111101010011010
1111101010101100
1111101001100000
1111110100111111
1111111010111101
1010110
100000
1111111110101000
10011000
1111111110111001
1111111101011111
1111111011110111
1111110101001001
1111101010011000
1111101010101101
1111111011100101
1000101011
110001000
1010000000
1111111111000010
100001001
100110010
1001110111
1111110100110001
1111111110111000
1111111110100011
1111101011011110
1111100111000110
1111101101110011
1111110101000111
1111110011110001
1111110000101001
1111111000001011
11111010
1111111111010110
1111111100001101
10001110
1111111110000011
1011010
1111111011000110
1111111011000010
1111111000011111
1111111011110000
1111111100011101
1111111010011000
1111110100100100
1111100100100000
1111110010000000
110010101
11000001
10111110
1111111001010001
1111110111111011
1111110100100011
1111101000110110
1111110110100101
1111101001011001
1000101010
1111111000101010
1111111001001010
1111111011110000
100000001
100111100
1111111110010111
1111111111010000
10011001
11100
10101
1001110001
11111111
1111111111011100
1111110101100010
1111111001111001
1111111110011101
1111110101101001
10011100
1111111101010111
10011111
1111111100101000
1111101111010010
111011010
1111111010001011
1111101111111011
1011000111
1111111001010100
1111111111110110
110110101
1111111111111100
1001100
1111111111111000
1100101
1111111110001111
1111111110110010
1111111111100110
11100001
11100
1000111010
11010111
1000100000
10101001
11010001
1000011110
1111111110011001
1000001
1111111010011011
1111111100111000
1111110100101111
1111110000001001
1111111010001110
1111110101010101
1000001
1010010100
1100010001
1111110111100110
101010100
110000100
100111111
11111110
1
1111111111001100
111010
1111111100111000
110001
1111111101001011
10101001
1001001
11101010
1111111101001011
110100
101110100
1111110101111110
1111110110111100
1111110101010111
1111111110111011
1111110110010011
1111110010000100
1111111111000001
1111111111101010
1111111010100111
1001101000
1111111110010000
100000110
1011110010
10010011101
1001101110
11001101
110010100
1000101
1111111111011010
1000101
11
1111111111101111
10101101
1011010000
1111111111011100
1111111111111001
1111111111100011
11001100
1001011
11000100
11000
1100111011
110100
1100101000
10100000001
1000011001
1010010101
1011001000
11101001
1110111000
10100101100
1111100101
110011110
101111101
11011001
1111111111100111
1111111101110011
1111111100100010
1111111101001101
1111111111101000
1111111010001101
1111111110111111
1111111110100111
10100000
1111111011011111
11001111
1111111111001001
1111111100011000
11001010
1111111101011000
1000010111
100110000
1011000000
1110011110
11011010
1001011010
110010111
10100001100
10100000100
1101101110
1111110
100101101
101010
101
101110
1111111110101101
1111111010111000
100110010
1001100110
1111110111101011
1111011
100100111
1011111100
1001010011
100000000
1111111110000111
1111111011001100
1111111010100011
11110011
1111110111000011
1111110111101001
1111111001111100
1101111
1000101100
10001000010
10100011000
10000110110
1010000111
11000010
11001011
1111111111111100
1111111111001001
1010
110
1111111110000010
101100001
101010010
1111111110011001
1111111110010011
1111111101101111
11000100
1111111001101110
1111110110100111
1111110001011000
101100111
11101000
1111
1111111010010100
1111101011010100
1111111010111111
1110100
110000101
1111111101101100
111111
1011101001
101101000
1111111110111111
1101010
110010
10000001
111011
1111111100101111
11011010
11011001
10111011
1111111101101010
110011
10001010
1001100
1111110110100100
1111111010001110
1111111100010111
1111111000001100
1111111111000001
11110111
100011
1111110110100110
1111111110011111
100101100
11000101
10000011
100010110
1100011
1111111101010111
1111111110110000
1011101
11100000
1111111111110011
1111111110011010
1111001
1111111111011100
10010111
11000110
101001010
11011
1001011011
1111111110010100
10100001
1111111111011011
1001101
11011110
1100000000
1111111111001000
10100000
1111111100000001
1111110100000101
1111111100101111
1111111000001000
1111111000001000
1111111000011110
1111110011111001
1111111100001100
1111111101100110
1111111110101010
11111
110000
1110110
1001001
1011
11001001
11000001
1000110101
100010111
10001101
1111111110100001
1111111011011010
1001001001
1011111011
101000000
1101001101
10001010010
1101110110
101001001
1010111101
1111110110101110
1111110100101101
1111110100010101
1111110100111111
1111110110111011
1111111100111001
1111111100101101
1111111110000001
1111111110001001
1111111110000110
1100001
1111111111000110
1101100
1111111111111011
10000011
1111111111001011
11001001
1111111101010010
1111110111011100
1111111010101011
11010011
101000001
1010010100
1000010101
111110011
1111111110010100
101001001
11100000
1111111111100011
1000100
10011010
1111111111100110
1111111111100111
1111111100100010
100011
1111111110100100
10111100
10011110
100001
10111
1111111101011000
1111111100000110
1000001
1001111
1111111110101000
111
1100010
100001
10101010
1000111111
100100110
111110100
1011000110
100101011
100100110
110111001
100101111
100100
10011011
10110011
1111111110010011
11111101
1111111110101101
1111111111111111
1111111110100011
11001
1011000
111111
11111
1111111111000001
1101101
100101
1110010
1111111111001011
1111111101011011
100
100001101
11101001
1111111111111101
1111111111101011
11010101
1111111111101111
10010001
1011000
1110100
10010010
10101010
1111111100101011
0
10100101
1111111101000010
1111111101010111
1111111011010001
10001011
