1111111111101101
1111111111001101
1111111110110101
1111111111110110
11100
101000
1111111111110010
1111111110101011
1111111111111101
1111111110110001
1111111101111110
1111111110001101
1111111110110010
1111111111010010
1111111110011110
1111111101101011
10000001
100
1111111110110011
1111111011111011
1010001
1111111110101001
1111
1111111100111111
1111111111000110
1111111110111101
0
1111111101110001
1111111111010010
1111111101000111
1110000
1111111100011011
1111111111101010
11001101
1111111110110011
1111111111011110
1111111111111010
1001000
1111111111101111
111101
1111111101000010
1111111110111111
1111111101011010
1111111111100011
1111111111011011
10011000
10011
1001100
1111111111010100
1110
11
101011
1100101
1010100
1111111110111100
1111111111001001
1000111
10001111
10000010
1111111111101010
10011000
1111111111101001
1000001
1101110
1000000
1011111
11011011
111101000
100111010
11101010
1100101
1111111011101101
11110110
101010111
110101
100111111
10001001
100000010
1001110
1111111101101110
10110101
1111111110110011
10101010
1010110
10001
10100
1111111111001011
10010101
1111111101101000
11110000
1010010
110100011
110001001
1000110110
10011010
101001011
100010111
1111111010110110
1111111000101101
1111110010011101
1111110101000011
1110000
110010100
110100111
101001100
111111110
1101001
1111111110000101
111101
10111011
11
1111010
1100111
101
110001
1111111011100010
1111111111110010
10000100
10000001
101011110
101000111
101001001
1111111011011110
101010
1111111011000100
11010100
1111111111101111
1111111010000110
1111111011100111
1111111000111011
1111110100010010
100011111
11000110
11010
1000001110
11001110
1111111011110000
1111111010110111
1111111111010000
1100
1111111110000101
10110010
101101
1111111101011101
11010111
101110
1100000
11111011
1010001
100110110
1111111111011010
100
1000110
1111111100000011
1111111101010101
1111110011101110
1111111001110000
1111111110101000
11000000
111111101
111111001
10100000
111101101
100111000
101011111
1111111110001110
1111111111100101
10001011
1010010
1111111101111010
1001100
1111111110001001
1000000
1111111011101000
1111111110111000
1111111101110001
1111111010100111
110110100
1111111100000101
1111110110011011
1111110111101010
1111101111101100
1111101010011111
1111101111111100
1111110100101110
1111111001100001
1111111111010011
111001001
1111111110110110
1111111001110101
1111110110110111
11111011
1111111001111000
1111111010101111
1111111011111001
1111111110011010
10011111
100011
10000010
1111111100000000
1111111110001100
1111111100010011
1111111011010100
1111111100110000
1111111100011100
111010100
1111110001110010
101001010
11100110
1111111110001110
1111101011111111
1111100111111110
1111111111111010
10111010
1111110101001101
100101
110111
1111111110100110
10011011
1111111001100001
1111111111000000
1111111010100010
1111111111110001
1111111101001110
1111111110110001
111000
11000110
1111111100100100
1111111101000111
111011
1111111010101000
1111110110111100
1111110011100001
100000100
11110110
11011001
1111110101010001
1111111011000100
1111100001111111
1111110110110001
1111111010111111
1101000011
1111111011011101
1111111000111011
1111111101010110
1111111000100001
1111111111110000
1111110010001001
1111110000110110
1111110100101100
1111111101110100
10000011
1111111110110011
100001
111110
1111111101000001
1111111011111101
1010011
1111110011100111
1111101100110010
1111101011100100
1111111100101000
1111110010101101
1111101111100011
11111
1111110001111100
1111101011001111
1111110100110101
101011000
1111110101100111
1111110011100101
1111110101111111
1001100
110111000
1111111011011011
1111100010001111
1111101111111001
1111101100010010
1111111101000111
0
111
10110101
1010101
1111111110001110
1111111100000100
10000101
1111110011111111
1111110000000001
1111111010110001
1111110001111010
1111101100011011
1101101
1111111111001001
1111101111101101
1111101010001010
1111110100011011
1111111111110111
1111111011000110
10010011
101101111
1111111000101001
1111111000011101
1111111101111100
1111101011100110
1111110001011011
1111110000110010
1111111011100110
1111111110110000
10000111
10101000
1101111
1111111100111101
1111111100110000
1111111111100110
1111101111110100
1111101110010001
1111111010000001
1111110101011010
1111110101000010
1111110010110001
1111111011000101
1111101001001000
1111101101011101
1111111010111011
10101100001
1111110111100101
100001111
101010101
1111110110011011
1111110101111110
1111110011001101
1111111001100001
1111110011100010
1111110101000101
1111111111110100
1111111110011000
100110111
101010
1110111
100111
1111110111010111
1111111001001110
1111101101111010
1111111100000010
11111101
1111110110000100
1110101010
1110001101
1001011111
1111110110000100
1111110101100000
101000100
1111010110
1111111010001111
1111111111001010
1111111100011100
1111111101110110
10010001
1111110110001110
1111111010011100
110000111
1111111101110001
1111111111111000
1111010
1110010
1011010
1011111
1100100
1111110100111010
11
1111111111100100
10010000
111111001
110000
1011000001
1100111101
100111110
1111110111110111
1111101110111010
110011000
1111111010100101
11111101
1000000111
1111111011000011
1111111111110100
111011010
110000000
100110111
1001111110
100011100
1111111111000000
10001110
1111111111010011
10111010
1111111110111010
110010011
1111111111100011
1011100110
1111110101
10100001100
1010111000
1100110011
110110101
1010111100
101111111
1111101111010111
1001
1000101101
1001011000
10000001110
1001011101
110101011
11000101
1001110100
1001010110
1000101101
111000111
1000000101
110001
1111111111110010
1111111101010001
1111111111110000
1111111110101100
1010011000
111101
111010111
10011101111
10010101
1010011000
1111101100
11001100
1000111
1111111011110101
100111001
1011011110
10000100111
10111101100
11010100011
1010001111
100100110
10110
101010110
111111111
1111111011000111
1010101001
1110000011
11111100
1111111101011101
110001
1111111111101100
111111
101011101
1111111110100011
11001110
101010101
1111000001
1000001110
1011100011
111010110
11000100
1111111000110011
1111111010011010
10111101000
11110111011
11101000000
11101100100
1010110010
10000011001
10100101010
11011001010
10101110
1111011000
1110011011
10010000010
11011000
10001011
10110101
1111111011011100
111101
11110101
10011110
1111111000010010
1001110110
1000110100
1101010100
11011000
1111110111100110
1111110100010011
1111100100101101
1111111011010110
10111110001
11000001001
10010111010
1101101010
1100111000
11100110
10110100010
10101001100
111011000
111010010
111110010
1000010101
11000000
1111111111100011
1111111111111000
1111111110000101
101100
1001110011
1100001110
1111111011111110
1111111111011011
1001010101
1000110011
1010100
1111111000010011
1111100000100101
1111101011010011
1111111111010100
10010010101
1101011111
11000101110
10001001110
10110110110
10111101111
10000000000
10000000101
100101011
1101110011
10001100101
1000101100
1111010
10011001
110101
11100
1100000
11111100
1000101010
1101111
101011011
1010011010
111000000
1111111111001110
1111110011001000
1111101010110111
1111100110111111
1111110011111100
1010001001
10011101010
110010101
111110000
101011101
1101100010
101101110
1000110101
11010001
1111000000
1000011001
1100101
10011111
10001000
1111111100101111
10000
1101
110000000
111011101
110010011
1111111110111011
10011100000
1001100110
1111111001100111
1111110100111011
1111101101000101
1111100111101100
1111100000000000
1111110101101101
11110
1100010100
1111111110101100
111010100
110010111
11100111
10110000
1111111010101000
101000011
11100100
1111111010010000
101001
110101
1111111011010100
10100000
1111111111101101
1000000110
100001101
101011011
1111111111000001
1111111011100001
1001110111
1111110100111101
1111110000000100
1111100111001111
1111100100001001
1111110101010100
1111111010111010
1111101011000101
1111110100011111
1111111101001011
1111111011110010
11111000
1111111001101011
10010111
10110011
1000110100
1111111100101010
110010
1111111111111100
1111111100001001
1111010
1111111111100000
1111111111101101
11011111
110100100
101011010
1111111001111111
1111111000011111
1111111001110001
110000111
10000111
1111111001110001
1111111011010011
1111111011101011
1111101110010001
1111110111011110
1111101100100010
1111110011101011
1111101100100110
1111110100000001
1111111010110000
1111111110110111
1111111100010100
1111111010011110
1111111011100111
1111111100010101
10001110
10000001
1100100
1110001
1000000
1011101
1110011
1111111110100001
10000100
1111111001101000
1111111010100111
1111111001101100
1111111101001001
1111110001011101
1111110111110001
1111101101110010
1111110101001100
1111110010101011
1111101000101110
1111101110011100
1111101001001101
1111101010011101
1111111011101111
1000011
1111110111000001
1111110101111000
1111111110111111
1111111110101100
1111111100100010
10101
10000111
1111111111100001
1111111111011001
1111111100100111
1111111110010000
1111111110001000
1111111101011101
1111111011110101
1111111000001111
1111110011001100
1111110000110100
1111101101010010
1111110101101100
1111111011010111
101100101
1111111001100111
1111111010111101
1111110101101100
1111101110100110
1111101110011001
1111101110100010
1111111010111000
1111110011101011
1111110100101100
1111111110000010
110111010
101111
1111
1111111110110011
1111111110101000
1111111101011111
1111111100101110
1111111110110100
1111111110100001
1111111100000001
1111111001110111
1111110111011011
1111110010010011
1111110001010010
1111110001001101
1111110010001101
1111110101001011
1111110101000110
1111110110111101
1111101111101110
1111101100001010
1111100101101001
1111100100100111
1111110011010010
1111111001110010
1111111000100111
1111110111011101
1111111110100000
11010010
10111
11100
1111111111110001
10001100
1111111111111010
101100
100111
1111111010100111
1111111101100101
1111111111001010
1111111101011111
1111111011101111
1111110001011010
1111110010110011
1111111001010000
1111110011110111
1111101110001000
1111110001010110
1111110111100100
1111110101110100
1111110000011110
1111110110001110
1111111010010111
1111111101101110
1111111111010110
1010110
11010000
1111111111010000
1111111111101000
10011000
10101100
1111111111110011
1111111111110000
11111
1111111110110010
0
10010101
1111111111011111
1101001
10010110
1111111100110100
1111111101011011
1111111111100101
1111111111110011
1111111010001010
1111111111000111
0
1000101
1111111101101011
1111111111011001
1011011
1000001
1011
100011
1101111
1111111100000100
111
10101100
