1111011011011110
1111110101111101
1111111100010011
1101111111
110101011101
1111000010000100
1111010111110011
1111111110110100
1111100000111110
100010000111
1111110010000011
1111010001001100
1111110101001101
10010111010
100101010011
1111100001010001
111011100111
1001001010100
11101111110
1111110010101000
1111010010110100
101100000111
11000
1111110111001100
1111011101011110
1111010010010011
1111110111010001
1111100001100101
1111111001111110
101111000010
