10000111011
111100101111
1111101101
11010101111
1111001000101001
1100101110011
10010100010
101101111111
111011100010
1111011110000100
10100111010
1001001100111
101110011011
1111000100010111
1111010000100000
1001010000001
1110110001110000
1110000111000110
1111111110000110
1111110010000111
111001101000
1111011100101000
1110010001111100
100001100101
1001101110000
1101100111001
1111100110001010
1111100100010111
1100001100
1110010110101000
