1100111101110
1111101011101110
1111001101010001
1111001100010111
11010000
1010101100
10001011000111
1111100101000000
1110110111000110
110100011000
1110111011100000
1111010101000011
1011101101111
100010110100
1111000001010000
1111111001000001
1110100101011110
1111011110101000
1111011001110101
1011110100111
110101101101
1110001010011100
1111111011011110
1111010101111100
1111001100000011
1111110110100000
11100001111
1111100010011111
1111111001101100
1111110101100101
