1111011001110111
10010111110
1111101111111001
1000111101
1100000000
11101011100
1111100101100000
1001000000111
11111100
1110000001
1100010000110
11000110010
1111001100101000
100011011001
1100001000
1111101110001011
1111011111000101
1010000
1111000011101101
1111001011010011
1110100100010011
100101011100
110010010
1001101111100
1111110100101110
100110110100
1111111100001010
1100101100101
111011001010
1110110010111111
