10110100011
1110111111101111
1110110111111000
11001110100
101111100101
1111111000001111
1001101000
1111111010001001
1111011011001111
11101110011
110100101
101010110
1111110111001100
101000110001
100010111000
1111101101110000
1111110101111011
11110110111
1111010000000011
11011111101
1111010010010100
1111111100011000
1000011111010
1111111110100011
101001100
1111111111001110
1111100101001000
1010000111
100110011110
10000011000
