100101001001
1101001110
1011001011
1111111101101111
10010101110110
11111000
1111101010000000
1100000100011
1111111111011
1110100101100100
1111000000110111
1100101100110110
10110011101100
1110110101000010
1111011011100101
1111111000101100
10010001111001
1110100010010100
1100001110110101
1101001101
10111100100
1101111010110011
1111010000110010
1111110010000101
10110010111010
1111010001110100
1101100101011
1110100001010110
10110011111
11001011011
