10001110
1111111110111111
1111111101111010
111101
1111111111110110
1111111111001101
1111111111011100
1111111101101100
10011111
1111111100111111
10011
1111111110110001
1011011
111011
1111111110100110
1111111111000100
1111111111001000
10010001
1111111111110101
1111111111101111
1111111110011101
1111111110100101
1111111110000010
1111111111101110
1111111110010100
1111111101111001
1110011
11111100
1011110
1111111111111101
110101
1111111111100110
1111111100011111
1111111110011101
1111111111110110
1111111100001010
101001110
1111111101000101
11010
110010
101000
1111111111110000
11100000
11011100
1111111101101010
1100111
10000111
110010
1111111101010110
1111111111011110
1111111111111000
1111111111101101
10110100
101011
1111111111001101
1111111
1111111111000100
101000
10001000
1110101
1111111110010101
1111111111101111
110010
111010
10101100
1001101
10001110
111010
11001100
11100110
1011000101
10000110010
1101110000
11011000
1111111101101110
1111111011011001
1111111100010110
1011110
10100000
11100000
1111111110101000
1111111111111011
11001101
1111111010101010
100100101
1111111101011101
110001
1111111110001111
10011010
1001011
1111111111110101
100010110
101111001
1000011000
1010000111
110100100
1111111100100000
11011111
10000111
1010100010
1000111001
1111111111101100
1111110110001101
110011001
111101001
101100110
1111111101111010
1111111100101100
1111111110011010
1111111110010000
1111111111011100
10101110
10001111
1111111111011010
1010001
1110
1111111110011100
1111111101000111
1111111111101011
1111111011001010
11001110
1000111000
10001000010
10011101
1111110011110101
1111110111001101
11001001
1111111100000001
1100011
1000100100
11010110
1000100001
1001110111
1111111101001110
1111111000111111
1111110001111001
1111110101001111
1111111001001101
1111111101010010
1110111
1111111100110001
1111111111101001
1001000
1111111110000011
1100100
1111
1000100
110000
1111111110110011
1110101111
1110010001
100010111
1111111110101100
1111111111110010
1000111001
100100110
1111111101100011
1111111100011001
1111111010100001
1111111010011001
1111111100100000
1101110
1111111011101000
1111110111001101
1111111000111101
11001001
1100101
1111111110110000
10
11000010
1111111110001111
1111111100111011
1111111001111011
1111111110110000
101010101
110110101
11001111
101101010
11101001
1111111011100011
1111110101001110
1111110101010001
11011111
110000000
1111110110110010
1111111010111000
10100001
1111110011101010
1111110011011101
1111111011111001
100011110
1111111001011001
1111110100100001
1111111010011111
1111111010101011
1111111111110110
1111111110100011
111011
1111111110001000
1111111101100100
1111111000100001
1111111001010110
10010100
1111111110001001
1111111101000001
101
1111111100111011
11001110
1111111000010111
1110011
1111111110000111
10010
1111110111111010
1111111000011000
1111110011101111
1111110001001101
1111110100010101
11000110
1111111001111111
1111111010011100
1111110111101001
1111111000011010
1111111100100110
1010
1111111111011110
111010
1111111111110100
1111111011100110
1111110001100111
1111111000000010
1111111101010101
1111110100111100
1111111101000110
1111111101111111
1111111110110100
110111101
1111111010001111
1111111110110010
1111110010101010
1111100001111111
1111101011111110
1111110100110110
1111101011001010
1111100110110011
1111110011000010
1111111011010001
1111111101111010
1111110001101110
1111101111011101
1111110100100111
1111111101100111
11010100
100001001
1111111111111110
1111111100010000
1111110011100111
1111110101110110
110101
1111110011000000
1111110110000111
10010110
1011101100
10001110
1110110111
101111111
1011000001
101010010
1001010001
1101101
10101101
10000
1111110011101101
10110011
100100
1111111101100101
1111111110010111
1111110011100010
1111111001111111
1111111101110100
1101010
10010001
10110010
1111111110011001
1111110010011010
1111111100101011
1111111111101111
1111111010010010
110111110
10001001000
1111011001
11001011001
10110010010
11100010100
11101001000
11010001011
101000110100
10110011101
1110000100
11111111111
10100001100
100000101
1110011
1011010110
1010010100
1111111101010100
1111111011101000
1111111101110010
100100
110011
1100111
1111111110001010
1111111100101010
110100
1011100001
111000100
1110000001
1010001110
10111110010
11101101101
11101001010
10110100111
1111111000100010
10100
1110001011
11011000110
100101111001
11101101011
10111101000
10000001010
10010100011
11010011011
10001010001
111101101
1011
1001011
1111111110011000
10001001
1111111111011101
1111111111001001
101000001
11110111
1011111110
10000110100
10101010010
10010000000
10100101001
1110001010
1010100110
1111111010111110
1111100110010001
1111100100000110
1111111111100001
111011011
10011010111
1111111011000010
100010010100
11100010111
100011101100
100100101110
10111010001
110000100
1100111
1111111111011110
1111111110001101
1111111100100110
1111111101111110
1111111110010100
1000010
1111111111010010
10010000
1101111001
10111110110
10100000001
11000100000
1101110101
110100110
1111110111100000
1111101001111011
1111110001111010
1111111000100000
1111101010000011
1111111000010011
1111111000000110
10010101001
100001110110
11111001010
100011100111
10001111010
101101101
1111111111001001
1111111111111100
100
1111011
1000011
1111111101101011
11111110
1010011
1100000111
10100000100
11000101110
100110010
1001101111
11110001
1111111100011000
1111110100111100
1111101111010001
1111110010010010
1111101111101101
1111111000111011
1111101111110010
1111111110100110
1001001
1101011011
10000110010
11000001110
1111100000
10010000
11001000
1111100
11001010
1111111110111001
110000
1111111100011010
101111011
1011110010
1111110000
10110100000
1101110000
101011010
1111111101111010
1111101111101111
1111110110000000
1111101001001011
1111101010110111
1111111001010011
1111110100010000
1111111100000110
1100100001
1000100101
101001010
1111110111000111
1111110111101101
110000000
110100111
11010100
1000010011
10111010
10111110
1111111111011000
11000110
1111111100101100
1010001
110010
1101001010
10101010110
11000000001
10110111101
101101111
1111111111110011
1111110000011100
1111011111111000
1111011011100101
1111111010011010
1111101011111111
1111111011110101
1111111110111010
1111111100110000
1111101110010011
10001011
1111110001111100
1111111100100110
1010000101
1000111010
11101111
1111111111010111
1111111111011111
1111111110100111
1111111110001110
10100001
1111111100000110
1111111110110011
1011000100
11011110101
11100010111
111110110110
1000010110011
110111001110
100001111001
10111110101
101000
1101101110
1111110010101010
1111110100001110
1111111011010010
1111110101010110
1111110100001100
1111111011110110
1111110011101101
10
1111011010
10001010001
101000101
11001101
1110011
1111111110111100
1111111110010111
1100000
1111110111100001
1111111001010111
1010111101
1111111100001001
10001110100
11000010110
101110100001
111111000101
1001001001110
111001011010
100101001001
11101000000
1111111111110001
1111101111000100
1111111010000001
1111111000001011
1111110011111001
1111110101110001
1111111011100011
101001001
10100101011
1110010101
10000110
11001
1101
101110
1100
1111111111011010
1111110111010110
1111110110101001
1111110110011110
1111111101001100
1111111011000001
1111101101100101
100011110
1110001
10011110010
10000011111
1011111
1110011100
111000111
110000110
1111111100010101
1111101101110010
1111111110010010
1111111010011111
1111111011001110
110000011
110000110
101000000
10000011
10011111
100010110
1111111110000001
10001000
1111111110100101
1111111101010101
1111110001110101
1111101010001110
1111110010111011
1111111001000010
1111110001101010
1111101110111100
1111111000011110
1111101011001100
1111111000111000
1111110101101111
1100010
1111111111011000
1100101101
1111110101010001
1111111110010110
10100010
1111110111000010
101011111
1001100110
1011001011
101010100
1111111110000000
101011
1111111101001001
1101010
1000001
11111111
1111111100110100
1111110001111100
1111111001111010
1111111000011100
1111100101110100
1111110100010010
1111111110101010
1111110011111000
101011001
1001110
1111110101001011
1111111111000011
10010011
111011011
1111111101000000
1111111100011100
1111111101011000
1111111010010101
111111110
10011010001
10000000010
100101110
110000101
1111111111010110
1010011
10100001
1111111101010001
100011001
1111111111100000
1111111110000111
1111111101010010
1111111010100110
1111110111110010
111001000
110010000
1111101111000100
1111101101001101
1111110111010100
1111111010111110
1111111001010000
1111110100010110
11101
1000011010
1000100000
1111111001010100
100010011
110111110
1010100101
100100110
100101110
110000010
1111111111011110
1111111111110010
1111111110110101
1111111111111011
1111111101010010
1111111000001100
1111110101001110
1111101100011101
1111110001011001
1111110111110011
111110100
1111111110110000
1111110010011111
1111101111000111
1000001011
1111111110110011
1111111001001100
1111110001110110
1111111100010010
1111110011010001
1111111011111101
1010010001
1101111
110011100
1000010101
110110
100011
11001000
10110111
10010
10100110
1111111110101100
1111111111000111
1111111001111011
1111110011000101
1111100111001011
1111101011000000
1111110000100111
111100000
101101100
1
100011000
10000
1100100011
1111111100011011
1100001010
111111011
1111110111111100
1010001111
10001001100
1000110000
110100111
11111010
10111011
1111111111110001
1111111110101101
1111111101010110
11000
1111111110011010
11010010
1111111111001010
1111111101001010
1111111011110100
1111110110000101
1111111100101011
1111110110110101
1111111111001001
1000110
1111111101011111
1111111010111000
1111111000000110
1001001111
101010100
1000101
100011011
111001011
110101100
1111111000101001
1111110110111100
1111111110110001
1111111101101100
1111111111000000
1111111111010010
1111111111001001
1111111111111111
1001111
1111111101110010
1111111111110110
101011
1111111110111101
1111111111101001
1010000
1111111100011000
1111111110110000
11001110
100011100
10111111
10110011
1111111101111000
1111111000110110
11001101
110
1111111101100010
1111111110100111
1111111100100011
1111111010101101
1111111110011111
110111
1111111101010001
10101
1001001
1111111101001101
11100110
1111111111100010
1111111110001000
1111111111111110
11100111
1111111110110011
1111111101100110
1100101
110110
1111111111111011
10110101
1010000
1000001
10001010
11101001
1001110
1011101
1111111100100011
1100011
11001001
1101111
1111111101011101
10110
1111111101111101
1111111100111110
100011110
1111111111011110
1111111111100010
1111111111001101
1111111110111101
