1111111111001111
1111110
1111111101110111
1111111111000101
111110
1101
101001
1111111111110101
11000111
1111111111001100
1111111110111100
1111111110101111
1111111101110010
1111111111100010
1111111101011110
101000
1111111110011101
101010
1000
1111111110101101
0
10100010
10110101
1111111110100010
11
1111111111001011
1101011
111001
1010110
1111111110101001
10001000
1111111111000010
10011000
10000101
1111111110111110
1011110
1111111111011001
1111111110010110
1111100
101010
1111111100100101
1111111110011000
101011
1010011
1111111100101000
1110110
1111111101110111
1111111111100000
1111111111110101
1000011
111
1111111111111111
10
1010100
101111
1111111110111001
1111111111011110
11010110
1000000
1001001
1111111110111001
1111111111000110
1111111101100110
1001101
1111111101010011
1111111110110100
1111010
1111111111111100
1111111101110110
1011000
1111111111111110
10011010
1011010
1111111111011111
10011001
1101110
11011010
1111111101001110
10100100
1111111110011111
10110010
1111111110100100
1111111111001110
1111111111011100
1111111111111111
1110
1111111111111111
101001100
1110000
1111111111101111
1000011
1111111101110001
1111111101110110
1111111010101111
1111111111001011
1111111100111110
1111111101001111
1111111100001001
1111111011010010
1111111101000101
1111111110011111
1111111010010000
100010110
101101110
11110001
1111010
1111111110110110
1111111110100101
11111
11000111
10011111
1111111110100101
1111111101011001
1111111110010000
101010
1111111101110111
10110011
1111111111011001
1111111111001010
100101
1111111111011111
1111111101100101
101100000
101111000
1111111000101101
1111110110000000
1111110110110000
1111111111011010
1111111111011100
111111
110010011
1111010
1111111110011000
1001000100
1000011000
1000000110
100110011
101011111
10101101
10101101
1111111110000011
1100011
1111111110100101
11001
1111111111001010
11000001
11101001
100101000
110101101
1111000
111000111
1111111101100100
1111111010100001
1111111100001111
1001000
1111111000111000
11111111
100110101
1000100001
0
101001000
10000010
1110001001
1010010011
110110100
11101
1010
1001010
1111111110100101
1110011
10000111
100110011
1000110001
1010111110
1000001000
1101000010
1010000100
1101100010
10000100110
1111110101110100
1111111001101000
1111111010101101
10001
1101110
1111111101111100
1111110110000000
10000101
110100001
1001101110
10010100100
1000111111
1000110111
1001011110
101001001
1100
1111111111110011
1001000
1111111111010111
1111111110111100
1010011
1001001000
1011000100
100011101
101100011
11111011
1010111110
1101000111
1011010110
1111010110
101011011
100101101
1111110000101010
1111111111000001
1001011
101101010
1001110
1001111100
110111100
101000110
1001101110
1110111100
1001101111
1111111110100001
100010
10100
1111111110111000
1101000
1110011
1001100101
100101010
1111111111111111
111110
1111111001011111
1001001000
1001001110
1000110
1010001001
1010001100
1111111111110111
1111111101100111
1000111001
100001011
1111111110110110
1111111100010000
1111111010010000
1111111101100111
1000101101
1000010110
11000011010
1110000011
10110010
11000
1111111111111011
1111111111001101
1111111111000000
101111000
1011101010
1111111111000001
1100101010
1110000011
1110000
1001010110
1000110000
100111011
1101011001
11000110110
1101000010
1000010110
1111111100010011
1111111110011110
1000011111
10000100
1111110011010001
1100101
1111111000001001
1111111100001010
10000111111
1000111010
0
1111111110110001
1111111011101100
10011010
1111111110100101
1001011011
100111101
101000100
11000001
1111110101100001
1011000010
1000000110
1010011000
1100100101
1011000101
10110100011
1111110110000001
1111101010010100
1111110101110010
1111111001110101
111100111
1111101110101011
1111110001111111
1111111101110011
1111111011101000
1111110110110101
1001010001
110011000
1100010
111111
11110
100000
1111111111110001
101
1111111110011110
1111110011111011
1111110001101001
1111101100011001
1111111101100011
1111110010011010
1111111010100010
1111111110111010
10001011
10010
1111100101010011
1111101111111011
1111111010001001
1111110000010111
1111110011110001
1111101000110011
1111100010101001
1111100011101111
1111100111100000
1111110001110101
10010010
11110
1000111
110010
1111111110000110
1111111111000001
1111111110111011
1111111010110101
1111111011011001
1111101100111011
1111110111111101
1111110111001011
1010010010
101011101
1010010001
1111111101110010
1111111000000011
1111111001100011
1111110011000111
1111110111110110
1111101110101011
1111110010111100
1111111110100111
1111110100101111
1111110011001110
1111101001001001
1111101001101110
1111110100111101
1111111100110101
1111111101110010
1000010
1111111110011100
1111111111110010
1111111111111100
100100
1111111110100110
1111110101001111
1111110101001000
1111110110010011
1111111101100110
11010110
1111111000100010
1111110001011010
1111111010111110
1111111110011011
11110001
110101
1111110111110011
1111111000110000
1111100111101110
1111110101011110
1111111110110000
1111110001111001
1111101111110010
1111110101110100
10000110
101010110
10111101
1111111111100110
1011100
11001011
1111111111101001
1110100
100010
1111111001001101
1111110111111001
1111111101101010
110110001
1111111110011111
1111111010100010
1111110111000100
1111110010101100
1111111100010010
1111111101100001
11110101
100010101
1111110111011011
1111110010010001
1111101010001011
1111111000101101
1111110001110000
1111111010110010
11001001
10110001001
10000111101
1111111100011110
1111110110000100
1111111110010010
101010
100000010
10001010
1111111100001000
1111110100111000
111010
111011
110001001
100010010
111101100
11011
100010010
10100011
1111111011111100
1111111000011101
1111111001011100
1111111001001011
1111101000010101
1111100101100110
1111110100101010
1111111101011011
1101010010
101111101
11110011101
1110101110
1111110100111111
1111111010001000
1001110
1111111110101000
1111111111011000
1111111111101010
1111111111111110
1111110110000011
1111111100001010
1111111111011100
1111111101100000
1111111100111110
10110001001
10101000010
1011100010
10010101000
10011001010
1111
1111110010110000
1111110000001011
1111110110101100
1111101010010101
1111111000000100
1111101111111111
10010000000
1011001011
10000000000
1001000100
1111101110011010
1111111001110101
10000101
1100100
10000111
1000110
101100001
1111111010100010
1111111000011010
1111111010110111
1111111101101110
1111101101101011
1111110000011010
1111111100100110
1111111010100110
1111111110001001
1000111101
1111111111101000
1111110111001100
1111101001001011
1111110111001110
1111110101110101
100100011
1111111111111010
1111000000
1101000111
1000110101
1111111110100110
1111110100011011
1111111000010101
1111111111111001
1111101
1111111110011101
1101100
110010011
1111111110110011
1111101100110001
1111101110101101
1111110010111011
1111011110011001
1111001101011000
1111010001010010
1111010001110000
1111010100011011
1111010110110110
1111011011111111
1111101000001101
1111111011011110
1111111000001101
1111111111001000
1100010100
10000101100
1100100111
10000011010
100111110
1111111011101110
1111111010100101
1111111010111100
1000
1111111110000111
10111100
11111010
111101011
101100
1111110010110000
1111101101110010
1111111001001011
1111101111001010
1111011011010100
1111100000000111
1111011101010101
1111011011110011
1111000111100000
1111010010010011
1111011100110010
1111111101010111
100010000
100001011
1000011111
10001010011
1010011110
10101110001
1010100010
1111111011111011
1111111000100110
1111111101110000
1111111100110001
1111111111101011
11011110
11000100
111111001
1000101001
1111111010110011
1111110010101100
1111111001011000
1111111101000000
1111111101001000
1111101111001011
1111111000100000
1111101000110101
1111110110010101
1111111010001000
11001100
101110111
1001001000
110001011
1011010001
1101001100
111110001
1111000011
1010111110
1110001
1111111110011111
10111
11111
1111111100101000
1111111111101010
10011010
110000011
111010011
1111111110010111
1111111000110011
1111111001101000
1111111000000001
1111101000000110
1111110111101100
11011001
1000000001
10010101110
11001100101
11000000010
1111111011110110
1111101011110111
1001000000
100101111
1011111010
110000111
111111
1101000101
1111000
1111111100100010
11001
0
1111111101110000
1111111100111101
1111101
111111101
111111000
110001011
1010001010
1111111001010011
1111110101011000
1111110111011110
1111110100111010
1111111101101010
111110100
10001001
1001111011
1101000111
111111
1111110010010101
110100110
100001011
111001010
1111111100111011
10
1101110000
1111111110100000
1001000
1111111100101110
1010000
1111111100111100
1111111100010011
1111110
100010011
10010110111
1111010000
10110001110
111100110
101000100
1011100101
100100010
1111010110
1111011
1101001100
1101101011
110110100
111000100
100100110
1111111001000000
1111101111101010
1111111110011000
1111111001000111
10001001
110111111
11000001
1111111101101010
1101000
11011
10010000
1111111111110110
1111111110110110
1101001
1001100010
1010000010
10100011110
11011101001
10011100000
11111011110
11100010010
11000111011
1111001000
10100
110111000
1
11101010
1011010000
1111111001110010
1111110010001100
10001010
10100110
1001101001
10111010
11000101
111111
101100
1111111110010111
100000010
101
100001
110011
101000000
1000000000
1110100100
10100001011
10000010011
10101001000
11010111100
11100010010
11011111010
10001101111
1011001
110001110
100100000
1011100101
1001110011
10000000111
1010111110
101001001
111100011
101100111
101011
11111011
1100111
11011011
1111111110101100
1111111101111010
1111111110100010
1
1111111101110011
1111111110001101
1111111111001110
1111111101101001
1111111000010010
1111111010111001
1111111001111100
100110110
100000000
110101001
10000001
1100100011
1000000010
101111
11100
1000100111
10111001
101111101
1011000
1111111111011010
1011001
1001111
10001
1111111101100010
1111111110011111
1111111110011001
1111111111111001
11100
1111111111110000
1111111101000100
1111111111111110
1111111111001010
11001001
1101001
1111111111100111
1111111111100110
1111111100000101
1111111101010100
1111111111011010
1111111111011011
1111111111011000
101
1111111110011011
1011101
1111111101111111
10011110
111100
1111111111011010
110001
1111111100000010
1111111110001011
10100011
