1111111101100000
1111111101111100
1111111101000010
1111111101111101
1101100
110100111
1111111111100010
110111
111100
1111111101100110
1111111110001010
1111111101001000
111011
1100010
11011011
1111111110110011
1111111101000010
1111111101010011
1001111
10010111
1111111101101100
1111111101111011
1111111110000100
11101000
1111111110100011
1111111111110011
101011
1111111011011010
1111111111011100
1111111111010010
1111111110101000
10110001
101
100000
10101111
1111111110101101
1111111111110100
1111111111110000
10110001
1111111110000010
11011111
10
1001011
100001011
10010000
1000111
11111010
1111111101010000
1100001
1011000
110111
101100
1111111111111010
100101
1111111111000111
1111111111110100
1111111111111101
1001100
1111111110001101
1100111
1110001
10000011
10011
1111111101001101
1111111101111110
1000111
11110110
100010111
110010100
110010000
111000000
1010011111
111100101
11100101
1111111101000100
1111111101100110
1111111101011010
1111111111011101
110111
1111111110000000
1010101
10001110
10010111
10000
11100
1111101
10111100
101000
111101
1111111110100100
100110101
1010110
1000000111
110000110
110101000
1101101111
1100100100
10011101010
1101010111
1101001000
10001100010
100111110
1111111110100111
100000
1111111100111101
1111111000110100
1111110110100000
1111111100100100
1111111101101011
10100
1111111111000011
1111111110010111
111011
111101
1101100
1111111100110011
1111111110001000
10110111
10001100
101011111
111011010
101100010
1011110110
1100011100
1001000000
1111111110011110
101000011
111001000
1110000101
10001011
100101
10001101
11011011
1111110100110110
1111110101010101
1111110111110010
1111111100001111
1111111100010101
1101001
1100101
1111111110100000
1011100
11001110
1111111110011111
1111111111011001
11010110
11011001
1001101011
11011010
1010011100
10000001011
10000010100
1010101010
110010100
1111111110001011
1111111100101100
1111111100100101
1111111001000010
110000
1111111110111101
1111111000010010
1111111111011111
1111111001111001
1111111011101101
1111111100100011
1111111011001000
1111111011100011
1111111111100101
101
1111111100110000
1111111111111101
11001
1111111111000001
11011001
101010110
1001100100
101110001
1101110101
10000111101
1010011000
1001101110
111111000
10010000011
1111111110101110
1111111110011101
1111111101011001
111011001
110100111
1111110111110101
1111110001011001
111000000
1111111011010011
1111110111111111
1111111100110011
1111111101000000
1111111111001111
1111111111100000
1111111111110001
1010000
1111111111001101
101
11010101
1111111111010000
1111111110000100
1111111110100110
111101001
1001001110
10100100110
1011001010
111010110
10000010111
1001111001
1000001
1010101
1111111100000101
1011001101
1111111111101001
1111110110000010
111101010
1111111100010010
1111110110001100
1111111001111000
1111111100011010
1111111101001011
1111111110110001
1110010
11010
1111111100100001
1100011
1111110111011100
1111110011010110
1111110101111001
1101011
11001101
1000010010
1110011000
100100100
1111111010101001
10011100
11111101
1111111100111011
101011011
10000101
1011010001
101000100
11001
11001000
1111101110000100
1111101000111111
1111110010101110
1111111111111110
0
1111111110111100
1111111110111110
1111111110001100
1011110
111010
1111110101110000
1111100101110001
1111110111101001
1111111100010101
1111111001101100
1111111010010101
11010100
1111110110001101
1111011110101110
1111100001111111
1111110110011010
101001
1111111100110000
101010001
10010001
1111111110010010
10001011
10011
1111110011011011
1111100110111110
1111111001001010
1011100
1111111100011001
1111111110100010
10101
101010
1111111101111111
1111111100011010
1111101101100101
1111100100100111
1111101011011001
1111101010111110
1111011111111100
1111011010111000
1111010000011000
1111000010111011
1111000001000110
1111010100011100
1111110000110000
1000101
111011000
1001010100
100110011
111101110
1111111111011110
1111111011111011
1111110010010011
1111110000111010
1111111100100111
101010
1111111110010000
10010010
1111111101110000
1111111110001001
1111111101100101
1111110011001001
1111101100000101
1111100011100000
1111010111101101
1111001100000111
1110110101111101
1110110101001010
1110111110010010
1111001000011001
1111101001011101
1111110101101100
101011111
10010010
1111111111011101
100011110
1111111001
1001001101
1111110011110101
1111110011111011
1111110010110000
1111110101100111
1111111111011111
1111111111110101
1101100
1111111110110110
1111111111110101
1111111101111011
1111111001110010
1111101110111011
1111011111001011
1111010110111111
1111010101001101
1111010010111111
1111001110010111
1111011110011001
1111101101110101
1001111
111011100
101010110
101111
1111111110111111
1111110000111101
1111111011100010
1111111111110000
1111110110100111
1111101111010010
1111110100111111
1111111100000000
1111111011001010
101000101
11110
1110111
1111111101110010
10111100
1111111110010011
1111111001001101
1111110011110010
1111101011110110
1111100101111101
1111110000101001
1111110100100111
1111111100011101
1001111111
10011001011
10111111101
11010010100
11101110
1111111000110100
1111111011010010
1111001
1111111010011110
1111111111000011
1111110111001111
1111111010001110
1111111011101011
1111111100010000
100101
1101110
11001
1111111110011100
11101
10010011
1111111111100111
1111111110000000
1111111100001110
1111111010000110
1100100001
10101000111
1100111100
10101111011
1101000110
10001001101
10010110101
11011000
10000010110
1111111111111000
100100100
1111111100110100
100001
1111111111001111
1111111101101001
110000111
100101
1111111100000000
1111111111000001
111011110
110011111
0
1101111
10110000
1111111111111011
100101011
110000001
1001110101
1110011100
1110000011
10010010101
1100010110
11000100
1001101101
101100
1001101010
1110101
110100000
100011010
1111111100100000
11000011
1111111001101011
1111111111111111
110110100
101100
1111111101101010
1000011110
1011000110
10111001
1010110
0
10100101
1111111110010110
111101111
1000110111
1101001111
1010111100
1000010101
1111111100111001
1111111111101010
1111111001101001
110101
110100110
1001110011
10000000101
10001001
1111110111000010
1001111001
1101011110
1101100
1111111010100111
10110001
1111111110101011
1111111001110010
111000100
1010011001
110000000
10110110
1110001
1001011
10011100
1000000010
1000010001
11101110
1111111
1111111000010111
1111111101100110
1111110011110001
1111111000100001
11111101
1000100110
1001010000
1001000111
10000000
1111111011000100
100110
1100011
1111111100011001
1111110011111011
1111111001111010
1111111011001100
1111111001001010
10100000
1000000110
11100
1111111111111110
11100110
1111111110010010
111100
1010100001
1011010011
10101001
1111111101111111
1101111
1111110111011001
1111111100111100
1111110110100110
1111110101011111
1111110111100110
1111111100110011
1011010000
10011
1111111111101101
101101010
111111
1111111010111111
1111111100110000
1111111011001100
1111111011111000
1111111011000001
111010100
1000101010
100101
1111111110011010
111100
10011
1111111011111001
11111010
1100101010
100110111
1111111110101011
1111111100100001
1111111100010111
1111111011101110
1111110110101100
1111110100001111
1111101100111110
100100000
100010011
1111111111100111
1101000111
100011101
1111110101100001
1111111101101001
1111111111101100
110011
110001
10111001
100011111
110111101
11010011
1111111111100111
110
1111111110101010
1001001
1000011111
10000110100
100100000
1010010110
11010001
1001100101
101110101
110110001
1000100100
10101000
100111011
1101001001
1111111110000011
1111111101011001
1111111101001000
10001011
10110001
1111111101011111
1111111011000101
1111111100110111
1111111011001000
11101000
1111111111101100
100010011
101011
1111111111111101
1111111110000011
10
110000011
1000111001
1011001111
1000011011
110001
11111001
10100010
101111110
1111111100100000
1111111011110001
1111111001100001
1111110011101010
1111110111011001
1111111111100110
1110010
1010111011
111101101
1111111010001010
1111111101011111
1000011
101000001
111010111
111000011
101111
1111111010110010
1111111110010001
100111
101111
1010
11111111
1011000010
110010
1010001
1110
1001101
1111110101101110
1111110001111011
1111110000001011
1111111001100011
1010111
1111111010010001
110110101
11001000
11001101
10001011
1000
1111111111011110
1111111101000011
100110110
11000001
1111111110101111
10001011
1111111100101011
10000
1111111011011101
1111111110001011
1111111111001011
1001110
101111111
11001011
100001011
1111111000010011
1111111001010111
1111110011101110
1111111011010111
1111111100000000
1111110100111111
1111110101101000
1111111010010101
1111110111001101
1111110111101101
1111111101010110
10000001
1111111111000101
1111111111010100
1111111101110000
10111
1111111101111100
1111111111110000
1111111111001011
1100111
1010100
1111111110100100
1111111100011000
111000
1111000
10111010
10001111
10110010
1010001100
1111011010
11100011
11111
1111111100110000
1111110110101101
1111111010010000
1111111011110000
1111111011011100
10000001
10110011
1111111011001110
1111111110100111
11111111
111000
1111111110000111
110101
10010011
1111111110000000
1111111110001111
100000
1111111101111010
1111111
100010000
110110
11101000
10010010
1111
110011100
110000001
110101000
101000000
10010101
10011001
100000
100000
1111111011100011
1111111101011011
1111111110001001
1111111010100111
1111111111001011
1111111001011110
1111111101011111
1111111111011011
10010
10010010
11000
10000000
1111111101110101
1111111101100110
1111111111000101
1111111111000001
1111111110111000
1111111111111000
1000111
1111111101001111
10101101
100001011
11011010
10111011
1111111101001010
1111111110100100
1111111100000011
1111111110010001
1111111111010101
1111111101110110
1111111001101101
1111111101110110
1111111101000110
1111111110101111
1000011
10001100
1111111110001010
1111111111100000
10110111
100001100
1111111110110110
1111100
1111111101010011
10111011
11100
110111
1111111110100111
10000111
1111111100110111
10101110
10001110
1010101
1111111101101011
110100
1111111110111110
100000101
111001
101111
1111111110111111
1101011
110111
1111111111100110
1111111110110110
11011101
1111111110110101
1111111110001100
1111111110001111
1111111111111100
