1000
1111111110011100
11010
1111111111001100
1010010
1111111011111100
1111111110100001
1111111101010000
1111111110110110
1111111111101010
10011
1111111110011011
11010111
1111111110111110
1000111
1110001
1111111101010111
1111111110111011
1111111101110001
1111111111100000
10011011
1111111110001001
10011
10001101
101010
0
10001011
1001010
1100011
1111111110111111
1110100
1111111101100010
100010
1111111010110001
1111111111110111
11111
10110
1111111111001001
1111111111101010
11000101
1000110
10100100
1111111101001000
1111000
10110
1111111110011101
1111111101011011
1111111111101110
1111111010001000
1111111111100000
10000011
1111111110101101
10001011
111100
1111001
100000111
100
10000000
1000
1111111110101100
1111111110001100
1010
1111111101011101
11001
1111111110111111
1111111011101111
1111111010100101
1111111110001111
1111111001110000
1111110101011011
1111111011100101
1111111100000100
1111110111100000
1111111100111101
101001
100010
1000
1000
10110
10010000
111000
10010100
1111111111011010
11011
1011101
101000
1111111111111110
1111111111011000
1111111111110111
1111111100000100
1111111101111101
1111111001000001
1111110110001011
1111110110011000
1111110111000001
1111111010011010
1111111000010000
1111110101011000
1111111000011110
1111110000011001
1111101110010000
1111110100111111
1111110101010111
1111111011010110
101000010
101100111
101011001
100010101
1101111
100010010
110010
1000
1111111110011010
10101110
11000000
1001001
11
1111111010111010
1111111011110110
1111111011101101
1111111010001110
1111111011011000
1111111000111010
1111111011011110
1111110100111111
1111110010101101
1111111001110100
1000011000
1111111100111100
101110010
111010101
1111111100001000
1101100
1000111001
1001000001
1000111011
1010001010
10010110
1111111110001010
1111111101001011
11010
10001110
1111111111000000
1111111110111111
10010101
1111111100000100
11101010
1111111011110101
1111111011011100
1111110001001100
1111110010001011
1111101110100001
1111110100011000
10010111
11100
1111110100111010
1111111001000111
1111101101001101
1111111011101111
1111110000001110
1111111011000010
1111111010010100
1000100101
1011000110
111111001
100001000
1000000
110100
110101100
10000100
100011
1010110
1111111110011111
111001011
110011001
1011110011
11011001
1111111001001100
1111111001100111
1111110100010110
1111111011001111
101010100
1111111100011100
1111101110101001
1111110101100100
1111111000010101
1111110100000011
1111110110111101
11111111
10000101100
1111101000
110111001
1001001010
100000010
101110001
101100
1010111
11011
100000100
11011001
10011001
101011011
101010101
1110111110
1110110010
1111000100
10010011111
10100100011
11010100101
1101100001
1111111110001100
1111110010111111
1111101111100010
11011101
100001101
1000101001
10001000011
1111111100100101
10100001
1100000011
1111100100
110110011
1111111110000011
1101010
11101101
1111111110000111
1111111111100111
100000
1111111101101101
11111001
11001010
100101011
1100110111
1010101011
110110100
10011001001
11110110101
1010011010
10000001001
101110110
1001000011
1111010001
10001011011
1111111110000011
1000000100
1111111001000111
1111111011010000
101100111
10111010110
1101100111
1111111100110011
1111111101101101
0
1101011
10100101
10010011
10110011
11100101
11111
1001
1010110101
1111111101111111
1111110101001000
1110010010
1011110011
111110
100011110
10000110010
10010110111
11100110101
11100111111
101110011
10110110
10111100
1111111011001101
1111111110101011
10001011010
1110111101
100001000
100111
1111111111011011
1111111101110010
1101100
100100000
11111101
10101101
1111111101111010
1111111001101011
1111111110111100
1111111011100010
1111111001001010
110100000
101001001
1011100110
10100011
11000011010
100100110010
1101101001
1010101001
1011101000
10001100010
10011011010
1111111110001110
1111111000111111
10000010011
10100011000
1001000000
10101101
1111111111011010
1111111110001011
1111111
100111010
110010011
1111110111101101
1111111101100101
1111110111100111
1111110000101010
1111110001110100
1111110101000100
1001111011
101
110110001
10000
1110101000
1110001111
10010111101
111101000
1111111010110011
10010101
101101010
1111110100001110
1111101111001100
111010
101100011
11110010
1100000
111000
101001
1111111111111101
100011
1001110101
100000
111111000
100101011
1111101110110111
1111110010000000
1111011001
1001001
1001010011
10101100000
1111110110011100
1111110000111101
1111110100110100
1000000101
1100111011
1111111011000011
1001001010
1111110111010100
1111101111000001
1111101001101000
1111110010110010
1111111110001011
1111111110011000
1111111110010100
1111111111110110
10011101
11001110
101011111
101010111
1100111101
110011101
1100110000
1111111011001000
1111111000110110
1001
100101100
1100101100
1111110110010111
1111100010011110
1111100000001010
1111101000011110
1111101110100011
1111111010000101
1111101101001010
10100011
1111111101000010
1111111000011010
1111110110011100
1111110100110100
1111111011101110
1111111010110010
1111111111101011
1111111110111000
1111111111001100
1111111111100101
10010110
110101011
101000101
1111110101000110
101110
1111111111100101
101001
1001101001
101111111
1111110010111010
1111110000000010
1111100100001011
1111101011011110
1111100110010010
1111111001000011
1111110010000110
1111101101100111
1101011001
1101100111
11010010
10011000
1111111101110000
1111110001000101
1111111011010001
1111111101011001
111000
1010
1111111111001011
1111111110010100
1111
1111111101100011
1001000001
1010110110
1111110111000100
1111111001110101
1111111100101111
1111110101100001
1111111110111100
1111101110111000
1111100111010011
1111110010111111
1111110010010000
1111111100001001
1111110110110011
1111110001110010
1111111101000010
100000001
1000000
11110100
1111111100101010
1111110010110110
1111110111100111
10101011
1111111111110001
1111111111000110
11001
0
1111111111100011
1111111001101001
100000111
1111110101110011
1111111011111011
1111101110001000
1111101100001110
1111101001001110
1111110101101100
1111110101110101
1111111000000110
1111110011010111
1111110010001000
111000100
1111111111001101
1111111011001100
1111111100100001
1111110111110100
1111111011000000
10001010
1111111010111000
1111101111011010
1111111011100100
1011011
11011111
11000110
1001000
1111111110110000
1111111111011110
111100100
10111
11101001
1001111011
1111111110101010
1111110111001011
1111110010100110
1111110100010011
1111111101011100
1111111111011010
1111111100111011
1111111111011111
10010001010
10010100100
1111110111101001
1111111010001110
1111110010011100
1111111100110001
10110100
1111111010110101
1111110101100000
100001
1111111100111111
1111111100001110
1111111110011000
10001111
10010
1111111101010100
11101001
111100100
10111000
1011100000
1111111111100000
1111111001110100
1111101011010010
1111110101010111
1111110010001010
1111110110111111
1001000
10001000110
1000111
1111111011101001
1111110000000010
1111101010110111
1111110000100110
11111001
10000010
1111111001111001
1111110001100011
1111111111110011
1111111111101011
1111111111010001
0
100000110
111100101
1111111110110011
1110101100
1010011111
1100110
110011001
1111110111111100
1111111011111000
1111111000100010
1111111001010100
1010101000
101110011
1111111001100101
1111111011010011
1111111000101010
100111
1111101111110111
1111101010100000
1111110110111111
1111111111011111
1111110110000010
1111111001010011
1111111000101111
1111111111100110
1111111111010010
1111111111111111
1111111101101100
1110000
1101
1111111110100000
1001100010
110011
1101111
1111111110110111
10011101
1111111000111001
11111101
110110001
1001000110
1111110000010101
1111101101110110
1111111101000010
1111111100001010
1111110100011000
1111110110100110
1111110011011111
1111111001110011
1111111001000000
1111111001011001
1111111010110001
1111111011011111
1111111111001100
1111111111101000
10101111
1111111100111000
11110
1111111011000001
1111110100011010
1111111011000111
1111111101101110
1111111010011011
110101000
1111111001010110
1111110101111000
1001100100
110001110
1111111000001110
1111110111110101
100011101
1111110010000111
1111101110110010
1111110110100111
1111111010100011
1111111000011110
1111110111011010
1111111100011100
1111110010111011
1111110111100110
1111111100011001
1111111110110111
1111111110000111
1111111111011101
1111111101011111
1101001
101001
1111110001010001
1111101011001100
1111111000110011
1111111011010110
1111110000110101
1111111100010010
1111111001101101
1111111100110010
101111001
1111111111111101
111010011
1111111000101111
1111110000111000
1111111011100100
1111110111011100
1111110111110000
1111111000001110
1001010
1111101
1111111010001110
1111110111101011
1111111101010110
1011011
11011111
1111111110100011
1111111011010111
11100010
0
1111111101111011
1111111100000001
111110
1111111100100000
1011
1101001
110111001
100000010
1111111011110101
1111110000110100
1111111111110101
1111110001000001
1111110110100100
1111111011100101
1111110011100001
1111110110001110
1111111111110011
1111111111011100
1111111100010100
1111111110101001
1111111101010010
1111111100011100
1111111111100101
1111111101001010
1111111110111100
1010011
1111111110111101
10110111
100101001
11011111
110111
1111111001010110
1111110000110011
1111110001011101
1111111011100000
1111110110010100
1111111101001000
1111111010001110
1000111
1111111111011000
1111111110000101
1111111101110110
1111111101000100
1111111101100011
100110000
1111111011010011
1000000
110010
100011011
1111100
1111111101011101
1010000
1111111111001100
110110
1111111101011101
1111111110011010
11100110
10
1111111011110110
1111111101100011
1111110101100101
1111111010001110
1100
100011110
11011100
1011100101
11001111
111110010
110010110
111100000
101100000
1110011
1111111110101101
11011000
1100101
101111
11111111
10110110
1111111110111000
1111111111101001
110010
1011110
1111111110111111
1111111111110111
1011010
1111111111110010
10
1111111100100000
1111111111110010
1111111111011010
1111111010001110
1001111
100111000
10001001
1111111111110100
10111000
10010101
1111111111000010
10010
1100
10101101
101101
110000100
1111111110001110
1100
1001110
10100000
1111111111110100
1111111101001010
10001101
1111111111110101
100110
111011
1011
1111111110011011
11010
1111111111011111
1111111111000100
1111111111100100
1111111100010000
1111111111011001
1111111101111100
11011
1000011
1111111111100101
1111111111111011
10111100
1111111110100000
1111111100111111
1111111110100101
1111111110110101
1111100
1111111101000000
1111111111110100
111100
1111111111110000
