1111010100100100
100010011010
100110011010
1001100010
1111000011111101
110101110
1111100101111010
10010110101
1000011000000
1111011001000011
11010001101
110100011111
1111100110000101
1111000100001100
10011011
111010101001
1111111001001001
1111100000110010
101000101000
1111111010010111
110110000010
1100000010
1111110000101101
1111111110000100
1111100010101110
1111110011111001
1000011011110
1111111011011011
1110110111000001
1111101111010010
