1011100100101
1111010111101110
1111110100010000
1110111010100001
1111111010001000
110010001000
1110100011101
1111011101111101
1110101101010011
1000110011010
1111011010111001
1111010011001011
1101101010100
101000001000
1111011101001001
1111111101000100
1110100000000100
1110111011111100
1111010000111100
1010100001110
11010001011
1110011101101111
1101001101
1111011000000101
1111000011100101
1110110111
10010110100
1111010110001010
11111101
1000010
