10001101000
1111011100010010
1111001011100101
1111011000000101
1111100110011110
11100000100
1111100011101010
1111110101010000
1111110110001101
11010100011101
1111111000010001
1001110
1111000010011101
10001111010011
1111010100101101
1010101011001
1111111000101110
1110001010001101
1011000010111
10111010101
1111001101
100000011111011
1111100000100111
1111100011110001
1111011100111001
10011011
1110111111110111
1111011100111110
1111010000111000
1011000001
