0
0
0
0
0
0
0
0
0
0
0
0
100
10
11111110
11111111
0
1
0
11111111
0
0
0
0
0
0
0
0
0
0
0
11111111
0
1
1010
1001
111
1000
1000
11110110
11111100
11111001
1000
1001
1
11111011
1111
11001
10001
10001
1011
1001
1
1
11111111
0
0
0
0
111
1000
0
11111110
11111100
1010
100
11111011
11111010
11110110
11110011
11110010
11111101
11111011
11110001
11111000
1
111
101
1011
1010
11111010
11111110
0
0
0
11111111
0
1010
1100
11111101
11111001
110
1
101
11111001
11111001
11111111
11111010
11110100
11110101
11111000
11110100
11111101
11111101
101
1
100
100
111
0
1010
0
0
1
100
11
1100
11
11111100
11
11111111
11110111
11111011
11111101
11111100
10
11111010
11111011
11111100
11111000
11111100
0
11111111
11111101
11111010
11
110
11111110
11111101
11111010
0
0
1000
100
1111
1000
110
11111110
11110101
11110110
11111101
0
11111011
11111010
11111100
10
1
11111101
11111001
11111100
11111101
11
0
1
1000
11111101
10
11111110
0
10
1
110
1010
0
10
11111110
11111100
11111100
11
10
11111001
11111110
10
11111110
11111110
0
0
10
11111100
11111101
11111110
11111000
100
100
1000
110
0
101
11111110
1001
11
11111100
1
11111011
11111111
1
11111110
11111111
11111000
11111001
111
1
11111101
11111111
11111111
11111111
0
0
11111100
0
11111101
11
1011
110
101
11110111
110
101
10
0
0
11111001
11111101
11111101
11111110
11111001
11110110
11111100
100
101
1
1
11111110
11111111
11111111
1
11111110
11111100
11111110
111
11
0
11111100
0
101
11111001
0
0
0
11111100
11111110
11111011
11111010
11110110
11110101
11111110
110
110
110
100
1
0
11111110
11111110
11111111
0
11111101
11
0
11111110
11111011
110
0
11110110
100
0
10
0
11111100
11111010
11111000
11110010
11110010
11111110
110
1011
1001
1
1
1
11111101
11111011
11111110
11111111
110
1010
110
11111111
11111110
1100
11
11111110
1011
0
0
0
11111101
11111101
11110011
11110111
11110110
0
101
1011
0
11111101
1
0
11111110
0
101
110
11
1010
1011
100
11111111
11
1
11111100
1011
11111101
11110111
101
0
11111100
11111010
11111011
0
101
1011
111
11111100
11111101
0
11111100
11111000
11110011
11111110
11110110
11110101
10
1100
0
11
0
1001
0
1000
11111100
11110100
11111110
10
1
1
0
110
111
100
11111010
11111011
11111111
1
11111000
11111001
11110011
11110111
11110011
11110001
10
1000
11110110
0
1001
1001
10
11111110
11111011
11111010
11111001
0
1
11111110
11
10
10
0
11111010
11111010
11111100
0
11111100
11111100
1000
11111100
11110110
11110010
0
110
11111001
0
101
0
11110111
0
100
11
11111101
101
1
11111100
0
11
110
11111110
11111011
11111011
0
11
11111011
11111011
11111011
11110110
11110101
11101101
11111111
111
11111000
0
10
11111111
11111111
0
1001
1
11111100
11111010
11110011
11110001
11111100
11111111
110
11111110
11111101
1
11
0
11111101
1
11111100
11110110
11110110
11111101
11111011
1
11111010
0
1001
11111100
11
11111101
1000
111
11
11111010
11110110
11111000
11111101
11111100
0
0
1
111
101
10
11
11111111
11111010
11111100
11111000
11111000
100
0
11111010
11110111
1000
11111111
101
0
111
1
100
101
11
11111111
11111110
101
110
100
110
1101
1100
11111111
11111101
11110100
11110110
11111111
11111101
11110001
100
11
1000
111
101
0
11
0
100
0
100
0
10
11111101
11111111
0
101
100
1001
101
10
11111101
11110011
11110010
11110011
11110100
11111110
11
1101
0
1001
11111111
11
11111110
1
101
10
110
11
101
100
11111111
10
11
101
110
100
11111110
0
11111111
11101100
11101100
11110111
11111100
11111010
11111101
0
110
111
110
11111111
0
1
1
1
10
100
100
10
10
10
0
11
11111111
11111111
11111010
11111111
11110111
11011111
11101101
11110111
11111100
11111100
10
101
1110
0
101
100
11111101
11111111
0
1
11
0
11
100
0
11111011
11111100
11111110
11111101
0
11111010
11110110
11101000
11110100
11111001
11111010
11111000
11101111
11101111
11
1101
1
0
0
1011
11111010
111
0
10
100
1
10
0
11111110
11111110
11111100
11111111
11111100
11110011
11110101
11110100
11110110
11111110
1
0
0
11
110
1010
0
0
0
0
11
10
1011
11111101
11111101
11111110
11111001
11110111
11111010
11111010
11111110
1
11111010
11110100
11110011
11110010
11110101
11111100
11111111
11111111
11111100
11
101
10
0
0
1
110
111
1001
100
10
11110100
11110110
11111101
11110010
11110111
11111110
11111001
11110100
11101101
11101011
11111100
0
1
100
11111010
11111001
1001
1001
11111010
0
0
1
0
0
11111001
11110010
11111110
11111010
11110111
1
11111100
11111011
11111001
11110000
11110110
11110001
11111000
101
11
11111001
11111101
11110100
11110001
11110110
11111010
0
1
0
0
0
0
0
0
11
11
11111101
11111110
11111010
11111100
11111101
11111000
11111011
1
11111101
11111000
0
11111110
11111101
11111111
11111011
11111010
11111100
11111110
0
0
11111111
0
