0
0
11111111
1
0
0
1
11111111
1
0
1
0
11111101
11111100
1
0
1
0
11111111
0
0
0
0
0
0
0
11111111
0
0
0
0
11111111
11111101
11111010
11110110
11110000
11110110
11110010
11110000
111
110
11111100
11111000
11
1000
1010
11110100
11111001
111
100
100
11
11111111
1
11111111
0
1
1
1
110
110
11110101
11111001
0
11111100
10000
10101
101
110
101
11111110
11111001
11111000
11111100
11111111
11111101
11110110
11111010
11110010
0
1010
0
0
0
0
0
11
100
11111101
11111000
11111000
11110000
11111101
101
111
100
11111111
0
0
11111001
11111100
11111101
11111000
11111011
11111000
11111100
11111110
11111110
1
101
11111011
0
0
11111111
11111010
11110110
11111000
11111100
11111101
11111110
11111100
0
11111110
0
0
0
1
11111100
11111101
0
11111100
0
11111101
11110111
11111100
11111101
11110110
11
11111000
1011
0
0
11111101
11111111
11111110
11111110
11111011
11111101
0
0
110
10
11111100
1
0
11111110
11111110
11
101
10
11111011
10
0
11111101
0
1
11111101
11111100
1
11111101
11111100
1
11111001
11111010
11111110
11111101
11111101
11111110
100
0
11111100
11111101
0
11111110
1
100
100
110
1
1
101
11111111
11110111
11111001
11111101
11
1
0
0
11111110
10
11
11111110
11111011
0
10
1000
1
11111110
1
0
11
111
1011
111
11
11111111
0
100
11111100
11111100
11111100
11110111
10
111
111
10
11111110
11111101
11111101
11111101
11111100
110
1000
110
1
11111110
11111110
0
111
1110
1110
1000
1
10
11111011
11111110
11111110
11111010
11110101
11101011
11111011
11
111
0
11111001
11110010
1
11111100
11111111
101
10
1
11111100
11110111
11111000
11111011
0
111
1101
101
111
100
11111110
11111100
11111011
11111111
11101100
11110001
11111001
100
11
0
11111001
11101111
11111101
0
11111111
11111111
0
0
0
11110110
11110011
11110110
11111111
100
1001
10
101
1000
101
0
111
1000
11110010
11111011
11111111
1
111
11110110
11111101
11101111
11111101
11
110
1
0
11111101
11111110
11110110
11110011
11110001
11110110
11111101
11111110
11111010
0
101
110
1000
10000
10000
0
11111011
1
10
100
11110111
11110011
11110111
0
11111111
11111110
10
100
0
0
0
11111111
11110011
11110000
11111010
11111110
11111111
10
11111110
111
101
1010
10100
10011
1100
1000
11111100
100
10
0
0
11111111
0
0
0
100
101
111
100
11111100
11110111
11110101
11110110
11111111
1
10
11111101
10
110
1101
1110
10100
10100
101
0
11111000
11111110
1
101
110
1
101
1
10
111
1010
110
11111010
11111010
11111011
11111000
0
11
1
100
0
0
0
110
101
10100
111
0
11111010
11111001
10
1
101
0
11
11111100
0
110
110
10
0
11111101
11111101
11111011
11111111
10
1
0
11111101
11111100
0
101
11
1100
1000
11
11110111
11111001
0
0
11111101
11111100
1
11111100
1
110
1010
1000
10
11111111
11111100
0
100
0
11111110
11111011
1
0
11111111
0
10111
10110
1001
1
11110111
11111010
0
100
11111000
11111101
11111101
11111100
11111111
101
1010
1001
0
11111100
11111110
11111110
0
0
11111101
0
11111110
0
0
1001
10100
1100
1000
111
11110111
11111001
10
11111100
11111111
11111101
11111100
11111101
11111111
110
111
101
11111110
11111010
11111000
11111001
11111110
10
11111110
0
11111111
11
11111111
1111
101
1
0
11111010
111
11111101
10
0
11111010
11111111
0
11111100
1
110
111
1000
10
11111110
11110110
11111001
11111101
0
11111100
0
0
111
0
1000
11111101
111
11
0
0
1000
1011
0
1
0
0
0
100
1001
1000
101
1
11110111
11111001
11111001
11111001
11111011
0
1
1
101
101
1100
11111011
1000
0
11111101
11111001
1010
1101
1
111
111
10
1
100
111
10
10
10
11111110
11111010
11111100
11111010
11111101
0
11111111
1
1100
1111
1011
101
1100
100
11111101
11111001
110
1
10
1011
1100
1001
1000
1010
101
100
1001
11
11111110
11111001
11110111
11111000
11111100
11111011
11111111
100
1011
1010
1001
110
11111011
101
0
0
11110110
11111010
1
1000
101
11
111
1001
11
101
111
100
11
11111100
11111010
11111000
11110111
11111100
10
0
10100
1001
100
0
11110100
0
0
0
11111111
11101111
111
11111100
11111010
11110111
11111110
11111111
11111110
0
1000
101
11
11
11111100
11111000
11111110
10
0
1001
1100
10
11
110
110
1
0
0
11110101
1
0
11111001
11111001
11111001
11110011
11110110
11110111
11111010
11111000
11110011
11110111
11111111
11111101
11110010
11101000
11011111
11101110
11111010
0
11111100
11110110
1000
100
0
0
0
11111111
10
11111001
11111110
11111110
11111110
0
11111100
11111111
11111100
11111101
11111011
11111001
11111100
11111000
11101000
11101000
11101000
11100001
11100001
11110001
11111101
11111100
101
11111111
0
11111111
0
0
0
111
1100
11111101
10
0
10
111
1
0
1110
101
101
10100
11111001
11111001
11111110
11110100
11110101
11111010
1000
0
0
0
0
