0
0
0
0
0
1
1
0
0
0
0
0
10
11
1
0
0
0
0
0
0
11111111
11111111
0
0
0
0
11111111
0
1
0
1
0
1
0
0
101
10
10
110
1100
10100
10010
1000
101
110
10
100
10
100
0
1
0
0
11111111
11111111
0
0
0
11111011
110
1001
110
10
0
11110000
11111110
11111110
11111111
11111101
11111000
11111111
1
1001
110
11
110
11111101
1
1
11111110
11111111
1
0
0
0
0
11111010
101
11
11
110
1000
101
110
1
100
0
0
0
11111001
11111000
11111110
11111010
11111100
0
11111110
11111010
101
11111011
1
0
11111111
11111101
1001
101
11111110
0
101
11111111
11111110
11111111
11111110
10
0
11111110
0
10
0
11111111
100
1
0
1000
110
11111111
11111110
111
1101
11111101
0
0
0
11111011
11111010
110
11111101
11111000
11
100
101
101
10
11111110
11111101
11111100
1
101
10
0
11
110
110
11111111
0
11111101
101
11111100
0
11
1001
11111010
10
1010
11111110
0
1
10
10
11
10
11111111
11111111
11111111
11
110
10
0
10
111
11111110
1
110
1
1110
110
0
110
1010
11111111
1
110
11111101
11111111
11111110
11111110
1
11
11111101
11111101
0
1
110
101
101
10
100
11
11
11111100
0
1000
11010
110
0
0
10
0
11111101
11111111
11111111
11111100
0
0
1
1
100
11111110
11111110
11111100
0
11111110
11111111
11111010
11111001
0
0
11110111
11111100
11111110
10011
0
0
0
11110100
110
11111101
11111111
10
11111101
11
11111111
11111111
10
1
11110100
11101101
11101111
11110010
11101000
11100011
11100100
11100110
11110011
11111001
11110111
11110101
11111100
1100
1010
0
11111111
11110001
1101
1
0
11111100
11111110
11
10
11111111
11111111
11111101
11110001
11110010
11110101
11110110
11101111
11101100
11101010
11100100
11100110
11100111
11100010
11101101
11111010
1010
1000
0
11110111
11110101
111
1101
0
11
0
11111110
11111111
0
101
110
11
11
11
1
1
0
11111110
11111100
11111100
11101101
11100101
11101111
11111101
100
11111011
11111111
11111010
11110110
0
1
11111110
0
1
11
11111111
100
1001
1001
101
100
0
0
0
100
10
10
1
11111100
11111111
11110101
11111111
11110110
11110111
11
1
11110010
11111111
111
0
11111110
10
11111110
0
10
111
1001
100
11111110
11111101
11111101
11111111
0
11111111
0
111
1
1
0
11111000
11101111
11111011
110
111
11110110
11110011
10
1
101
101
10
1
11
100
111
0
0
11111110
11111010
11111110
11111111
11111110
11111111
10
101
111
100
11111100
11110001
11111001
101
111
100
11110011
11110110
11111000
11111011
11111001
1
0
11
111
1000
10
11111101
11111111
11111110
11111110
11111111
11
0
10
0
1
10
11111001
1
11111111
11111100
100
11111111
11110110
11110100
11110101
11110001
11110100
11110101
11111001
11111100
11
110
100
11111100
11111111
11111000
11111110
0
10
11111101
100
10
0
11111011
11110100
11110011
11111001
0
11
11111111
0
11110110
11110010
11101111
11101111
11100100
11100100
11100110
11101100
11110110
11110111
11111000
11111110
11111010
11111101
0
1
11111100
100
11111100
0
100
11111110
11111110
11110100
11111101
1
0
10000
1
11111011
11111001
11111011
11110110
11110011
11101010
11100100
11100011
11101111
11110101
11110111
11111100
11111111
11111101
11111111
0
1
0
101
11
0
0
11111100
100
11111111
10
1111
11
0
101
11111110
0
1
1
1
0
11111000
11111010
11110101
11111001
0
11111110
10
0
0
1
100
1011
1001
11110000
11111100
0
11
10
101
100
101
100
11111100
100
11
101
1000
10
1
0
0
11111010
11111111
11111111
100
100
11111111
100
11
110
0
11111001
10
0
101
11111101
10
1011
11
10
11
11
11
101
101
100
0
0
11111111
11111110
11111101
0
11111111
101
1
0
11
111
0
11111011
0
0
0
11111110
1000
111
0
0
0
10
0
100
11
11111100
11111110
11111101
11111101
0
0
11111101
0
0
0
101
111
11111011
11111111
111
11111111
0
11111111
10
1001
1111
1000
100
0
101
110
110
1
11111110
10
10
11111111
11111100
11111100
11111011
0
100
100
11111010
11111111
11111100
0
111
0
0
0
11111111
100
100
101
10
111
10
101
101
11111111
11111110
11111110
11111110
11111011
11111100
11111111
0
11111011
1
10
11
10
11111110
11110100
11111000
0
11111111
0
1000
11111110
11
1010
1011
1010
1001
1001
100
0
10
100
11111111
1
0
11111111
0
10
100
111
1100
10010
1011
11111101
11111110
0
11111111
1
1
11111101
0
1
11111010
11
100
1101
1011
100
1
1010
111
1000
0
110
1001
1000
0
11111101
11111111
101
10
11111111
0
0
0
0
0
0
0
0
0
11111110
11111110
11111001
11110111
11110111
11110110
11110000
11110110
1
11111101
11110110
11110010
11110000
11110011
11111000
11110111
11111111
0
0
1
0
