0
0
0
11111111
0
0
0
0
0
0
0
11111111
11
1
11111101
11111111
11111111
0
11111111
0
0
0
0
0
0
11111111
11111111
0
1
0
1
11111111
1
11
1000
111
101
1000
1100
11
100
11111111
0
11111100
11111001
11111111
10001
10001
1110
10000
1010
11
0
1
0
0
0
0
110
11111110
10
1011
1000
1111
1000
1
0
1010
1000
1000
1000
1010
1000
1101
10110
10010
111
11011
10110
1011
11111111
0
0
0
11111111
0
11111100
1
11111110
1100
1001
1011
1
111
0
11
1
10
11110101
11110001
11110001
11101110
11110110
11111100
0
10
10001
10100
110
11111011
10
1
0
0
11111100
11111011
0
111
11111111
11111111
11111100
100
11
11111101
11111110
11110111
11110010
11110000
11110111
11111010
11111100
100
111
1
1000
1101
11
11111100
11110101
1
0
11111111
1100
11111010
100
11111100
10
0
0
1
11111010
11111100
11111100
11110000
11110100
11110110
11111101
11111010
11110111
11111010
11111111
110
101
1000
1011
0
11110111
11111001
0
0
0
11111010
100
11111010
11111111
0
0
0
11111000
11110101
11110101
11110010
11110101
11110011
11110010
11110001
11110010
11111010
0
11111101
0
1100
1001
0
11111010
10
0
11110111
11111001
11111000
0
100
11111101
11111101
11111101
11111010
11111101
11111111
11111000
11110111
11110111
11110011
11101011
11110110
11111001
0
0
1
11
10
11
11111011
0
11
110
11110100
0
11111110
11111011
1
11
1
11111011
11111110
1
11111111
11111101
11110111
11110110
11110100
11110000
11111001
11111111
0
1
1
0
0
11111011
11110110
11111101
11110001
11111001
11110101
1
11111010
11111111
11111001
0
11111101
11111110
11111100
11111100
11111110
11111010
11110111
11110011
11110100
11111101
11111110
101
10
11
100
11111110
0
11110101
11111001
11110101
11110001
11111010
11111010
11111001
11111110
10
11110111
11111011
100
11
0
0
11111110
11111100
11111010
11110010
11110110
11111110
101
10
1
0
11111110
1
11111101
11111100
11110110
11111011
10
11111011
0
11110101
11111100
11111001
11111100
0
1
1
11111111
1
11111111
1
11111111
11111000
11111001
11111110
11111010
11111110
11111110
11111110
0
11111010
11111101
11111101
11111001
1
11111111
0
11111100
11111000
11111000
11110110
11111110
1
11111110
11111111
11111101
0
100
1010
1011
0
11111111
11111100
11111110
11111110
11111111
11111110
11111111
1
11111111
100
11111100
11111011
11111010
101
0
11110101
11110101
11110011
11111011
11
0
10
0
0
101
1100
1010
100
10
0
11111110
10
11111111
11111101
11111110
1
11111111
100
0
0
10
110
100
11110100
11111010
11111011
100
10
0
11
11111101
11111100
10
1001
1100
111
11
110
10
0
10
0
11111100
11
11111000
0
11111111
0
11111010
11111111
11
101
1
11111110
11111110
0
11111101
11111111
11111100
11111001
11111101
110
1011
1010
101
110
10
0
10
0
0
101
11111110
11111000
0
0
11
11111001
101
0
10
11110001
11111110
1
11111111
11111111
11111001
11111000
11111111
111
1100
1100
110
100
10
1
11
10
100
11111110
1
1
1100
11111111
11111001
0
1000
11111101
11111011
11110011
11111010
11111110
11111101
11111011
11111010
11111111
10
10
1000
1000
10
10
11111110
11111101
0
11
10
11110100
11110110
10
10
11111111
11111000
11111000
111
11110110
11111010
11111001
11110110
11111011
11111110
11111110
11111100
0
11
1101
1100
111
110
100
11111101
11111101
11111100
11111001
11111111
11111000
11111100
1
1010
11111010
1000
110
11111000
11110011
11111101
11111001
11110111
11110011
11110111
11111110
11
101
1001
110
1000
111
1001
11
0
10
11111010
11111110
11111011
11110111
11111110
11111101
11111101
100
1000
11111111
1
11111000
11110100
11110100
11110101
11110100
11111001
11111011
0
10
10
100
1
1
110
11
100
10
11111101
11111011
11110110
11111000
11111011
11111100
11111110
1
111
100
1010
11111000
11111001
11111101
11111101
11110010
11110111
11111100
11111110
11111111
1
0
100
100
101
10
111
100
0
11111100
11111000
11111011
100
110
11111111
111
11111110
101
100
1
0
1001
0
11110100
11110111
11111101
0
11111111
0
0
100
0
101
100
100
101
111
11
1
1
11111110
11111011
0
1101
11111101
11111111
0
1001
0
1
1
11111111
11111010
0
0
0
10
11
10
1
11
11
1
110
101
110
11
111
110
11111100
101
1001
1
0
0
11
11111011
11110011
11111101
11110100
11111100
11111011
11111110
11111110
11111101
11111101
10
0
11111111
0
11110110
11111110
111
101
111
1110
1000
11111101
1000
11111111
0
0
0
11111011
11111000
11110101
11111001
11111100
11111100
11111011
11111001
11110011
11110100
11110011
11111000
11110101
11110101
11101011
11101000
11110000
11111011
100
100
11111101
100
11110101
11111100
11
0
11111111
0
0
11111101
10
11101110
11101011
11110001
11111001
11110000
11101100
11101101
11110011
11101011
11011101
11100110
11101110
11110011
11100110
11101010
11101111
11100011
11110001
11111000
111
1
0
0
0
0
0
0
0
11111110
11111011
11110101
11110110
11110110
11110000
11110100
11101110
11101101
11101101
11110110
11110001
11101110
11111000
11110101
11111100
11111010
11111011
11111011
0
0
0
0
