0
0
1
0
0
11111111
0
0
0
11111111
0
11111111
1
1
0
0
1
11111111
1
1
0
1
0
0
11111111
11111111
11111111
0
0
0
0
11111111
1
0
10
110
10
100
101
110
1010
111
111
10001
10000
10001
10001
1011
11
0
11
10
1
0
11111111
0
11111111
0
1
1
11
11111011
11111101
11111111
11111000
11110101
11110110
11111110
11110011
11110010
11111100
1011
1101
110
1000
111
0
0
1010
110
11111101
11111011
0
0
0
0
1
11111110
11111110
11111100
11110110
11111000
11110110
11110010
11110010
11101100
11101111
11110000
11111011
1
101
11
111
1000
110
11
11
11111110
110
1001
100
1
0
0
10
11111101
1
0
11111100
1
11111111
11111101
111
100
11111110
11111100
11111011
0
10
11
110
0
10
0
0
100
11111010
11111000
11
11
0
1
101
11111110
0
11111101
11110110
11111100
11111111
11111110
11111110
11111101
11111011
0
0
11111101
11111111
11111111
0
111
10
11
101
100
110
11111000
1
0
0
10
110
10
1
11110011
11111011
0
11111111
11111101
11111111
0
10
1
10
11111110
11111001
11111100
11111101
110
11
111
111
101
111
10000
1
1001
1
110
0
0
11111010
11111111
11111011
0
11111110
0
10
101
110
111
110
1
100
110
1010
101
100
11
110
0
0
1010
111
1000
111
11111111
11111011
11110101
11111011
11110110
11111100
11111110
11111111
11111110
11111110
1
100
11
110
101
1001
110
111
10
10
0
11111111
1001
111
110
1
1
10
1000
11110110
11101101
11111010
11111001
11111101
11111010
11111111
11111010
11111011
0
0
10
11
10
1
10
1000
101
11111110
1
10
11
110
1111
11111111
1001
11
101
11111100
11110111
11111011
11111110
11111010
0
0
11111110
11111101
11111111
11111101
11111100
11110111
11110011
11110100
11111011
11111100
11111001
11111010
0
11111011
11110001
0
1
111
0
10
1010
1001
11
110
11111011
11111110
0
11111110
11111111
0
11111111
11111101
11111001
11100111
11100111
11101000
11101101
11110000
11110100
11101111
11101110
11101101
11101000
11110110
11110111
1001
100
101
1011
110
11
0
1
11111111
11111110
100
110
111
110
11
11111110
11110001
11101110
11110000
11110100
11110101
11110001
11101111
11110000
11110110
11111010
0
11110111
0
101
0
1010
1101
11111110
0
0
11111111
11
11111110
1
1000
101
111
11111110
11111010
11110110
11111010
11111100
11110111
11111000
11110100
11110000
11111001
111
111
10
11111101
0
111
111
10010
11111001
1
0
11
100
11
100
110
11111110
0
11110110
11110101
11111011
11111100
11111111
11111100
11111001
11110111
11111010
0
1100
1101
100
11110101
11111100
101
11
11111111
11111100
101
0
11111110
0
10
111
11
11111110
11111101
11110101
11110001
11110111
11111111
0
11111101
11111000
11111011
100
11111010
1
100
11111111
11111011
11111011
11111101
1
11110100
11111010
11111110
1
11111011
1
11111111
100
10
100
11111110
11111001
11111000
11110110
11111010
11111110
11111111
1
11111011
11111100
0
0
1
0
11110001
11111011
11111111
11111111
11110110
1
11111110
10
11111111
111
11111110
0
101
101
11111101
11110010
11110110
11111001
11111001
11111111
0
11111111
11111110
0
1
100
0
11111111
11110011
11111000
11110111
0
11110100
0
11111100
10
11
111
11111100
11110110
11111101
11111101
11110101
11110010
11110100
11111000
11111011
11111111
11111100
0
1000
11
11
0
11111000
11111101
11110100
11110001
1
1001
1000
0
0
0
101
0
11111110
11111101
11111011
0
11111011
11111001
11110111
11111000
11111010
11111111
100
1
101
10
1000
1001
0
11111100
11110000
11111000
1
0
10
11111110
11111110
10
1
1
11
100
11
1001
111
10
11111111
11111110
11111011
0
100
0
10
10
110
11
11111101
0
11110101
11
0
11111010
11110111
110
111
1
11111101
11
11111101
101
101
111
110
110
11
1
11111011
0
11
1
100
10
110
101
1000
1001
11111001
101
1
0
11101011
10
11111110
10
11111101
1
11111110
11111111
1
11
11
1
10
0
0
11
11
10
11111111
110
11
1010
11111010
11
110
100
0
1
11111011
0
0
0
0
0
11111111
1
11
1
0
0
1
0
10
100
0
0
10
100
11111011
100
1
1
11
0
0
0
11111010
0
101
0
11111011
0
100
1000
1
0
1
1
11111110
11111110
11111111
10
1001
1
1
11111110
1
11111011
0
11110111
11111101
1
0
11111111
11111010
110
11111101
11111001
11111101
0
1
110
1
100
11111101
11111010
11110100
11111100
0
10
110
1
11111111
11111110
110
1101
1010
0
10
0
11111111
0
1
11111110
11111011
11111101
11111110
1
110
100
101
1001
1000
0
11111000
110
1010
11111001
11111110
111
101
11111000
1010
0
0
0
0
0
0
0
0
11111111
0
11111111
11111101
11111111
11111010
11111000
11110101
11111011
11
100
11110111
11110100
11110111
11111010
11111000
11111011
11111000
11111000
11111010
0
0
0
0
0
