0
0
0
11111111
0
0
0
0
0
0
0
0
11111100
11111100
1
0
0
0
1
0
0
0
0
0
0
0
0
0
0
1
0
0
11111111
11111100
11110000
11101011
11110100
11101001
11101001
11110001
11110101
11110111
0
11110010
11110101
11101101
11100001
11101111
11110010
11110100
11111000
11110101
0
1
0
0
11111111
0
11111100
11111010
11110111
11110101
11110010
11101110
11100110
11101001
11011010
11010001
11101001
11101101
11101110
11100101
11110110
11111011
11111001
11101110
11110100
11101011
11110101
11101111
11110101
11111010
0
11111111
0
1
11111011
11110100
11110111
11110101
11101110
11101000
11110010
11100111
11101001
11110000
11101001
11011100
11100111
11101111
11110001
11111011
0
11
0
0
11111111
11111110
11101110
11110011
11111011
1
0
0
11111110
10
0
11111000
11111000
11101111
11110001
11100110
11110001
11110100
11101110
11101001
11100111
11101100
11101101
11111000
11111010
11111011
11111001
0
110
1000
110
100
1
11110011
0
0
11110100
11111000
11110101
11111101
11110101
11111111
1
11111100
11111110
11111010
11111001
11111011
11111110
11110111
11110010
11111100
11111110
11111111
11111011
11110100
11111000
11111101
0
11111111
11111100
11111100
0
11111110
10
11111100
11111101
110
11110110
0
11
11111101
11
10
0
11
0
11111100
11111001
11111110
11111110
10
11111100
0
10
100
11111110
11111100
0
11111011
0
100
1001
100
11111111
11111101
0
10
1001
110
110
10
11
11
11111101
11111100
11111101
11111111
11111110
0
11
100
0
1001
0
11111010
11110101
11111100
11111000
0
1101
11
11111101
11111011
11111110
1
100
101
0
100
11111100
11111101
11111111
11111110
1
0
11
100
1
110
11111001
11
1101
10
11110000
0
10
101
11111101
101
1
11111101
11111101
1010
101
0
0
11111111
10
0
0
0
101
1010
111
11
0
0
10
0
1
100
100
10
1
0
0
100
110
10
11
111
100
11111111
11111101
11111111
10
11111110
11111011
0
110
100
110
10
0
1
11111100
11111111
11111101
111
100
11111111
0
11110101
1000
1000
10
0
11111110
11
110
100
100
100
100
11111101
11111001
1
1001
1000
1
11111100
11111011
11111100
11111111
11
11110111
11111001
11111100
101
0
11111011
1100
100
100
0
0
1
10
110
111
110
0
11111101
11111001
11
111
0
0
11111000
11110010
11111011
11
11
11110110
0
0
11
11111100
11111011
1001
1000
1010
1000
100
101
111
111
1001
1000
11
11111111
11111011
111
110
1
0
11111010
0
0
110
11111110
11111001
0
11111100
11111001
0
0
1
101
1010
111
1
1001
111
101
1001
1000
101
0
11111101
1
101
110
11111111
1
111
1
1
11
110
11111101
1
11111010
11111111
0
11110110
0
11111011
10
10
101
1001
101
1011
1001
0
11111001
11111100
100
111
1001
101
0
0
10
100
10
111
0
1110
11111111
11
11111001
11111010
11110011
11111001
11111110
0
1
101
100
1
1
11
11111101
11111101
1
110
111
111
1
1
0
11111111
0
0
0
101
0
0
11111100
0
11110011
11110100
11111100
11111010
0
11111111
11
1
11
101
10
101
101
100
110
101
1
11111100
11111111
100
1
11111101
111
0
0
1000
11111110
110
11101101
11110011
11110111
11111000
11111100
11110100
11111011
11111110
1
11111111
11111110
11
0
10
11111111
11111101
11111101
1
101
111
11111110
11110101
11111010
10
11111010
11111101
10
1010
11110000
11111000
11101110
11110100
11110101
11111000
11110101
11110101
11110101
11111010
11110101
11111100
11111010
11
11111100
11111110
0
101
100
100
11111001
11111000
1
11110110
11111000
0
11111111
100
11110101
11110000
11110010
11101111
11110101
11110111
11110011
11110011
11101111
11110010
11110110
11111000
11111101
100
11111101
11111101
0
11111110
11111010
11110111
11110110
11111000
0
11111010
0
11111110
11111000
11111010
11111001
11110101
11111101
11101110
11111000
11111011
11110110
11110111
11110110
11111000
11110010
11110110
11111101
11
11111011
11111110
11111100
0
11111111
11111000
11101001
11111100
11111110
11111011
10
11111110
11111011
11100111
0
11111010
11111100
11111111
0
11
0
1
0
11111101
11110100
11111101
11111001
11111100
11111010
11111011
11111001
11111000
11110111
11111110
11110110
11
101
10
11
1
11111111
11101101
11110110
10
11111111
0
1
0
11111111
100
100
11111101
11111101
11111101
11110101
11110100
11110110
11111000
11111100
11111000
11111001
11111001
11111001
11111111
100
101
0
11111111
0
11
11111101
1011
1001
100
101
11
11
10
0
11111101
11111001
11111010
11110110
11111011
101
11111111
11111101
11111110
11111000
11110111
101
11
11110100
11111011
0
11111111
0
0
1011
10001
10010
1111
10110
10100
1100
1010
10
1010
1001
101
1
1011
1110
10001
1101
101
1
1010
110
1100
11111111
11111001
0
0
11111111
11111111
1000
1
1
1000
10010
10111
100000
1110
10010
11010
10011
11011
11100
11100
11000
10100
101
10011
10011
1110
1100
0
11111110
0
0
0
0
0
1
11111100
11111101
0
1
1000
1111
1110
10001
10001
10101
11010
11000
10011
1110
1010
1101
1001
1010
1100
1
11111111
0
1
0
