1
11111111
0
0
0
11111111
0
0
0
0
0
0
11111101
11111110
0
1
0
0
0
0
1
11111111
11111111
0
0
0
0
0
0
11111111
0
0
10
11111110
11111000
11110110
11111001
11110111
11110101
11110000
11101110
11110110
11
11110100
11110100
11101011
11101010
11111001
11110011
11111001
11110111
11111010
0
0
0
11111111
11111111
0
11111100
11111001
11110111
1
11111001
11101100
11110100
11111101
0
11110111
11111000
11110110
11110111
11111000
11111110
0
11111100
11111100
0
11111110
0
0
11111010
0
0
11111111
1
1
11111110
11110110
11111000
11111111
11110110
0
10
11111101
10
100
11111011
11110011
11111001
11111101
0
101
10
111
1100
1110
1110
1101
1000
11111010
1
0
1
0
0
0
11111001
11111111
11111110
1000
1010
11
10
100
11111101
11110101
11111011
1000
1100
10000
1111
1111
10110
1001
1010
1111
10010
11
11111101
11111000
0
0
11111010
1010
11111000
101
11
11
100
110
0
0
11111110
11111100
1000
1110
1110
1111
10111
10101
11100
10000
1000
10000
10101
10
1
11
0
0
11
11111110
11111100
0
11111001
11111001
11111110
11111110
0
11111001
11111011
0
1010
1011
100
1000
10000
1101
1
11111101
100
1101
101
10
1011
0
0
11111001
0
11111100
11110110
0
11111010
11110100
11111001
11111000
11111100
11111011
11111110
110
1001
110
110
11
1
0
0
11111100
11
110
10
1
10001
11111101
11111001
11110110
0
11110111
0
110
0
11110111
11110111
11111001
11111011
11111110
1
101
0
101
111
101
10
11111111
11111100
11
11111110
11111010
0
11
10100
101
11111011
11111001
10
11111010
11111000
0
11
11111011
11111101
11111001
0
11111111
1
11111110
11111010
10
11
0
1
0
11111110
0
11110111
1
11111110
1001
100
11111100
11111011
11111100
11110010
11110101
11111010
11111110
11111100
11111100
0
11111001
11111101
11111100
0
11110111
11111110
0
0
1
100
110
100
11111110
11111111
11
11111100
100
100
100
11111101
11110101
11111111
11110100
11110110
11111101
11111111
1
11111111
11111100
11111001
11111110
110
110
1000
0
11111011
11111100
11111100
1
10
11
10
11111110
11111100
100
1
11111111
11111101
11110110
1
11111001
11111000
11111100
1
0
0
11111110
1
101
1011
10111
1010
11111110
11110100
11111001
11111001
11111101
0
1
11111101
0
100
11111110
0
11111000
11
11111000
11111010
11110001
10
11111110
11111111
111
11
1
0
0
1011
10101
101
11111101
11111001
11111110
0
11111111
0
0
0
11111010
11111011
11111110
11111100
11111011
11111110
11111110
11110100
11111011
1001
11111111
11111111
111
1
0
11111000
11111101
1001
1001
11111110
11111011
11111101
1
0
0
0
101
11111111
11111011
11111000
11111001
11111110
11111001
11111001
0
11111101
0
10
11111110
11111100
111
11
10
0
110
1110
0
11111000
11111101
100
1
0
11111111
11111101
0
11111010
11111110
11110000
11111010
10
0
11111000
11111011
11111011
100
11111111
0
11111100
0
1
10
1010
10000
1100
1
11111000
11111111
1
0
0
11111111
11
11111010
11111001
11111100
11111111
11111101
11111011
101
0
11111100
11111011
1000
1
11111101
11111010
110
1011
1000
1111
110
0
11111100
11111010
11111111
10
11
0
10
11111011
11111001
11111011
0
10
11110111
1
11
11111011
0
11111010
1101
1101
11111111
11111100
1
100
1010
1001
110
11111011
11111000
11111001
0
11
11
11
100
11111111
0
11111011
11111001
1
11
11
101
0
11111001
11111000
1100
11
1010
0
101
1010
110
1
11
0
11111001
11111011
11111110
11111101
0
110
11
11111110
11111110
1
10
101
101
1001
0
0
11
11111100
10
11111100
1011
1101
1010
1011
1000
10
11
11111100
11111110
11111000
11111001
11111100
0
101
10
11111011
11111100
0
11
100
111
0
0
0
1000
101
1101
110
10010
1011
10011
1001
1
11111111
10
0
11111111
11111111
11111110
11111100
1
110
11
1
0
101
111
100
11111100
11111000
11111111
11111111
0
1001
1011
1110
111
100
101
1
11111110
11
111
100
1
1
11
100
1
100
11
0
11
1110
1111
10101
1
11111111
0
0
0
1001
1001
1010
11111110
11111000
11111110
101
0
111
1000
1000
110
10
11
101
1
100
101
110
1011
1011
1110
1110
1100
1100
0
1
1
11111101
11111101
11111100
11111011
0
0
1
11
11
1
100
11
0
1
11111111
11111011
11111111
11111011
0
10
11
10110
1010
10
11111010
0
0
0
1100
11110001
1001
11111111
0
11111101
11111101
0
101
11111111
11111110
0
11111111
11111111
11111101
0
11111100
1
11111100
11
1
0
1010
11111101
0
1
0
1
1
10
1001
1
101
100
1
111
100
11
110
0
1011
110
100
1001
10
11111110
11111101
100
0
110
1001
11111101
1
0
1
0
0
0
11111001
11110111
1
11111001
11111111
11111110
11111011
10
11111111
11110001
11111011
110
0
0
1
11111000
10
1
11111111
11110111
1
0
0
1
