0
0
1
0
0
11111111
0
0
0
11111111
11111111
0
1
0
0
0
1
0
0
0
0
11111111
0
0
0
1
0
0
11111111
11111111
0
1
11111111
0
100
100
10
101
110
110
101
11111101
10
1101
1110
1101
10000
1111
1100
1100
110
10
0
11111111
0
0
11111111
1
10
101
111
11111100
1000
1011
1011
1000
11
1001
1010
1101
10011
10100
10010
0
11111111
101
11111111
11100
10101
1011
1010
110
0
0
0
0
110
1000
101
0
1101
10110
1111
1101
1010
1000
1110
1110
110
1010
1111
1100
0
11111111
11
0
0
11
110
11111101
10
0
11111111
1
110
111
111
11110110
11111010
1010
10010
11001
10101
1111
101
1
100
1001
1
11111110
0
1000
101
11111100
11111111
11111111
10
11111111
11111010
1010
0
0
100
11110110
1001
11111111
11111111
110
110
100
111
11111110
11110001
11111011
11111110
101
0
0
110
1000
11
0
0
11
100
11111101
11111101
0
1
0
11111100
1010
1001
0
101
1011
11
1001
1010
1
11111011
11111110
0
10
0
0
11111110
0
10
0
11
0
0
11111011
11111100
11
0
110
11111001
10
1011
10
100
110
111
11
11111111
0
1
0
11
0
11111110
0
0
11111110
100
100
1
11
0
11111110
11
11
111
1100
10
11
11
11111100
11111101
11111100
11111101
11111101
11111111
11111110
0
11111101
0
0
11111111
10
0
11111111
110
0
1
0
11111110
11111010
11111011
11111010
11
111
11111011
11111110
1
1000
0
0
0
1
11111110
11111111
11111100
11111111
1
10
11
11
100
100
10
0
100
11
11
11111101
11110101
11111110
100
0
1101
1
11111101
101
1010
100
0
10
11111110
0
11111011
11
11
1000
1011
1001
111
111
0
0
11111110
11111011
11111011
0
0
10
11
1001
10
1011
1110
11111111
11
10
11111100
11111101
11111111
10
0
1
101
1000
101
1000
110
111
0
11111011
11111111
11111110
11111000
11111010
11111101
100
0
100
11111111
111
10000
1
11111101
0
11111111
0
11111110
11111101
11111100
11111010
11111100
11111111
11111111
0
110
100
11111011
11111111
11111011
11111001
11110101
11111010
11111101
1001
11111100
11
110
10011
10010
101
0
11111110
11111010
11111101
11111110
11111101
11111000
11110100
11110011
11110110
11111110
1
110
11
11111110
11111111
11111001
11111011
11111011
11111010
1
110
11111010
11111111
1010
10001
100
111
101
0
11111100
0
0
0
11111000
11110111
11110101
11111000
11111111
10
1001
0
11111111
11111110
11111110
11111101
11111111
0
110
110
11111100
11111111
11111101
10
11111110
1111
11
111
10
0
11111110
0
11110111
11111100
11110110
11111001
11111101
100
101
0
11
11111111
11111101
11111011
11111111
11111101
1001
11111111
101
10
0
110
1000
101
1001
100
1
1
11111111
11111111
11111000
11111011
11110111
11111000
1
1001
111
1010
100
101
0
0
11111101
11111101
1110
11111110
1
1
10
100
1110
1001
1000
100
110
0
11111111
11111011
11111011
11111001
11110111
11111101
10
1000
10010
10001
1010
10
1
11111111
11111111
0
101
101
100
1
1001
101
1000
0
11111011
100
1011
1000
111
11
100
11111101
11111101
11111110
0
1000
10010
10011
1001
100
1011
100
11111110
0
11111110
100
11111010
1001
1011
0
11111110
11111000
0
100
111
1011
1001
1100
1011
101
11111101
11111100
11111011
11111111
11
1110
1000
10
10
11111101
11111101
11111100
11111111
100
1
110
0
0
10
11111101
0
0
10
110
11
110
1010
0
11111111
11111001
11111101
11111100
101
11
101
0
0
11
11
11111011
1001
11111010
0
11
11111101
11111101
11111111
11111110
11110111
11111100
11111101
11111111
11111111
11111101
0
11111111
0
11111111
10
0
1100
1011
1001
1001
11111111
11111100
110
11111000
1101
10
11111111
1
1110
11111101
11111010
11111110
11111010
11111101
11111101
11111101
11111101
11111100
10
11111100
0
11111111
100
110
1100
1001
1111
1100
111
11111101
11111110
11110110
101
0
0
0
0
11111100
11111011
11
11
0
11111000
0
11111101
11111110
11111101
11111101
11111101
11111011
11111011
1
111
1000
1111
11
1
11111100
101
11111101
101
0
11111111
0
0
1
1
0
1
11111101
11111111
0
11
100
11111101
11111110
11111111
11111010
11111001
1
1
100
1101
11
11111000
11110111
11111101
0
101
0
0
0
11110111
1110
101
10
10
11
0
10
0
1
10
100
1000
1
11111101
11111010
11111101
11111001
1
0
11111000
11111100
11111011
100
11
0
0
11111111
0
11111011
11110100
0
0
1
11
11111110
10
0
11111110
110
11111111
11111101
11111110
11110111
11111011
11110111
11
1010
1100
110
11111001
101
11111111
0
0
0
0
1
111
1011
11111100
0
1
1
1011
0
11111111
111
11
11110111
0
11111110
0
100
100
110
110
10
0
1
1
0
