0
0
1
0
1
11111111
0
0
0
0
0
0
11111111
0
100
1
0
11111111
0
0
0
0
0
0
0
0
0
0
0
0
0
1
11
0
11111110
11111110
11111101
11111010
11111000
11101111
11110010
11111111
1001
1
0
11110111
11110101
11110100
11110011
11110101
11111110
11111101
0
11111111
0
0
1
0
11111100
11111011
1
10
11111011
11110111
11111110
110
110
100
1000
1001
10
0
10
10
11111011
11110110
0
11111010
11111001
11111000
11111111
11
0
0
0
0
11111110
11110110
10
0
11110110
11110111
10
1000
1111
10011
11100
1100
1001
1001
111
1001
101
0
1
0
11111010
0
0
110
11
0
0
0
11111110
11111111
11111101
11110110
11110111
11111000
1001
10101
11000
10110
11000
1100
1010
1101
1100
111
11
11111110
0
11111100
11111101
11111000
11111101
1
1101
11111101
0
11111111
11111010
11111111
11111101
11111001
11111111
0
1111
10101
10
10
101
11111110
11111110
110
1010
111
1
110
101
0
11
11
11111010
11
101
101
1
11111111
11111111
11111011
11111100
11110010
11111101
1
10011
1111
0
0
0
11111000
11110110
1
111
1000
1000
111
100
10
0
11111110
100
11111100
1100
0
0
100
11111001
0
11111111
11110101
110
1111
10000
101
11
11111111
11111111
11110101
11111011
11
110
10
100
101
101
111
11
10
10
0
101
11111111
11111001
100
11111001
11111110
110
10
1001
110
1001
111
1000
10
11111001
11110110
11111001
1
1000
10
11
0
0
0
1
0
1
1000
1001
1101
11111111
110
11111100
11111011
11111001
11
1000
110
111
110
1010
11
11111010
11110011
11110111
0
100
101
11
0
0
11111111
11
0
11111111
1010
1110
100
0
10
100
11111000
11111010
11111110
11
11111111
0
10
110
0
11111010
11110110
11110101
11111100
0
0
1
101
1
11
0
11111111
10
10110
1001
100
0
11110111
1100
1000
1100
11
11111110
11111101
1
0
1
11
11111111
11111101
0
110
110
11
100
0
10
0
100
11111101
0
100
1101
1100
1
11111001
10101
1011
10100
0
0
0
10
0
11111101
11111101
11111101
11111110
111
111
101
11111111
11
11
0
11111101
0
11111010
1
10
111
111
0
11111000
1010
11111101
101
101
1001
0
1
11111001
11110101
11110111
11110110
11
1011
11
11111111
1
100
10
110
11
11111101
11110101
11111111
1
0
0
11111001
0
1010
11111110
1000
111
0
11111111
11111011
11111001
11110001
11110011
11111000
100
1101
11
0
11111110
1
10
11111111
10
11111111
11111111
11111101
11111100
0
11111110
11111100
10
11111010
0
11111101
0
10
0
11111110
11111000
11110011
11110101
11111111
1100
1100
100
11111110
11111110
0
11111111
0
10
1
0
11110111
11110111
1000
0
110
101
0
100
11111110
0
0
11111001
11111100
11111100
11111001
11111001
110
1110
110
11111111
11111110
11111110
11111101
11111001
11111101
11111110
11111111
10
111
11111101
11111101
11111101
0
111
0
101
11111101
11111111
11111101
11111111
11111011
11110110
11110001
11111100
1011
1101
101
0
0
0
11111001
11111100
11111101
11111100
11110111
10
1
111
11111101
11111100
1010
100
110
10
11111011
11111110
0
11111100
11111101
11111010
11111001
0
111
1011
110
0
0
0
0
0
11111111
11111111
11111011
110
1
101
110
0
11111111
101
1
0
0
11111110
11111101
11111101
11111001
11111100
11111011
11111100
100
110
1001
111
111
111
111
100
11111111
110
10
1000
101
1101
1010
11111111
0
11111111
11111011
10
11111101
11111111
0
10
11111011
11111110
11111100
11111100
1
1011
10000
1100
1001
1001
111
1010
101
101
1101
10000
1011
1001
1010
11111101
0
101
11
11111110
11111111
11111110
11111110
0
11
11111110
11111100
11111101
0
111
1011
100
100
1010
1001
1100
10
11111110
101
1010
111
1
11111000
1
11111111
11
110
101
10
0
11111100
11111011
11111111
11111100
11110110
11111010
11111101
10
110
1
1
1001
111
0
10
11111111
100
1010
101
100
11110111
0
1
0
10
11
1001
10
11111010
11111011
11111010
11111010
11111001
11111101
0
111
100
0
101
100
100
11111101
110
100
11111100
0
100
0
11111111
0
0
0
100
1010
11111001
11111100
10
0
0
11111100
11111110
11111111
11111111
10
110
100
1001
1011
111
100
11
1
11111010
111
11111101
11111011
0
1
0
11111111
11
1001
1111
1001
0
0
111
1
1
111
11000
11111
100000
10101
100010
100000
10110
10100
11100
1001
0
1001
10
11111101
11111011
1
11111111
0
0
100
1
1101
10101
100010
10010
11100
11111
11001
100100
11111
100010
10100
1100
10010
11011
10100
10101
10001
1110
1010
0
11111110
0
0
0
0
0
0
11111100
11111100
1001
1001
1101
10010
1010
1001
10000
1110
10011
10010
1111
10011
10010
1101
1011
1010
1000
101
0
0
11111111
0
