0
11111111
0
11111111
0
0
11111111
0
0
1
11111111
11111111
0
100
110
0
0
0
0
1
0
0
0
0
1
0
0
0
0
0
0
11111111
0
0
1
100
0
1
1000
11
11111101
11111010
11111111
110
10000
1101
1000
111
110
101
11
0
0
0
0
0
0
0
0
100
11111011
0
1010
11111101
1001
10011
10101
10001
1110
1000
10
10
111
1000
110
100
10
1000
11111110
0
1001
110
0
11111111
0
11111111
101
1001
11111111
10
1110
11111100
101
1011
1
11111110
11
111
11111011
11110111
0
11111111
11111110
0
11
10
10
100
110
101
11
0
0
101
0
11111111
0
11111111
11111101
11110110
11111110
11111000
11111011
11111110
0
11111110
1
0
11111110
11111101
11111101
0
11
0
10
11111111
11110100
11111101
101
0
0
0
110
1
1000
11111001
11111111
1
11111111
11111100
1
1
1
11
0
1
11111110
11111100
11111101
11111111
0
1
0
10
11111101
100
1001
101
1
0
11111111
11111100
0
0
1
11111011
0
1
110
101
10
1
11111111
11111110
11111011
11111010
11111101
0
11111111
11111010
0
11111110
11111011
11111111
100
111
0
1
10
11111100
1
0
11
11
10
11
10
1000
11
1
1
11111101
11111000
11111011
11111011
11111111
0
10
11111111
11111110
0
11110101
10000
101
0
0
1
11111011
101
11111110
11111101
10
10
0
101
100
100
100
101
0
11111001
11111111
0
1
1
11111111
0
0
11111011
11110001
1110
1000
11111111
11110111
1
11111110
10
11111111
11
110
110
1000
100
1000
101
11111101
11111011
11111100
11111011
11111110
0
11111110
11111110
11111011
0
1
11110110
11111010
101
111
0
11110111
11111100
11111001
101
1
1010
1100
1011
1000
10
101
11111000
11101111
11101011
11110011
11111100
0
0
11111111
11111101
11111111
11111101
11111101
11111011
111
1000
11
11111110
100
11111001
11110000
11111000
11
10
11111110
11111101
11110111
11101010
11101100
11100010
11100100
11101110
11111000
11111111
11111101
11111010
11111101
11111110
11111111
0
0
0
1011
0
11111110
0
11111010
11111000
11101000
11110001
11111001
11101111
11100001
11011100
11010100
11001101
11011011
11101011
11110011
11111011
11111101
11111011
11111000
11111101
11111011
11111010
11111100
11111001
10
100
10001
10
11111110
11111101
11111000
11111000
11101010
11100011
11011100
11011111
11011010
11011010
11101001
11110000
1
110
10
0
11111100
11111110
11111110
0
11111101
11111110
101
1
1
11111110
1
1100
101
11111110
11111011
11111010
11110001
11101111
11101011
11110100
11111110
1
1001
1011
1001
111
111
11
11111110
11111100
11111100
11111110
11111010
11111101
0
1
11111101
11111111
1000
10000
1000
11111111
11111111
1000
11111011
11111011
1000
0
10
1001
111
1000
100
1
1000
11
10
0
11111100
11111101
11111010
11111100
1
1
100
1000
1000
1100
1011
1
101
100
111
11
101
111
0
0
10
111
110
100
1000
1001
0
0
11111100
11110111
11111010
11111101
0
100
1
100
11
1011
1000
0
1000
110
1
10
10
111
11111111
11111111
1
11
100
110
110
1000
100
11111101
11110110
11111000
11111010
0
11111111
0
0
11111101
11
110
101
10
11
0
10
11111110
0
1
0
1
0
0
0
110
10
101
0
11111101
11111101
11111011
11111001
11111110
11111111
101
1
100
1000
11111101
1
11111011
11111001
11110110
0
100
11111001
0
0
11111111
0
11111111
10
100
1000
11
10
1
11111111
11111100
11111101
0
11111111
1
10
11111100
1011
1000
1
1
11111000
11111000
101
11
11111010
110
1
11
0
1
101
11
0
10
11
10
0
0
11111111
11111111
1
11111101
0
11111111
11
1111
11111000
0
11111101
11111110
11
10
0
0
1
1
1
10
11111110
11111110
0
11
100
100
1
110
100
11111101
1
0
11111100
0
1
1011
11111111
0
11111111
1001
1
101
101
0
0
100
100
11
11111110
0
0
11111110
0
101
101
110
1
101
110
111
11111100
100
11111101
11111100
0
0
0
11111010
11111001
11111110
110
10
0
11111111
1
11111010
11111111
0
11111111
11111101
0
11
1
100
11
101
0
100
11111110
0
11111100
11111110
0
0
0
11
11110101
1
0
0
110
1000
11
1
0
0
11111100
11111101
11111110
11111110
1
11111011
11
101
10
11111110
10
101
1011
111
11111111
0
1
11111110
1001
11111100
11110110
11111111
101
110
0
1
0
10
11110101
11111001
0
0
11111111
11111100
11111100
10
10
11111011
11111000
11110110
110
101
0
0
0
0
11111111
11111001
11111001
11111011
11111010
11111110
0
11
1000
110
11111111
11111011
11111001
11111111
11
110
110
101
11111010
11110111
0
11111110
11111110
0
0
0
0
0
11111111
0
11111111
11111101
11111011
11111011
1
1001
101
11111100
11110001
100
100
110
0
10
11111110
11110101
11110100
11111001
0
1
0
0
0
