0
1
0
0
1
0
0
0
0
0
0
0
11111111
11111011
11111100
0
0
0
0
0
0
1
11111111
0
0
0
0
0
11111111
0
0
0
1
11
10
10
11
1010
1000
10
101
110
10
11110111
11110101
11111010
100
0
11
0
11111111
0
0
0
11111111
11111111
1
0
1
11111100
11111100
1001
11111111
110
111
10
11
10
11111011
101
1100
101
11111010
11111101
0
10
111
101
1001
11
11110011
11111010
0
0
0
0
11111111
11111100
0
11111111
100
11111111
11
1000
1011
1000
11111111
101
100
11111011
11110011
11110010
11110111
10
101
111
101
1
11101101
11110100
1
0
0
0
10
11111011
11110101
0
11111110
1000
1
100
0
0
0
11111111
0
11111101
11111110
11111011
11111010
10
100
1
11111000
0
0
11111100
11111100
11111110
0
11111111
1
100
11110100
11111011
1
11111111
11111111
110
101
101
1
11111000
0
11110111
11111100
11111101
0
11111110
1
11111111
11111010
11111010
1
11111011
11111100
0
0
0
11
11111010
0
11111111
11
11
1
111
0
0
11111100
11110111
11110011
11110001
11110111
0
10
1
11111110
11111010
11111100
110
1100
1000
11111001
11110111
0
11111010
11111110
11111101
11111100
0
11111011
101
111
100
11
11111111
11111000
11111000
11110100
11110001
11111100
10
0
11111111
11111110
11111111
0
11111110
110
11
11111110
11111010
101
11111100
101
1010
11111100
100
11111010
10
11
11
1
11111011
11111010
11111000
11110100
11111011
0
11
0
11111111
11111111
1
0
11
1100
11
11111101
11111000
11111110
11111001
110
0
11111001
11111110
11111110
11111111
0
10
100
0
11111110
11110101
11101111
11111001
100
101
11111110
11111100
11111110
11111110
11111100
1
111
1010
11111111
11111010
11111101
11111100
11110111
1
100
11111110
1
10
10
11
111
101
11111111
11101101
11101010
11111101
101
111
11111100
11111101
0
11111110
10
11111111
111
1
11
11
11111101
11111101
11110111
101
11111101
11111111
0
0
0
11
1001
111
11111001
11100111
11101101
11111101
110
11111110
11111011
0
11111110
0
11111010
11111000
10
110
1
11111011
11111111
11111011
11111101
10
11111100
0
11111101
0
0
1
1010
101
11111110
11101111
11101011
11111010
0
11111101
11111111
0
0
0
11111110
11111000
0
11111110
11111101
11110111
11
0
11111011
0
0
11111110
11111101
1
1
11
111
111
1
11101111
11101100
11111000
11111010
11111100
1
0
0
11111110
0
100
11111100
11111101
11111000
11111011
11
11
11110100
0
110
0
10
110
10
101
1010
1100
1000
11111100
11110111
11111010
11111010
0
0
0
0
11111110
11
11111111
11
100
11111001
11111000
0
0
111
100
1101
101
10
111
110
111
1010
1010
110
1
11111110
11111100
0
1
11111001
11111100
11111010
11111110
100
101
110
1000
101
11111111
11111011
11111111
110
10
11111111
101
11
1
10
0
11
10
10
10
1
1
11111110
11111011
11111110
11111101
10
1
0
0
0
1000
10
11111110
0
11111111
100
1
0
110
11
0
1
1
10
10
0
111
101
11111100
11111110
11111010
11111110
11111100
0
11
11111111
1
110
11111011
11111011
11111011
11111000
0
11111101
1
11111110
100
1
11
0
0
0
0
1010
1011
10
11111111
11111101
11110110
11111010
11111100
11111110
10
11111111
0
110
11111111
11111100
1011
100
11111010
11110101
111
11111000
11111101
11111101
11111111
11111010
11110111
11111011
0
1011
1000
100
100
11111110
11111100
11111100
11111101
0
10
101
11
100
0
0
11
1
111
0
110
11110111
11111001
0
11
11111110
11111010
0
100
1011
100
11111111
11
0
0
11
1
11
111
110
11111101
11111011
10
11111001
10
10
111
0
1011
101
0
1000
1001
111
101
11111111
10
100
1
11111110
1
11111111
101
110
100
100
0
111
111
1
0
10
11111011
1
10
11111110
1
1010
1000
110
101
0
0
11111110
10
11111101
11111110
11111100
11
11
1000
101
111
10
110
100
101
11111101
0
1010
11111011
0
11111111
111
0
11111110
11110010
11110101
11110101
11111110
11111001
11111001
11111010
11111011
11111110
11111111
11111111
11
101
11
101
100
11111111
11111111
100
11111111
110
111
1
0
11111111
11111111
11111110
11111001
11110100
11110111
11110111
11110101
11110010
11110101
11111011
11110110
11111101
11111110
11111010
0
0
111
100
10
11111000
0
11111111
11111101
110
11111110
0
0
1
0
11111100
110
11110111
11111110
1
11111101
11101011
11110110
11111100
11110110
11111100
11111110
11
10
101
101
10
0
11111001
11111001
11111110
11111100
11111010
11
0
0
0
11111111
0
1001
11110100
11110100
11111100
1
11110100
11110110
11111110
10
11111011
11110011
11110101
11111100
1
11111100
11111000
11111110
11111001
11111100
11111101
110
0
1
0
0
0
0
0
11111111
11111101
0
11111101
11111000
11111010
11110011
11111101
11111111
11110000
11101111
11110110
11101111
11110000
11111010
11110110
1000
0
11111111
11110111
0
0
0
0
