0
0
11111111
0
11111111
1
0
0
0
0
1
0
0
11111110
11111011
0
0
11111111
0
0
0
0
0
0
0
0
0
0
1
0
0
0
0
0
1
101
1
10
111
10
1000
10
100
11111111
11110001
11110001
1
10
0
100
10
11
0
11111111
0
0
0
0
1
1
110
11111111
11111101
11111111
11111000
11111010
11111110
1
11111101
0
0
11
10
11111101
11111111
111
101
11111100
110
11111111
11111001
0
0
0
0
0
11111001
11
100
11111101
11111111
1001
0
11111011
11111011
1
11
111
1010
1010
1
11111111
1
1
10
11111111
11111110
11111110
1001
0
111
0
11111111
0
11111101
1
11111111
110
0
11111110
11111101
11111101
11111110
11111110
11111110
1
11111111
11
0
0
1
1
100
10
0
10
1100
0
11111000
11111011
0
0
11111101
11111101
11111111
0
0
11110110
11111100
1
11111001
11111100
110
11111110
11111111
11111100
11111101
11111110
0
11111110
0
0
11111101
11111011
1
0
11111111
11111100
11111111
101
101
11111001
1
11111010
11111001
11111010
0
1
11111100
11111100
11111101
0
11111011
11110110
11110110
11110110
11111101
10
0
110
11111111
1
10
11111100
11110001
11111110
0
10
10
11111101
11111100
0
11
100
1000
101
11
0
1
11111011
11111000
11110101
11111100
11111111
1
0
1
0
11
11111110
11111101
1011
11111011
11111110
101
11110100
0
111
0
1101
1110
1100
1001
111
11
11111111
11111110
11111010
11110101
11110110
11111111
11111111
11111111
11111111
0
111
100
11111111
11111110
0
11110111
11111010
11111001
11111101
11
10
100
111
10000
110
10
10
0
0
0
11
11
10
10
10
100
10
0
100
11111111
0
1
11110101
11110101
0
11110111
0
11111011
11111111
0
1000
0
0
0
11111101
11111111
11111111
101
1110
10110
1011
11111101
11111100
11111110
0
1
1
1101
11111110
11111110
11111111
11111100
11111001
11110111
1
1
1010
11111110
11111110
11111101
11111100
0
11111100
0
11111110
111
10101
10111
11111111
11111000
11111000
11111011
11111011
11111111
110
111
1
11111100
1
11111111
11111111
11111110
11111100
0
1001
0
11111011
11111110
11111110
0
0
0
11
1010
10000
111
11111011
11111010
11111111
11111011
11111011
10
110
10010
1101
0
100
1110
11111001
101
11111101
11110001
0
10000
101
11111101
11111101
10
0
10
0
111
111
10
10
11111110
11111010
11111100
11111011
110
10001
10000
1111
1001
111
1
11111110
101
110
11111001
0
10000
1000
11111110
11111101
100
0
11
100
1001
11
1
11
0
11111101
11111010
11
1100
10101
10100
10001
1110
1000
11111101
11111100
101
100
111
1001
1000
11111101
11111101
11111111
10
100
110
100
111
11
101
0
11111111
11111011
11111100
1100
10111
11000
1111
111
101
0
11111010
11111110
11111010
11111101
10
1001
101
11111110
0
1
10
0
1
0
0
0
100
110
0
11111110
101
1111
11111
10001
111
0
1
11111011
11111001
11111111
11111111
0
11111110
111
11111110
11111010
0
0
0
0
10
101
100
10
10
1
101
1000
10010
10101
1110
1101
11
11
11111111
11110101
11111111
11111000
11111000
1000
11111100
10
1
0
11111101
11
11111111
0
11111110
110
11
100
11111111
11111101
101
1011
1111
1100
11
11111111
11110011
11110100
11110111
0
11111110
11111001
110
11111100
110
11111011
11111100
111
11111100
11111111
11111111
11111101
11111110
11
0
11111110
11111111
0
0
11
110
1
11111110
11111111
11110100
1
0
11111101
11110110
11111100
0
1001
1001
11110101
11111001
1
11111100
11111100
11111111
0
11111110
11111011
11111101
0
11
0
11111011
11111110
11
11111111
11111100
11111111
11111011
11111111
11111010
11111101
11110111
111
0
11
110
1
11111001
11111010
0
0
0
11111110
11
100
10
101
11111111
11111111
11110110
11111011
11111100
11111000
11111101
0
11111110
0
11111010
11111110
11111100
0
11
101
0
100
11111010
11111100
0
11111011
11111100
11111100
11
111
11
1
11111111
10
11111110
11111011
11110111
10
11111111
0
11111011
11111101
11101110
11111100
100
0
11111111
1
1000
110
11111100
11111111
11
0
11
10
110
11
11
11
10
10
0
11111111
11111010
11111111
11111101
11111100
11110000
11111010
11110001
11111110
0
0
11111111
11111111
11111111
1001
11110111
111
111
1000
10
1001
1100
1000
11
1
100
1
10
0
11111110
11111101
11111110
11111000
11111110
11111111
11111101
11111110
11111001
1
0
0
0
11111001
11111100
0
100
11
101
10
101
11
100
100
10
111
11111110
1
11111100
11111101
11111001
11110011
11111011
101
100
11110111
11111011
0
0
0
0
11111100
100
11111011
11111000
11111010
11110010
11101111
11110110
11110111
11111011
11111110
11111010
11111101
11111101
11111111
11111011
11111000
11110110
11110111
1
11111110
101
0
0
0
0
0
11111111
0
0
0
11110100
11101000
11110011
11110100
11110010
11101111
11101000
11100110
11100011
11101100
11100101
11101111
11111101
11110100
1
0
11111011
11111110
11111111
0
0
11111111
