0
0
0
0
11111111
0
0
0
0
0
0
0
0
1
0
11111111
0
0
1
0
1
0
0
0
0
0
0
0
0
11111111
0
0
0
0
101
101
111
1001
1110
0
0
11111000
11111110
101
1
1
10101
10100
1110
1101
111
10
11111111
0
0
0
0
0
0
11
0
1110
1001
1111
10010
10101
1010
1011
1101
1110
1011
1010
1011
1000
1011
1011
1111
10100
110
101
1110
11
11111111
1
0
0
11
1
11111101
11111110
11
11111111
0
101
11111111
1
0
0
11111110
11111111
100
10
1001
1011
101
1
1011
100
0
0
11111110
0
1
10
101
11111101
0
101
110
11111110
0
0
1
11111011
11111011
11111100
11111110
11111010
0
11111100
0
11111011
11111110
11111011
11111110
11
0
1
11111101
1010
0
11111111
10001
11111101
10
11111110
11111111
0
11111111
10
1010
0
0
11111111
11111111
11111110
10
0
11111110
0
11
111
11111111
11111111
101
101
11110100
11
11111111
100
0
11
11111010
11110111
11111011
11111101
10
111
0
0
0
11111110
11111110
11111111
11
100
0
1
110
101
0
11111110
11111100
10
11111010
11
11111111
11111100
1
0
1000
11111110
11111111
0
0
11111111
0
11111111
11111100
11111111
0
11111111
0
11111110
11111111
1
0
1
0
11111001
100
11111100
101
0
0
1
0
11
110
1
1
1
10
10
10
11111011
11111111
1
0
11111101
11111011
11111101
11111001
1
11111111
1
1
0
11111100
11111001
111
11111000
11111101
11111000
100
11111111
0
1
110
11
11
110
0
11111011
10
10
11
0
11111100
11111000
11111001
0
0
1
11111110
0
11111101
11111110
11
10
11111110
11111100
11111101
11
11111110
0
0
0
0
0
1
11111011
11111110
11111111
0
11111011
11110111
11111101
11111101
11111101
11111110
11111111
11111101
1
11111011
0
10
1011
11111101
11111010
11110011
11111100
0
100
11111011
0
100
0
0
11110111
11111011
11111101
11111111
11111100
11111111
11111000
11111010
11111100
11111101
0
11111110
11111101
11111001
11111111
0
101
11111101
101
11110101
11110001
11111110
11111101
11111100
0
1000
10
11111110
11111010
11111011
11111100
11
100
101
0
11111100
11111011
11111110
11
1
100
1000
110
11111000
10
1
11111100
11111010
11110111
11110111
11111011
11111111
11111110
11111111
0
11111111
0
11111011
0
1000
1101
101
0
11111111
11111100
11111111
11111111
101
101
1000
10
0
1001
11111010
100
11110101
1001
11111100
0
101
11111110
1
0
11111111
0
11111111
11
1000
110
100
0
0
0
100
0
10
11111111
11
1000
1111
111
11111110
0
10
110
11110101
10
11111101
0
101
110
1
11
100
10100
1110
1001
101
11
11111110
0
10
100
1
11111101
0
11111110
11
110
111
100
101
11111110
11111110
11111100
11111101
100
100
1001
1011
1110
10100
11000
10010
1101
1001
1
11111111
0
11111011
10
11
1
101
100
10000
11111010
0
110
100
11111000
10
11111011
11111110
0
0
0
11
111
1010
10011
1110
1100
1
11111100
1
101
1
10
11
11111100
11111111
101
11
11111001
11110111
1001
11111110
10
0
11111101
0
11111000
11111010
11110111
11111010
11111001
11111101
111
111
110
11
100
1
10
0
0
11111100
11111011
10
1010
11111110
1000
10
11111011
11110110
0
11111011
11111000
11111110
11111011
11111001
11111010
11111011
11111000
11110101
11111110
0
1
100
11
11111111
1
100
10
11111101
1
11111010
101
1011
100
0
11111110
11111001
110
0
11111100
1
11111101
11111110
11111110
11111101
11111100
11111110
11111111
0
111
11
0
11111111
0
101
101
101
1100
11111101
1100
1000
11111100
1
1011
11
1001
11111111
11111111
0
11111101
0
1
0
11111111
0
11
101
100
1
0
10
110
100
100
0
110
11111111
101
11111110
11111010
10
101
1010
1000
1000
100
10
101
11
11111111
10
111
101
11
0
11
11111110
11111101
0
10
100
10
0
1
11111011
1
10
11111010
0
0
1100
11111110
11111101
1000
11
111
11
10
11111010
0
11
100
11
100
1
11111111
1
11
11111111
11111111
111
0
11111100
1000
1011
11111111
0
0
111
1
11110010
11110111
11
110
111
100
100
111
100
1001
1011
1001
1
11111011
111
111
11111110
1000
1010
11111110
11111000
1101
111
0
0
0
0
11111001
11
11111000
11111101
11111110
101
11111110
11110111
11110101
11111010
11111101
11111011
11111101
11110111
11110110
11111000
11111100
0
11111101
11110010
11101000
11101001
11111101
10
11111111
1
0
11111111
11111010
0
11111011
11111011
11111000
11111101
11110110
11111000
11101111
11101100
11101010
11100001
11100111
11101111
11100110
11100110
11101011
11101011
11101000
11101101
11110100
100
10
1
0
0
0
0
0
100
111
11111111
100
11111101
11111001
11101110
11101100
11101110
11101011
11100100
11101001
11101110
11110000
11110010
11110010
11110111
11111100
11111110
11
0
11111111
0
0
