0
11111111
0
11111111
0
0
0
0
0
0
11111111
0
0
0
1
0
0
0
0
0
11111111
0
11111111
11111111
0
11111111
0
0
11111111
0
0
1
10
10
11111001
11111101
11111001
11110110
11111001
11
11111110
10
1001
1
11110100
11101101
11110100
11110001
11110011
11110100
11111011
11111010
1
0
0
1
0
0
11111101
11110111
11111101
100
11110110
11101100
11101001
11110001
11100111
11101000
11110101
11111000
11110011
11110011
11111010
11110100
11110101
11111011
0
11111010
11111111
0
11111011
11111100
0
0
0
0
10
11110111
0
11111100
11111000
11
11111111
11111100
0
100
1
11111100
0
0
11111100
0
11111111
11111100
11111110
1
11111111
111
110
0
1
1
11111111
11111101
1001
10
11111010
11111001
11110111
11111110
11111101
11111110
11111110
11
10
11111111
11111111
100
11111110
11111001
11111010
0
111
1011
1000
10010
1111
1010
0
11111110
0
0
11111101
11111110
11110000
100
100
100
1
11111111
11111110
0
1
11111110
1
100
11111111
0
0
101
1110
110
10100
11000
10101
11
111
11111111
0
0
11110110
11111001
11111010
111
11111110
11111110
1
11111101
11111110
11111010
11111101
11111101
11111110
0
0
1001
10001
1111
10011
10111
11111
11100
1111
1
0
11111101
0
11111011
11111100
11111110
11111101
11
11111111
11111011
11111100
11111110
11111111
11111011
11111100
11111011
11111110
0
0
1111
10100
1111
1111
11010
11011
100111
11100
10
10
11111100
11111000
11111001
11111110
11111011
11111011
0
10
11111111
10
111
0
1
0
11111110
0
101
1100
10000
10110
1000
101
1011
1011
1111
10101
111
11111100
11110110
11111110
1
11110011
0
11111110
11111011
1
101
100
111
100
111
100
0
11111111
1001
10010
1101
1001
11111111
0
11
1
100
11111110
101
11111110
110
11111101
11111010
11111101
0
11111101
11110111
11111011
11111011
101
1010
10
1000
111
10
101
10001
1001
11111111
0
0
0
110
0
11111110
11111011
101
11111011
1011
11111101
11111001
1000
11111100
11110111
11110101
11111110
11111011
11
1000
1010
1100
1110
10010
10000
1110
0
11111110
11111010
11111001
1
11111101
11111011
11111000
11111001
0
11111101
110
11111111
11111111
1011
1111
11111011
11111111
1001
1000
11
1101
1111
1010
10000
10111
1011
111
11111010
11110110
11111101
11111101
100
10
11111110
11111101
11111111
11111010
0
10
10
11111111
1000
111
1001
111
1010
1111
1111
1100
101
11
101
100
101
0
11110110
11111101
11
11111011
0
11111101
11110110
11111010
11111100
0
11110100
11110111
11111010
11
11111111
111
10110
101
1
1000
111
100
11111111
10
111
110
1
11111100
11111010
1
11111111
11111111
11111010
11111100
11110010
11111100
0
11111110
11110100
11111001
11111011
100
11111100
110
10000
10
11111101
101
1
101
0
10
110
10
0
11111100
11111101
11111111
11111100
11110011
11110010
11111001
11111111
1
11111011
11110111
11110100
11
1
110
11111000
11
111
0
11111000
10
101
10
11111100
0
110
110
11111111
11111100
11111001
11111010
11111000
11111101
10
1
1
11111001
11111100
11110000
11110100
1
0
10
11110111
11
11111110
11111100
11111101
111
1011
101
1
11111101
11
100
110
11111110
0
11111111
11111101
0
0
0
1
10
11111100
11110101
11111110
11111010
1000
0
0
111
11111110
11110111
1
11111111
11
1010
110
1
11111101
1
0
11111101
11111101
11111010
11111100
10
1
110
0
11111110
11111010
11110011
1001
11111010
11
11111101
11111100
100
11111101
11111110
11
11111111
1
110
10
11111001
11111001
11111001
11110111
11110111
11111110
11111010
0
1010
101
110
10
111
0
11111101
11110001
11111010
0
11111000
11111000
11111000
11111100
11111001
101
111
11
100
11111101
11111010
11111010
11111100
11111001
11111011
100
0
10
1001
1
10
10
11111111
11111000
11110110
11110110
11
11111110
11110111
11111011
11111000
11111011
11111111
1001
1000
0
10
11111010
11111111
11111101
11111110
11111011
11111110
101
0
0
1
100
100
11111110
11110101
11111111
11110101
11110111
0
0
11111011
11111010
11111011
11111110
11111100
1
11111111
11111000
11111000
11111000
11111111
11111011
11111110
1
110
1001
11
0
1001
100
110
11111111
11111101
101
10
0
1
0
0
11110111
111
1010
11111011
0
11111001
11111100
11111000
0
0
11111110
110
1
11
1010
10
10
101
11
11111011
11111011
0
110
0
111
0
0
11111111
10
1001
1110
1111
100
1010
1011
101
1001
1110
100
10
11111110
11111001
11111011
10
11111101
11111110
100
101
11110111
10
0
11111110
100
11111111
11111111
11111111
11111111
10
1100
1010
110
10010
100001
11101
10111
10011
1111
10000
10
1
1
11111111
111
1000
11
11111100
11111111
10100
10001
10
11111101
1
0
0
1
10
111
1001
1101
1110
1110
10000
1000
10011
11111110
0
11111101
111
11
110
1011
10000
1110
1001
1001
11
11111100
1
0
0
0
0
0
0
11111111
1
0
10
1000
1001
101
11111001
11101101
11100110
11111011
11101010
11110100
11
111
0
0
11
100
11111111
0
0
0
0
