0
0
0
0
0
11111111
0
0
0
0
0
11111111
0
0
11111111
0
11111111
0
0
1
0
0
0
0
1
11111111
0
1
0
11111111
0
0
11111111
11111101
11111100
11111010
11111010
11110011
11110011
11101100
11110010
11100111
111
1011
100
1
11111101
1
1
11
0
0
0
0
0
0
0
0
1
11
11111110
11111100
11111110
11111010
0
1100
110
101
11111011
1101
1001
1011
110
11111000
11111011
11111101
11111011
11
0
11111111
11111111
11111100
1
0
0
1
1000
1001
11111100
11111111
11111110
11111100
11111111
1001
11111110
11110100
11110010
11111110
11111100
11111001
10
11111001
11111001
11111001
11111111
11111111
101
11111110
10
11111100
1
0
0
0
11111100
11111101
100
11111111
11111100
11111100
11111110
11111101
0
11111001
11110110
11111111
11111100
0
1
11111110
11111010
11111110
0
11111011
0
11111100
11110110
11110011
100
111
0
11111111
110
0
1100
11111111
11111110
11
11111110
11111001
11110110
11110111
11111100
11111100
11111100
11
11111010
11111010
11111100
11111100
11111101
0
1
11110110
11111110
11111001
110
10
1
11111110
11110111
11111100
100
11110101
0
11110110
11110101
11111000
11111001
11111110
11111000
11111000
11111010
11111100
11111011
11111100
11111101
11111101
11111010
0
11111111
11111110
11111011
11111101
1
110
0
11
11110111
11111010
11110011
11110110
11111000
11111100
11110010
11111011
11111101
0
11111110
11111011
11111110
11111110
11111110
10
11111101
11111111
0
11111110
11111011
11111110
11110110
11111111
11
100
100
1101
11111011
11111110
11111101
11111110
11
1
11110011
11111001
1
11111010
11111111
11111111
11111110
11111111
11111010
0
11111001
11111010
11111010
11111010
11111011
11111011
11110101
11111111
10
11111101
1
11111100
11111011
10
11111000
11111100
11111111
11111100
11110100
11110110
11111000
11111100
11111110
11111110
111
1001
0
11111000
11110111
11111010
11111001
101
11111110
11111010
11111111
11110010
11111111
11111101
0
0
11111011
0
11110110
0
101
100
11111110
0
11111101
11111111
11111111
10
1010
10000
100
11111100
11110110
11110011
11110011
0
10
11110111
11110000
11111101
100
101
1
1111
101
110
110
11
10
0
1
10
110
10
0
10
1110
10000
100
11111100
11110111
11110001
11111010
11111100
1
11111100
11110101
0
1
10
1
0
0
1
1011
10
0
1
111
1
11111101
11111111
10
110
1110
1101
100
11111110
11111110
11111001
11111011
11111101
10
0
11111101
0
11111101
101
11111111
11111011
111
1000
10011
1101
11111100
0
11111000
11111001
11111010
11111111
11
1010
1100
111
1000
0
11111101
11111110
0
1
11111101
101
11
11111110
101
110
11111101
11111100
110
111
1000
10
11110110
11110110
11110101
11110110
11111111
11111011
1
111
1000
11
110
11111011
11111010
11110111
11111010
11111001
10
1000
100
11
1001
111
11111110
11111111
101
101
11111101
11111000
11110010
11110011
11110111
11111000
11111101
100
1
1101
1100
110
1
11111010
11110010
11110101
11111000
11111101
100
111
11
0
11111110
100
101
110
111
10
11111111
11111001
11111000
11111001
11110101
11111011
0
101
10
1010
1100
10
1
11110111
11110110
11110111
11111000
11111101
11111101
10
110
0
101
0
1
101
1001
11111111
11110101
11111111
11111111
11111010
11111000
11111100
10
1
1
110
1000
11111110
11111001
11110111
11110101
11111101
100
0
0
11111111
110
1100
1
11111101
10
11111111
101
11
11101100
11111010
11111000
11111100
11111110
0
11111110
0
11
110
1
11111111
11111001
11111001
11111100
11111101
100
101
1011
101
1000
10000
11
1
11111111
100
11111101
0
11111010
11110010
11111010
1
11111101
0
11111000
10
100
111
110
100
100
10
0
0
100
100
11111111
11
1111
1110
11111110
11
0
11111110
11110010
11110100
11111111
11111010
10
11111110
11
0
11111100
1
11
100
1000
0
110
1000
100
101
111
101
0
10
1111
1
1
11111011
11
1
11110011
11111100
0
1
101
10
0
1
0
11111011
11111101
0
11
11111111
11111100
11111110
0
111
0
1000
100
0
0
0
11111111
0
100
11
11111010
110
111
1
11111111
1
0
0
11111100
11110110
11110110
11111110
10
0
11111001
11111101
10
1010
111
111
11111101
1
11111111
11111111
110
0
0
0
11111100
101
11111110
0
1
11111100
11111111
10
11111011
11111101
0
11111100
11111100
11111011
11111101
0
11111111
11111111
10
11111011
11110110
0
0
11111010
1011
1
0
1
11111011
11111100
1
11111110
11111110
11111010
11111100
11111110
0
0
11110111
11110101
1
0
11110101
11111010
11111011
11111110
1
0
11111100
11111011
11111110
1100
111
0
1
0
11111110
1000
100
110
0
0
1
11111111
11111011
11111110
11111011
11110111
11111000
11101011
11100100
11110101
11
11111011
11110111
11111111
100
11111010
11111011
100
100
1
0
11111111
0
0
11111001
1
0
11110001
11111000
11101111
11111010
11111001
11101111
11101101
11100100
11101110
11100011
11100111
11101110
11110101
11111001
11111010
1
11110110
11111110
10
1
0
0
0
0
11111111
100
1001
11111011
11111110
11111001
11111010
100
0
11111001
11110110
11110011
11111000
11111100
11110111
11111010
110
11111001
11111110
100
101
0
1
0
0
