11111111
0
0
1
1
0
0
1
0
0
0
0
11
10
11111111
11111111
0
0
1
0
0
0
0
0
0
0
11111111
1
0
0
0
1
0
0
101
1000
100
10
1
11
1101
10
100
110
10
1000
1010
1100
1010
1010
1000
110
0
0
0
0
0
1
1
110
110
11111101
11111111
1
1010
11
110
111
101
1000
1011
1111
1110
0
11111111
1110
1001
1000
1100
1
0
11111100
0
11111111
0
0
111
111
11111001
11111110
0
111
111
101
0
11111011
11111010
1011
1100
11111111
110
11
11
10
1001
1
0
0
11111010
11111100
11111000
0
11111111
0
1
0
101
11111101
11111101
0
1
11111101
0
11111111
11111100
100
11111110
11111011
11111000
11111001
1
0
0
101
11111101
0
11111011
11110101
11110101
11111010
0
0
11111010
11111000
101
1000
100
0
0
11111111
101
1
11111011
0
11111101
10
11111110
0
1
10
11111110
11111100
11111011
11111100
11111001
11111010
11111001
11111000
0
11111111
11111110
1010
1
111
11111111
11111100
0
1
0
11111110
11111011
11111110
0
11
0
0
11
11
11111101
11111110
1
11111111
11111001
10
11111010
11
1
1
11111001
111
0
0
10
11111101
0
11
11111101
11111011
11111011
11111101
0
11111110
11111011
11111101
0
11
11111110
11111111
11111110
0
11111101
11111110
1
100
101
1
11
110
10
0
10
11111111
11111100
0
10
0
0
11111111
0
11111010
11111001
11111001
11111100
0
1
0
11111100
11111011
11111010
11
11111011
11111011
10
1010
11111110
1
10
11111011
11111001
11111001
11111001
11111111
0
10
100
1001
11
11110101
11110001
11111010
1
0
11111110
0
10
0
11
1000
11111111
111
11
1010
1000
11111111
0
11111000
11111011
11111010
11111100
10
11111111
11
101
1001
11111101
11110011
11110011
11111100
11111110
11111000
11111001
0
1
11111100
11
10
11111100
11111100
1
1011
1111
11111011
11111100
11110010
11111010
0
0
0
110
1011
110
100
11111000
11110100
11111011
0
11111101
11111000
11111011
0
101
101
11111000
11110011
11110101
0
101
11111011
11
11110101
11110101
11110111
0
101
1011
111
100
111
101
0
11111010
11111010
0
10
1
11111011
11111100
11111111
10
1
11111001
11111010
0
110
11111110
0
101
11101101
11111100
0
1010
1111
111
111
1000
10
0
11111010
11111101
11111110
11111110
0
0
11111111
11111001
11111111
0
1000
11
11111110
11111110
11110011
110
0
111
11110010
0
1101
10010
11011
10000
1001
100
0
11111110
11111101
11111100
11111101
10
10
10
11111100
10
1
11111011
11
10
11111101
11111110
11110100
100
10
100
11111001
11111011
1101
10001
10001
1001
100
0
10
11111110
11111011
11111010
11111010
11111101
1
10
11111110
0
10
1
10
0
11111110
11111110
11111101
1
1
11111111
11111010
11111110
1010
1111
1101
10
0
11111111
11
11111111
11111100
11111100
11111001
11111100
11111011
11111101
11
11111110
11111111
0
1
0
11111000
11110010
11111100
0
0
11111101
11110101
11110011
11
110
1001
110
110
1001
110
11111111
11110111
11111111
0
11111010
0
10
111
0
11111011
11111110
11111111
11111111
11111110
11101110
11111010
101
11111111
0
11110001
11110100
11111010
11111101
11
1001
1000
1010
11
11111100
11111100
100
110
1001
1000
1001
11
0
0
1
10
11111000
11111010
11111100
11111111
11111111
1110
11
11110110
11110111
11110110
11111011
11111011
11111110
0
1
1
101
101
1101
1100
1100
101
10
0
10
1
11111101
1000
0
11111100
11101100
0
1
111
11111101
11110100
11111011
11111101
11111011
11111010
11111001
0
11111010
11111111
100
110
1110
1011
1001
110
0
1
10
11111110
11111111
11111110
0
11110011
11110111
111
0
11111001
11111111
11110111
11110010
0
11110111
11111101
11111000
11111011
11111001
11111100
11111100
0
10
111
101
10
0
0
0
11111110
11111111
11
1000
11
100
101
0
1
11110111
11110100
11101101
11111101
11110011
11111010
11111011
11111101
11111100
11111011
11111011
11111110
0
11
10
11111111
11111110
100
1
0
1
1100
10
100
11
110
1
0
11111010
11110010
11101101
11110010
11110101
11111100
11110110
11111111
0
0
11111111
0
0
11
1
1
11111011
11111110
11111100
11111011
11111000
1
0
11111001
0
0
11111111
0
10
11111101
1000
11111001
11110101
11111000
11111011
11111110
11111111
11111110
1
0
10
11
0
1110
100
0
101
101
11111011
11111101
0
0
10
0
0
0
11111010
1
11111010
11111011
0
11
0
1
11111100
11111111
10
11111100
11111011
0
11
110
1011
100
0
11111001
0
0
1011
100
11111011
1
0
0
0
11111110
11110011
11111101
11111100
0
11111010
11111011
11111111
11111101
11111011
11111001
11110001
101
10
1
110
101
110
11111011
0
11110111
11111101
11
0
0
0
0
0
0
10
110
11111100
11111110
11111001
11111101
1011
111
1011
10000
1
11111110
110
10
11111110
110
0
1
101
10
0
0
1
0
