0
0
1
0
0
0
0
0
11111111
11111111
0
11111111
1
1
0
11111111
0
0
0
0
0
1
0
11111111
0
0
0
0
0
0
0
0
0
0
10
101
11
1101
1101
1011
1100
10010
1011
10100
1010
1001
1000
1000
110
1
0
0
0
0
0
11111111
11111111
0
0
1000
1001
11111100
0
10
11110101
11111001
11111110
0
0
1
11111100
1
11
11111001
11110011
11111011
11111100
11111110
11111011
11111101
11
11
0
1
0
1
100
1000
11
0
0
111
0
11110101
11110101
11110101
0
111
101
101
1100
111
10
11111100
101
110
11111111
100
10
110
11111010
0
0
0
11
11111111
11111111
11111111
1000
1001
0
11110110
11111100
100
11111111
0
11111100
11111110
1
0
11111011
11111110
11111011
11111111
11111111
1
11111100
11110110
11111000
11111100
0
0
0
11111011
11111111
11111101
11111011
11111100
11110110
11110111
11111000
11110110
11111101
100
11111110
11111101
10
11111011
11110011
0
0
11111010
11110110
0
11111001
11110110
11111100
11111011
0
0
11111111
1001
110
11111010
11110100
11111010
11111001
11110000
11110101
11111111
100
100
11111101
11111001
11111101
11111000
11111001
11
1
1001
11
1010
0
11111001
11110111
11111010
1
1000
11111011
1101
111
1
11111111
11111111
11111000
11110011
11111011
11111100
10
11111100
11111001
11111000
11111010
11111001
11111011
1
11111000
11111110
0
100
1
11
11111011
0
111
1100
11
1100
11
1
110
11111110
11111100
11111111
11111101
11111001
1
0
11111110
11111110
11111111
11111011
11111101
11111110
11111111
0
11111110
1000
110
100
11111100
11111010
100
1100
11111100
11
100
0
1000
1
11111110
100
11111110
0
1
1000
111
0
11111110
0
110
10
1
100
100
0
101
10
0
11111101
100
1100
1001
111
0
0
101
0
11111100
11
10
101
11
110
1
11111010
11110111
11111010
11111111
101
110
1000
101
110
1001
111
1
1
10
1100
1001
1010
10
11111101
10
11111101
11111111
0
0
11
1
11111110
11111100
11111000
11110100
11111001
100
110
1010
1
10
11111111
110
10
100
1
100
1110
1
101
0
0
1
10
100
1000
101
101
0
11111011
11111101
11110111
11111110
11111011
11111110
0
100
11111100
1
100
1101
1010
1001
110
11111111
1101
1000
11
10
100
100
101
110
1010
1000
11
11111000
11110010
11111111
11111111
0
11111001
11110111
11110111
11111110
0
11111111
110
100
1100
100
11110100
11111110
1001
1100
101
11111011
100
10
0
110
11
1
11111001
11101011
11101111
11111011
11111101
11111011
11110100
11110111
11111010
11111010
11111110
0
1011
0
0
0
11111111
1
1
1
101
0
10
101
100
10
1
11111101
11101001
11011110
11110001
11111101
11111110
11111011
11111010
11111000
11111011
0
11111011
11111111
101
100
11111011
11
0
111
101
110
111
111
100
1
0
11
1
11110100
11100000
11100101
11111100
0
0
11111100
11111000
11111001
11111110
101
0
11111110
1
11111111
11110110
0
100
0
1001
11
100
11
100
11111111
11111001
11111110
11111100
11101101
11101100
11110110
0
101
0
11111011
11111011
11111100
11111010
11111111
11111111
1
0
11111001
11111100
11110101
11111000
101
10
111
11110110
11111101
11111101
11111110
11111001
11111101
11111100
11110011
11110100
11110101
11111111
1001
11111110
11111010
11110111
11111101
11111101
1
110
0
11111101
11110100
0
11111100
11111010
0
111
100
11110000
11111011
11111101
1
11111010
11110111
11111011
11110011
11110011
11110101
11111110
1
0
11111111
11111101
11111100
0
101
11111101
11110100
11111011
11110110
101
11110101
11111100
0
1011
11111010
11101110
11110100
11111101
11111100
11111110
11111011
11111110
1
11111111
1
11111111
0
100
10
101
10
111
111
0
10
11110011
11111110
110
11110110
101
10
1
111
11111011
10
1
11111111
100
10
11111110
101
1010
100
10
0
111
111
101
111
1000
1001
101
10
11111001
1001
10
11111000
110
10
1
101
11110101
1000
0
100
11
111
101
10
100
11
110
10
1000
111
1000
1000
1001
100
101
11111110
11111001
1
110
1000
111
0
11111111
0
11110110
11110101
11111011
10
10
0
11
0
0
0
0
100
110
100
11
10
0
1
0
11111011
11111001
0
11111111
1000
0
0
0
10
0
11110010
11111100
11111011
10
0
0
0
11111111
11111111
0
1
11111111
11111100
100
11
100
0
101
11111100
11110011
11111010
101
1000
0
0
0
11111000
11111010
11111010
100
0
111
111
1001
1
110
10
1000
1000
100
10
11111010
1
1011
111
111
101
0
1000
1
0
0
11111111
0
0
11111100
11110100
11111101
0
0
100
11111101
11111101
0
0
11
1
100
11
11111100
1
10000
1010
101
1011
100
11111110
111
0
0
0
0
11111111
11111111
1010
1110
10
1110
11
10
110
11111110
10
1100
11
11111000
0
111
1000
1110
11111111
11111111
101
1001
0
0
0
0
