0
0
11111111
0
1
0
0
11111111
1
0
1
0
11111011
11111011
11
0
0
0
0
0
0
0
0
11111111
1
0
0
11111111
1
0
0
0
11111100
11111010
11110011
11101100
11111000
11101011
11110001
11101101
11101010
11101000
11111010
0
101
11110100
11110100
11110110
11110100
11110100
11111011
11111100
0
0
1
0
0
0
0
11111111
11111001
10
11111111
11110111
11110010
100
1010
100
1100
1000
1000
111
101
1011
11
11111011
11111101
101
11111011
0
1011
111
0
1
0
1
11111101
11111110
0
10
101
11111010
100
110
110
111
111
1000
110
0
0
0
11111011
11111001
11111010
11111111
11111100
11110110
1
101
11111010
1
0
101
10
11111100
11111100
111
10
1
101
111
1011
111
110
10
0
11111110
0
11111101
11111010
11111110
0
11111100
11111101
11111100
11110101
11111011
11110101
0
11111111
0
11
1
0
100
101
0
100
10
111
10
0
0
11111101
1
101
0
0
11111011
11111110
0
11111111
11111111
11101101
11110101
11110101
11111110
0
0
1001
1
1
11111111
101
11111011
0
11111101
11111111
11111011
11111100
11111100
11110111
11111110
0
0
10
11111110
1
0
0
11111011
11100101
11110010
11110111
10
1
101
1011
11111010
11
0
11
0
100
0
11111001
11111100
11111010
11111001
11111010
11111001
11111011
11111111
0
0
0
0
101
11111001
11100000
11101100
11110111
10
11111111
1001
11111110
11111101
11111001
11111010
10
0
1
10
11
11111100
11111110
11111011
11111101
0
0
0
0
1
11111111
11111110
11111110
11111011
11110001
11111010
11111000
11111111
0
11111001
11111111
111
0
0
11
11111110
11111111
11
11111110
11111100
0
11
0
0
11111111
11111111
0
0
0
0
0
11110101
11110100
11111110
1
11111011
0
11110111
101
100
101
1111
0
11110000
11110011
11110100
11110111
11111010
11111010
11110111
11111011
11111001
11111111
0
11111011
11111101
110
11111101
11111101
11111001
11111010
100
1001
0
11111111
11111001
1011
100
11111111
11111100
11100110
11010011
11011000
11011110
11100101
11101001
11101011
11101000
11110110
11111000
11111110
11111100
11111001
1
10
0
11111011
11111010
101
100
101
11111100
0
11111101
1011
11110110
11101101
11011011
11010000
11011011
11101110
11110001
11101110
11101111
11101110
11110110
11111010
11110110
11111011
11111100
11110100
0
10
1
11111111
11111000
1011
1101
1110
11
11111110
0
1011
11111101
11110011
11101001
11110000
0
110
10
1
110
10
11
0
11111011
11111010
11111100
11111100
0
0
11111011
11111111
0
1101
1001
1101
1011
0
11111110
1
11111100
11111101
0
11
111
110
110
100
110
11
110
0
11111111
0
11111101
11
0
11111101
11111010
100
0
1
100
1010
1010
0
11111010
11111110
11111111
0
1100
111
0
0
1
11
11
11111110
1
11111110
11111011
11111101
0
0
110
101
0
11111101
0
1000
111
1001
1001
11111111
1
1
0
100
1100
100
0
11111110
11111111
1
1
0
0
0
0
11
100
11111111
10
0
11
101
111
1
1010
1000
1011
0
10
10
11111011
100
0
110
0
0
10
101
11
0
11111111
11111111
1
11
11
11
0
11
0
11111111
10
11111111
11111111
1
10010
11
10
0
10
10
100
11
100
100
1
0
0
0
11111101
11111110
11111111
100
101
100
11111111
0
11111111
11111110
0
101
110
0
1011
11111011
11111010
11111100
0
111
1
0
0
1
11111111
1
0
0
1
10
1000
111
100
0
0
0
11111110
100
1
11111011
0
1101
100
0
11111100
11
11
1
1
10
11
0
1
110
111
100
0
0
100
1
11111111
1
11
10
11111111
100
110
101
11111110
1011
11111001
11111110
111
101
11
0
11
101
11111111
11111111
10
1
0
0
11111101
11111110
11111101
11111010
11111000
0
101
0
0
110
1001
11111111
10
1
11111111
11111101
11111110
111
111
100
10
0
11111111
11111110
11111110
1001
1000
10
11111011
11111001
11110111
11110110
11111111
1
11111110
11111110
0
0
0
1001
11111111
11110110
0
1
0
110
10
11111110
1000
11111110
11111010
11111011
11111110
11111110
11111010
11111000
11110010
11110100
11101110
11110011
11111000
11111110
11111111
11111100
0
101
11111011
11111111
0
11110111
1
1
11111111
1
11111000
11110011
11110010
11110100
11110101
11110111
11110011
11101111
11100111
11100001
11011111
11100010
11100001
11100010
11101100
11110101
11110110
11110100
11111011
0
11110100
11110100
101
10
1
11111111
1
0
11110111
11111000
11111001
11110001
11100001
11100011
11011000
11010010
11010011
11001110
11010000
11010111
11010010
11100000
11100111
11101011
11101110
11110011
0
1
11101011
11110001
100
101
0
0
1
0
11
111
101
11111000
11110010
11101101
11101100
11100101
11110001
11111101
11101011
11101010
11101110
11110001
11110100
11110100
11111000
111
111
100
11
0
0
0
0
0
0
11111111
11111111
0
0
10
0
11111111
11111110
0
0
11111101
11111110
100
11111100
11111101
11111110
11111111
111
111
1011
101
1
0
11111111
0
0
