0
11111111
0
1
0
0
0
0
1
0
0
0
100
1
0
11111111
0
0
0
0
11111111
0
0
1
1
11111111
0
11111111
1
11111111
0
0
0
100
101
1010
0
111
110
10
100
1001
1001
1000
11
111
10010
1110
101
11111010
11111110
11111101
11111111
1
0
0
0
0
0
0
1
11111110
0
11111011
11111000
11110101
11111011
11111000
11111000
11110100
11110011
11111000
11
1
110
1000
1000
1
11
10
11111010
11111110
11111111
1
0
0
10
100
11
10
11111111
110
111
11111110
11111000
11111111
1001
1101
1011
110
101
10
1010
1001
1010
0
11110100
11111110
1
0
100
0
1
0
11111111
110
0
0
1
100
111
0
1010
10001
11
0
11111110
10
0
11111110
1
10
11111100
0
0
11111110
0
0
1001
11111000
0
0
11111011
1001
1010
1001
1000
100
1
11
110
11111011
11111000
11111111
11111010
0
1
0
11111110
11
11
11111111
11111111
1
0
0
100
11111110
0
100
11
10000
11
1111
1010
11
100
101
101
11111111
11111010
11111110
11111101
11111110
11111101
11111100
0
0
11111111
0
0
11111110
0
110
0
0
0
10001
0
1000
100
100
111
11
111
1
11111110
1
10
0
1
11111011
11111001
11111110
0
0
110
10
11111101
0
11111010
100
110
11
110
11111111
1100
11111111
101
0
0
11111111
10
1
10
101
110
11
11
0
11111111
0
0
1
100
1
11111100
11111101
11111100
11111100
1
11111100
11
1011
1000
11111011
1010
11111111
0
11111101
10
11
10
11
100
10
11
1
10
1
0
0
0
11111111
1
10
0
1
11111011
101
10
1011
1111
101
110
10
10
11111111
0
0
11111110
1
11111111
0
11111100
11111101
0
1
11111101
11111111
11111110
10
11
11111010
11111111
0
101
110
100
1110
100
101
1
11111111
100
11111010
11111100
11111100
11111001
11111011
11110100
11110111
11110011
11110111
11111010
11111111
0
11111111
1
11111111
11111100
11111011
11111010
11111110
1100
11111101
11
1111
11111110
1
0
11111110
11111110
11111000
11111001
11111000
11111100
11111001
11110101
11110001
11110100
11110101
11111000
11110110
100
11111111
11111010
11111100
11111110
11111010
1
0
100
11111011
11111111
1010
11111111
11111110
11110111
11110110
11110100
11101111
11111001
11111011
11111101
11111011
11110111
11111010
11111001
11110011
11110011
11111001
11
0
11111011
11110111
11111101
0
0
0
11111001
11110011
11111010
1010
1011
11110100
11110100
11110001
11110011
11111011
11111110
11111101
11111011
11110110
11111110
11111111
11111111
11111100
11110011
11110111
0
11
10
0
11111100
10
10
10
11111000
11111010
11111011
11
1011
101
10
11111111
11111011
11111111
11111101
11111100
11111101
11111101
11111111
10
11111111
11111110
11111000
11111010
10
110
1001
101
10
110
110
0
11
11111110
110
1001
100
1010
100
101
0
0
11111100
0
11111111
0
100
100
0
11111011
11110110
11111011
11111110
100
110
111
1000
1001
111
11110101
11110100
11111001
0
1001
11111111
10001
0
101
0
0
11111110
11111100
11111111
0
10
11111011
11111011
11111001
11111000
0
11
1100
1
100
1000
0
0
11111111
11111100
11110110
11111100
1001
0
111
1
10
11111110
0
11111111
11111011
11111011
11110101
11110110
11110100
11111000
11111100
11
1001
1011
1000
101
110
111
100
11111110
11111011
11111110
11110101
0
1010
1011
1000
1001
110
11
10
11111110
11111100
11110111
11111000
11110110
11111000
11111101
10
111
1100
111
10
1
101
11111111
10
11111111
11111111
11101111
11111001
11111111
1001
1
1100
101
100
110
100
0
1
11111110
11111111
11111101
11111101
101
1001
1101
1001
1000
10
11
100
101
1
11111011
11101100
1
10
11111111
11111110
1000
111
1011
0
1
110
11111111
11111111
0
101
11
110
1000
1101
1010
11
10
1
10
11111111
10
10
0
0
111
110
11111111
0
1101
0
11111110
0
100
0
0
11
100
110
100
101
101
110
100
10
101
1001
100
0
11111011
11111100
11101110
11111011
100
110
0
0
1101
11111000
0
110
1000
1
0
1
111
1010
10
1
1
11
0
101
11
1
11111101
11111000
11110101
11111101
11111011
11111111
100
0
1
0
1000
1101
10100
1100
1100
1010
10
11
1001
111
111
110
100
0
11
111
11111111
11111010
11110011
11111011
0
11111110
11111100
11111110
110
0
11111111
0
0
11111101
110
11111101
11111111
111
1100
1101
1011
1111
10011
1001
11111011
11111100
0
11111111
1
1
10
11110101
0
100
1100
11111100
11111110
0
0
0
0
11111100
11111001
11110110
11111101
0
111
1
111
110
1
1010
1000
1111
1110
101
1010
1011
100
11110001
11111011
11111111
1
0
11111111
11111111
1
0
0
0
1
101
11111111
0
0
101
1100
110
1101
1100
111
1000
10010
1110
11
0
11111000
11111000
11111011
11
0
11111111
0
11111111
