1
0
0
1
1
0
0
1
0
0
0
0
0
1
11111111
0
1
0
0
0
0
0
0
0
0
1
1
11111111
0
0
0
0
1
100
1000
1000
1000
1101
1010
1011
1001
1001
11111110
110
1000
1011
1001
1010
1100
1100
110
110
0
11111111
1
11111111
0
0
0
11
101
11
1010
1101
10001
10011
1111
10101
11101
11100
11100
11011
10010
110
111
1000
101
10100
10001
1011
111
100
0
0
0
0
11111111
111
0
11111110
111
1000
1101
10000
10001
1010
10111
11010
11011
11101
11110
1011
0
101
1
101
110
10
1000
101
1000
1
0
11
11111111
11111101
11110110
11111011
11111110
1001
1001
1110
1011
110
1011
1001
10101
10100
1111
10001
1001
10
1001
1
11111010
11110101
0
100
101
1011
0
0
110
11
110
11111011
11111011
11110100
11110100
11110010
11111001
11111111
1
101
101
10
1000
11
10
100
111
1101
110
0
11111100
11111001
1000
110
11111111
110
110
11111110
100
11111001
11111110
11111011
11110111
11111100
0
10
0
11111111
0
1000
11
11111100
11111110
11111111
10
1
100
110
11111111
0
11111110
1011
11
11111111
100
11111001
110
110
11111110
1000
0
10
11111110
11
0
11111111
111
1100
10
11111110
0
1
0
11
101
11111110
11111010
101
11111110
1010
101
11111111
1
10
11111100
0
1
10
0
0
10
0
11
110
111
11
101
11111110
11111100
0
11
10
10
11111111
11111110
11111110
1001
101
110
11111010
100
0
0
11111110
101
0
11
1
1
11111111
11111110
1000
11
0
1
11111011
11111110
1
11111110
10
0
1
11111110
100
110
11111011
100
11111111
11111111
11111010
1
0
10
1
11111101
11111111
0
1
100
1100
110
11111011
11111010
11111101
0
0
0
1
100
1
11
11111011
110
11110110
100
1010
11111001
11111011
11
11111100
0
11111100
11111101
0
11111110
11111101
11111111
1000
1
11111011
11110101
11110100
11111101
0
11111111
0
0
10
1110
1000
1010
11110110
10
101
11110101
1
0
110
10
0
11111111
0
0
0
101
0
11111101
11110111
11110111
11111010
11111011
11111110
0
0
11111011
101
11
100
0
11111011
10
11111110
11110101
11111110
11111011
10
0
11111100
1
11111110
11111101
11111110
10
11111101
11111101
11110111
11111000
11111011
11111001
0
11111111
11111110
11111101
110
0
1
1011
1000
110
11111010
11111000
11111101
0
1
100
0
11111101
11110110
11111011
11111111
11111100
11111100
11111100
11110111
11110110
11111000
11110110
11111010
11111101
11111110
11111101
11111111
11111111
11111111
111
1000
10
11111100
111
11111111
11111100
101
10
1
11111111
11111011
11111011
11111111
0
10
11111111
11111001
11111001
11110000
11101111
11111010
11111111
11111110
11110101
11111011
100
11
100
0
11111000
11111111
111
11111101
11111001
1
11111111
11111100
11111111
11111110
11111110
0
11111110
11111110
11111100
11111011
11110101
11110101
11110111
11111111
11111111
0
11111110
1
0
110
100
11111110
0
100
11111110
11111101
11111110
11
100
0
1
11
111
1011
11
1
0
11111100
11111100
11111100
1
101
110
11111111
11111111
11111100
0
11110101
11111110
1
11111010
1001
11111010
1
110
10000
1100
10011
11010
11100
11000
10011
10011
10000
1001
101
11111111
110
1001
1010
1100
111
101
110
1000
11111011
11110110
0
10
11111101
11110101
10
1111
10101
1110
1011
11011
11010
11110
10111
11001
10100
1101
1010
110
1100
1010
11
11
1100
1110
10010
10010
0
110
11111111
0
101
11111001
11111011
1100
1000
1000
110
10
11
1001
1100
1101
1010
1000
1011
101
110
0
11111111
110
100
11
1000
110
11111101
11111110
11111101
10
110
11111010
11111101
11111110
11111110
10
11111101
11111001
11110101
11111001
0
0
101
1011
1011
0
1001
101
100
110
10
101
110
11111110
0
110
11111110
10
100
110
11110111
11111100
11111101
11111010
11111111
11111110
11111010
11110111
11111101
1
1
101
110
101
110
100
11
110
111
110
111
11111111
1
0
11111110
0
0
1100
101
0
0
11111001
11111011
11111110
11111010
11111110
11
0
11111110
10
111
111
1000
0
11111111
100
110
11
10
1
1
11111101
0
0
0
0
0
11111010
11111011
11111000
11111011
11111110
11111101
11111111
1001
1011
101
110
111
111
101
101
11
0
11111111
11
11111101
1000
100
11111110
0
1
11111111
110
11111110
11101111
11111100
0
11111011
11111110
11111111
11
111
1010
11
11111100
10
11111110
0
10
11
1000
110
1
1001
0
11111101
11
0
11111111
0
11111111
0
11110111
11110001
11101100
11111000
11111000
11110101
11110101
0
10
11111110
11110111
11110101
11111101
100
100
111
1
0
1
10
101
100
0
1
1
0
0
0
101
1
111
11
11111101
11111001
11110010
11111100
11111101
11110010
11110010
1000
0
11110001
11111001
11110011
11111101
11111010
11111010
11111011
0
0
0
0
