0
0
11111111
0
0
11111111
11111111
0
0
0
1
0
0
11111111
11111111
0
0
0
0
0
11111111
0
0
1
0
11111111
0
1
0
0
0
1
11111111
0
1001
111
1000
1001
110
10
1011
111
11111100
1011
10011
10111
1100
1010
1100
1011
1010
10
0
0
1
1
0
0
10
11
101
110
1101
10001
10110
10111
11001
11101
11100
10100
10100
10100
1111
1011
10011
1111
10000
10001
10100
10000
1000
1000
1
0
11111111
0
1
1000
110
1111
10100
11001
10000
111
1101
10011
11110
10111
10011
10000
11010
1010
110
111
100
10
11111110
100
10001
111
10
0
0
0
100
110
11111001
1000
1000
1011
110
1010
11
1
100
0
1001
1001
1001
1001
1010
11111010
11111001
11110101
11110000
11110011
11110111
10
1110
1011
1
0
1001
1000
10
0
11111110
11111011
11111111
0
11
11
1000
1000
1101
100
111
1000
1000
11
10
10
11111101
11111001
11110110
0
1111
111
11111111
0
101
0
11111111
11111100
11111000
11111001
11111100
11111010
11111100
11111111
100
101
111
1001
1010
1010
110
11111111
11
0
11111111
0
11111100
10
1
11
1
11111010
11111101
11111010
11111101
100
11111010
11111110
0
11111011
0
11
1
11
110
1111
1011
110
11111111
11111110
0
0
10
11111101
11111110
11111011
11110111
11
1000
0
11111001
11111100
11111010
11111100
0
100
0
0
11
11111111
11111110
0
100
110
1110
101
1
0
10
0
0
11111110
11111111
11110110
0
110
100
11110111
1
0
11111110
11111111
110
11
100
0
101
0
11111110
0
100
110
11
11111111
11111000
11111111
11
0
11111110
10
100
100
11111111
11111010
11
11111111
11111101
11111110
111
11111111
110
100
11
0
1
11111111
0
11
111
0
11111011
11111010
11111101
0
11
101
1001
1011
1101
1
0
11111111
100
11
11110100
11111111
101
0
1
1
0
10
11111111
11111101
1
110
111
11111101
11111000
11110011
11111011
0
11111101
10
111
1001
10111
1010
1100
11111100
10
11110110
11111111
100
100
101
11111111
11
0
0
0
11111110
10
100
0
11111100
11110101
11110111
11111001
11111010
11111101
100
1000
111
10001
10
11111011
11111011
10
11111101
11110100
11111110
11111111
0
11111111
1
0
11111111
11111101
0
100
11
1
0
11110110
11110101
11111011
11111110
11111001
11111111
111
1001
10
11
0
1001
101
11110110
11101110
11111001
11111010
11111101
1
11111111
11111110
11110111
0
1000
101
11
10
11111101
11110101
11111010
11111001
11111010
11111010
0
100
1
11111101
110
1011
111
0
11111101
11111110
11110111
11110111
11101111
11111011
11111010
11111001
11110111
0
101
101
11
10
11111001
11111000
11110111
11111010
11111101
11111110
0
0
10
100
10010
0
0
11110111
11110111
1000
11111000
11110011
11110100
11110010
11110011
11110100
11110111
0
1
1
0
11111001
11111001
11111001
11111011
11111010
11111001
11111100
0
1010
1000
111
10011
1011
11111111
0
11111000
11
11111010
11110111
11111100
11110110
11110111
11110101
11110111
11111010
11111110
11110110
11110101
11110011
11110110
11111010
11111010
11111101
1
0
11111111
1000
1010
1011
101
101
0
11111010
0
11111110
11111000
11111101
100
10
11111111
11111101
11111011
11111010
11111000
11110111
11111010
11110101
11110011
11111011
0
11
11
100
0
1000
1001
10001
1000
0
11110101
0
11111101
11111101
11110100
11111100
0
11
0
10
0
10
11
1010
111
11111110
0
0
1001
1100
10
0
10
1010
10000
10110
111
10
11110111
0
110
1
11111101
11111100
100
1000
1011
1100
1100
111
1001
10010
1011
110
110
11111101
1
110
101
1011
1000
1100
1010
1100
100
0
0
0
101
11111001
11111100
1010
100
11
1011
1010
100
101
1110
10100
10000
1100
101
11111001
101
1
101
1110
11
1000
1011
110
11
11
0
11111111
1
1
0
10
11111111
11111011
101
10
100
1001
10000
1111
1001
1000
1
11111111
11111101
11111100
11111101
111
10
101
1100
100
0
10
0
0
11111111
1010
101
11110110
1
11111001
11111001
0
0
1001
1101
1010
101
101
11
11
1
11111111
0
1
0
1000
1010
10
11111100
11111101
0
0
0
11
1001
11110111
11111001
11111010
11111001
11111101
100
111
1100
10001
111
110
1001
1100
1
11
100
11111011
11111011
0
11111000
11111111
10
11111110
1
11111111
11111111
100
11110111
11110011
11111011
0
0
110
10
110
1000
110
0
11111010
0
0
1000
101
0
1
100
10
10
10
11111110
110
0
0
0
1
1
11111100
11111100
11110110
0
1
11111100
11111110
101
101
0
11111010
11110101
11111000
10
11111110
11111011
11111011
11110110
11111001
11111001
11111111
11
0
0
0
0
0
0
101
11111011
100
11111111
10
0
11111000
100
10
11110000
11110000
11
11111111
11110111
11111010
11101110
11111101
11111111
11111011
11111011
1
11111111
1
0
