0
0
1
0
0
0
1
0
0
0
1
0
11
100
1
0
0
0
0
0
0
11111111
11111111
0
0
1
0
11111111
0
0
0
0
11111110
11111100
11111110
11111111
11111110
11111010
11110110
11110011
11111110
11111110
1010
1001
11
110
0
11111011
11110101
11111100
0
11111111
0
0
0
1
0
0
0
1
11111001
11110111
11111110
11111010
11110110
11111000
11110011
11110011
11110100
10
10
100
110
11110101
11110011
11111000
11110111
11110110
11111011
11111100
11111101
11111000
0
0
0
0
111
1
11110111
11110111
11110110
10
0
11111101
11111101
11111100
11101110
11110010
11111000
11110011
11111001
11111001
11111101
11111100
11111100
11111100
11
0
11110010
11111000
11111000
0
0
0
111
1
11111011
11110110
11111110
100
11111111
11111101
11111010
1
11111111
11
10
11111101
11111101
11111110
1
11111111
11111000
11111101
1
1010
0
11111100
11110000
11111101
0
0
11111101
11111101
11111100
11111111
11111010
0
11111100
11111000
1
110
1
10
1
101
11111100
11111110
11111110
11111101
11111001
11111000
11110110
11111110
11111110
11111000
11101101
11111000
1
11111011
1
110
11111110
10
11111000
11111111
0
0
0
10
11111111
11111101
10
101
111
110
10
10
11111100
10
11111111
11111000
11101111
11101100
11101101
11110011
0
1
0
11
10
1
0
11111111
11111111
1
10
0
11111111
10
11
100
100
111
100
11
1
100
11111110
11111101
11110100
11110100
11111011
11110100
111
101
1000
0
11111111
1
101
101
11
10
10
11111110
11111100
0
10
11
10
1
11111111
11111110
11111110
0
11111001
11111111
11110111
11111000
11111100
11110110
1
1010
0
11111011
11111111
0
10
1
10
0
11111111
11111111
11111111
1
110
1010
11
11111110
11111111
11111011
11111001
11111011
0
11111001
11111100
11101111
11110011
11111111
11
111
110
11111110
11111011
0
0
11111110
11111101
11111110
0
0
11111110
0
100
1000
11
10
11111110
11111101
11110111
11111011
100
11111000
11111100
11111010
11111100
100
11
111
101
11
0
0
10
10
11111111
11111111
10
11
0
11
10
111
10
1
0
11111111
0
11111111
101
111
11111100
11101110
11111010
101
11
111
1000
0
101
10
0
0
1
11111111
11111101
0
10
1
11111101
11111110
11
0
1
101
111
1111
10101
1001
110
1
1
110
11111100
1000
1111
1000
1111
10
11111010
11111110
11111101
11111101
11111110
11111111
11111110
11111010
11110101
11111000
11111111
11111101
0
0
1101
11110
11100
1111
10001
1110
10
11111010
11111111
11111111
1100
1110
1111
0
0
11111011
11111101
11111101
0
11111101
11111011
11110011
11101111
11110111
11111011
11111101
11111111
100
1100
10101
10010
1110
1000
11111111
11111010
1
0
1
11110111
111
1
1
11111100
11111111
0
1
0
1
11111010
11110001
11101111
11111001
11111111
11
11
100
1010
1011
1000
101
11111010
11110011
11101111
11111111
101
11111100
0
1
10
11
0
0
11
10
0
11111011
11111000
11110100
11111001
11111111
100
1000
10
1010
1100
1011
11111111
11111101
11110011
11101100
11101111
11111011
0
11111110
11111111
11111010
0
0
0
100
101
100
100
11111110
11111010
11111011
110
111
1001
110
110
101
110
0
11111101
11111101
11111010
110
11111011
11111011
110
11111100
11111010
11110000
11111001
1
0
0
110
1000
111
0
11111111
1000
1111
1010
1010
111
1000
110
0
1
11111100
11111110
11111000
101
100
11111101
11111010
1001
0
11110100
0
11111101
0
110
10
10
11111110
0
1000
1100
1100
101
0
11111100
11111100
11111110
11111100
11111100
11110110
0
0
1
11111011
10
0
10
11111110
11110011
11111100
11
11111110
100
11111110
11111100
11111100
0
1001
110
1011
1
11111101
11111010
11111001
11110111
11110100
11110011
11110100
11111001
111
11111011
1
11111110
11111111
11110111
0
11110101
11111110
11111111
11111011
11111011
11111010
11111001
11111100
11111111
1
10
11111111
0
11111111
11111000
11111101
11110111
11110111
0
11111110
11110101
101
0
11111110
10
11111111
0
11111110
11110110
11111110
11111101
11111001
11111001
11111011
11111111
11111111
11111101
1
1
10
0
0
11111101
11111111
11111011
11111011
11111011
10
11110110
0
0
11111111
101
0
0
11110010
11101010
11110110
11111011
11111101
11111000
11111100
100
11
1
11111110
1
10
0
11111101
11111111
11111101
11110110
11111000
11111000
11111100
11110011
11
11111001
10
0
0
11111111
11111011
11110100
10
11
11111010
11110110
11111011
11111111
11111111
11111101
11111010
11111011
11111110
11111100
11111111
1001
0
0
11111111
11111110
11111000
11111010
11111110
11111100
110
1
0
0
11110110
1
11111101
0
11111000
11110101
11111000
11111110
11111110
0
11111100
11111110
0
11111111
1
11111001
11111101
11111101
10
1
1
0
11111011
101
11111110
0
0
0
11111111
1
11111011
0
0
11111111
0
11111101
11111011
11111001
11111011
0
1
100
0
11110101
0
101
1101
10
101
11111011
11111100
110
0
0
0
0
0
0
101
101
11111011
11111110
11111011
11111101
110
11111111
11111110
101
101
11111010
11111110
11
101
1010
10
101
101
110
0
0
0
0
