0
11111111
0
1
0
11111111
11111111
0
1
1
0
0
0
1
0
0
11111111
0
0
0
0
0
0
11111111
0
1
11111111
0
1
0
0
11111111
11111011
11111101
10
1
1
11
110
1001
1001
1
11111100
100
11
1000
1100
1110
1011
111
11
10
0
1
0
0
11111111
1
101
110
11
11111101
110
10011
1100
110
110
1011
1000
1100
10011
110
11111100
11110101
11111111
0
11111110
110
0
0
111
11111011
0
0
0
0
1
100
11111100
11111111
10
11111111
0
100
10
1000
101
110
0
11111100
0
11111010
11111000
11111000
11110111
11110100
11111011
11111111
0
1
11111110
11111111
0
0
11111111
11111011
11111010
10
11111100
11
11111101
11111011
11111101
11111001
11111010
1
0
11111101
11111110
11111111
11111100
11111111
100
10
10
0
11111101
11111110
11110001
1100
0
1
101
11111111
1
11111101
0
1
11111100
11111000
11111101
11110100
11110110
0
1
11111110
11111101
11111101
0
101
1
10
11111111
0
11
11111101
11101111
11111110
0
0
11111110
10
11111101
11111110
11
11111101
11110110
11111001
11111100
11111010
11111011
11111110
11111011
11110111
11111001
11111100
11111011
0
0
1
0
1
11111110
10
11111000
11111101
0
11111111
11111011
0
0
11111010
11111101
11111000
11110111
11111010
11111110
0
11111111
11111111
11111100
11111000
11111100
11111111
11111110
11111100
11111110
11111110
11111111
1
100
0
0
11111110
111
1
110
111
11111011
11111000
11111100
11111000
11111011
11111101
11111110
11111101
11111100
11111101
11111001
11111100
11111101
11111110
11110111
11111011
0
11111110
0
10
11
11111001
10
11110101
11111111
11110111
1000
110
110
11110111
11110101
11111100
11111001
11111110
11111100
11111000
11111010
11111010
11111011
11111001
11111000
11111000
11111000
11111111
1
11111110
11111100
11111111
11111101
11110111
11111100
11110110
11111111
11111111
11
111
111
101
11111100
11111101
11111011
1
11111110
0
11111101
11111110
11111001
11111001
11111101
1
0
0
10
11111110
1
11111110
11110010
11101111
11111101
11111010
11111111
1000
11111010
100
0
0
11111100
1
10
101
101
1
11111111
11111101
11111001
11111010
11111101
11111011
0
100
0
11111111
11111011
11111110
11110110
11111011
11111011
11111001
0
0
11111101
0
11110111
11
10
1
101
1000
110
1010
110
10
11111101
11111000
11111011
1
100
10
0
11111101
11111111
11111110
101
101
11111000
11111110
0
100
0
0
1
1001
111
101
101
111
1010
1101
111
11111101
11111010
11111000
11111010
11111111
10
11
11111110
11111100
0
0
1
0
11
101
11
11111011
11111101
110
0
1010
11
1000
1010
1100
1011
1011
100
11111100
11110100
11111000
11111110
1
10
11111111
10
0
101
0
100
0
1
111
10
11111011
100
1001
10
1
11111111
110
101
1101
1110
1001
11111110
11111100
11111001
11111001
11111111
0
10
11
1
11111110
110
110
11
11111010
11111110
101
11111111
11
1
11111111
10
0
11
111
111
1001
1011
101
11111101
11111000
11111010
0
11
11
101
1000
0
100
1000
1010
0
11111101
11111111
100
1
11111110
0
11111100
1
10
11
101
110
100
111
100
11111011
11110110
11111100
0
100
110
111
1
101
110
1001
100
1
111
11111101
11111111
11111001
0
11111010
1
111
100
10
101
111
10
10
0
1
11111011
11111101
10
110
101
100
0
11
0
111
100
100
11111111
11111001
0
0
11111110
11111001
1000
1000
0
100
10
11111110
0
10
10
11111100
11111011
11111110
1
1
11
0
10
11
0
100
100
11111010
11111111
0
10
0
1
100
1000
100
101
110
100
11111111
0
10
1
11111100
11110100
11110110
11111101
11111011
11111010
1
101
10
1
10
11
11110111
11111100
0
0
1
100
0
1010
0
11111101
11111110
11111111
11111100
11111111
11111111
11111110
11111101
0
11111011
11111100
11111011
11111000
1
0
1
0
100
11111111
11101111
11111010
111
100
0
0
101
101
10
11111011
11111010
0
0
1
110
11111111
11
11
11111011
11111110
11111011
11110101
11111101
1
11111111
101
100
11111000
11110010
11110100
1
101
0
0
101
0
0
0
11111100
0
11111111
0
11111110
11111001
11111011
11111100
11111101
11111101
11111011
11110101
11111111
11111111
10
0
10
11110111
10
11111010
0
0
0
11111111
0
11111111
101
1
0
11111110
1
1
11110110
11101100
11101011
11101110
11110010
11110110
11111000
11110100
11111000
11110011
11111001
11111101
0
11110010
11111000
111
110
1
11111111
0
11111011
11111111
11111000
11111010
0
11111100
11100110
11100011
11101000
11101011
11100111
11100101
11101100
11111000
11110010
11110000
11101011
11100010
11011100
11101111
11111000
11110011
11110001
100
101
1
1
0
0
11111110
11110100
11110110
11101010
11101001
11100110
11110111
11110100
11101111
11101101
11110010
11101110
11111010
0
11101011
11011101
11011111
11100000
11101100
11110010
11110100
101
1
0
0
0
0
1
0
1
0
11110111
11111001
11110110
11110001
11110101
11110011
11101110
11110010
11101101
11110000
11110101
11110000
11110110
11110101
11110111
0
10
0
11111111
1
0
0
