11111111
1
0
0
0
11111111
0
0
0
0
0
0
0
11111110
0
0
1
1
0
11111111
0
1
0
0
0
0
0
0
0
11111111
0
0
0
1
10
0
110
11
101
10
110
10
11110111
11110111
11111100
11
100
111
1010
111
101
11
0
1
1
11111111
1
0
0
0
1
110
110
1100
1100
10
11111111
11111101
11111111
0
11111101
11110111
11111000
1011
1110
10001
1000
1101
1111
101
1
0
0
0
0
0
11111010
11111001
11111101
110
111
11111010
11111110
11111010
11111110
1
11111101
11111111
11111111
0
100
1000
100
1011
1001
1100
1010
10001
10100
1111
111
1
11111111
0
11111000
11111000
11110101
100
111
101
11111100
0
0
1
1
1
11111111
11111111
11111101
1
0
11111011
11111100
10
11
1110
11
1101
1101
1000
11111111
0
11111011
100
11111111
11111100
11111100
11111110
11111011
11111011
10
1000
111
11
11
11111110
0
11111111
100
11111110
11111111
0
11111011
11111001
11111110
1000
110
1000
0
11111101
0
111
11111010
11111110
100
10
11111101
0
11111111
11111101
11111110
11111000
11111011
1
0
11111100
11111110
11111101
0
100
0
0
0
1011
111
110
0
11110011
11111111
11
111
110
10
0
11111101
11111110
11111110
11111111
11111000
11111011
11110110
11111111
11111010
11111101
11111110
11111101
11111100
10
110
1
1011
101
10
100
10
11111101
100
111
1101
1
11111111
11111111
11111100
11111101
11111111
11111101
11111101
0
100
11111111
11111101
11111100
0
0
1
10
1
1001
10001
1110
1000
0
1
11111010
11111111
11
1010
1011
11111110
0
11111011
0
11111111
0
1111
11101
10111
10
11111101
11111101
11111110
10
0
0
101
10
10101
1010
0
0
1
11111101
11110011
10
1000
10
101
1110
1010
10110
11110
101100
101111
100010
1111
0
11111010
11111101
11111101
11111101
11111110
11111101
0
100
10111
0
0
11111001
1
11111101
11111111
101
1011
1001
1100
10111
100011
100011
100101
11111
1100
10
11111111
11111011
11111100
11111001
11110111
11111011
11111010
11111010
0
100
111
11
11111011
11110111
0
10
10
11111100
11
1100
1100
1110
10000
110
1000
11111111
11110101
11111100
11111011
11111100
11111100
10
11111001
100
0
0
11111110
11111100
11110110
11110011
0
11111000
11111111
101
11111110
11111100
0
1
11111100
10
11111111
11111100
11111100
11111010
11111110
11111100
11111011
11111110
0
11111111
11111011
11
1
11111101
11111100
11110110
11111111
11111100
11111110
100
111
11111000
11110110
11111110
0
11111101
11110110
11111011
11111100
11110111
11111101
11111111
0
11111101
11111010
11111100
0
11111111
11111101
11111110
0
11111000
11111000
11111000
100
11111011
11111100
11
100
11111010
11101111
11111011
1
11111100
11111110
1
11111111
0
11111111
11111100
11111111
11111111
11111100
11111101
0
11111111
11111100
11111111
1
11
10
100
111
11111101
11110101
11111111
0
11110110
11111101
11111111
11111011
11111111
11
1100
1010
10
1
100
100
0
11111110
0
11111110
11111010
11111111
11111101
11
10
100
1010
11111101
100
11110111
0
0
11110110
11111111
1000
101
11111111
101
1001
1111
1110
1011
110
101
0
1
110
101
11111011
11111101
11111101
1000
100
11111011
1001
11111111
11111000
11111010
110
1
11111001
11110111
11111011
11111111
11
11
101
11
111
1000
1010
1010
11
100
1010
11
11111110
11111101
0
101
100
0
1010
1100
11111111
11111101
11110111
11111001
11111100
11111111
11110101
11111111
0
11111100
11111100
1
0
110
110
110
101
1000
101
0
10
1
0
0
100
111
100
10
11110100
101
11110111
1
10
11
11111011
11110110
10
11111111
0
0
11111011
11111110
11111111
0
10
0
100
101
110
11111011
11111101
11111110
10
11111100
11
11111011
11110110
11111101
11111100
11111110
11111011
11111000
11
11110111
11111100
11111101
11111111
0
11111010
11111100
1
100
0
11111111
11
11
11
1
111
1
10
10
101
11110101
10
11111011
0
11111100
11111010
11111011
0
11111010
11111100
11111011
0
10
11111111
0
110
110
10
11111110
0
0
0
111
11
101
111
10100
1100
1001
1
11110101
11111111
0
0
11101101
101
11111110
1
0
11111110
11
0
10
0
11
0
0
11111110
11111111
1000
111
1100
1100
10000
10010
10001
101
1
11110100
0
0
0
11111011
11110110
0
0
100
1
0
10
11111101
11
101
100
11
1000
1100
111
1100
11011
10010
10
1000
10
1
11111110
11111001
0
11111111
0
11111100
11111010
11110011
11111011
10
10
11111100
11111100
0
0
11111100
100
1110
10111
10011
1100
1111
10000
1111
10000
1001
11111101
11111010
0
0
11111111
0
0
1
101
1010
1010
1010
1010
11111101
11111110
11111101
1011
111
11111100
1010
1100
1001
101
10001
10010
10011
1101
1
11111101
0
0
11111111
0
0
11111111
0
0
0
0
0
1
0
11
11111011
11111100
111
101
0
110
11110111
11111100
100
0
1
1
0
0
11111111
0
0
0
